#version: 0.2 - Trained by `huggingface/tokenizers`
a n
Ġ t
i n
e r
. .
e n
o n
a t
a l
h e
e s
a r
Ġ s
o r
Ġ p
Ġt he
i t
Ġ Ġ
Ġ d
Ġ o
i s
e d
Ġ m
a s
Ø §
Ġ Ċ
.. ..
Ġ b
i on
Ġ c
an d
Ġo f
i c
in g
Ġ a
r e
Ġ in
r o
Ù Ĭ
Ġ f
en t
Ġ w
Ġ and
e l
c t
Ġ Ø
l e
Ù Ī
a m
u s
u r
u n
Ġ S
Ù Ĩ
Ġt o
a h
e m
e t
Ġ (
Ġ A
Ġ M
an g
at ion
i l
Ġ T
ĠĠ ĠĠ
Ù Ħ
2 0
a k
.... ....
o m
a d
Ġ P
u l
Ġ k
Ø ±
i d
Ġ h
Ù ħ
o l
u t
Ġ 1
Ġt h
i v
Ġ I
i m
â Ģ
c h
Ġ C
Ġ l
c e
Ġ n
i g
a y
Ġ e
s t
a g
Ø ª
i r
Ġ r
a p
er s
Ġ B
Ġ is
a b
Ù ĥ
u m
o t
Ġs t
Ġ y
Ġ g
Ġ re
Ġ R
en g
u d
i k
Ġf or
Ġ D
o w
Ġ Ø§
Ú ¤
Ġ 20
e ct
i a
i f
es s
o s
t er
Ù ĩ
Ġp ro
Ġb e
........ ........
o d
Ø ³
ĠĠĠĠ ĠĠĠĠ
l y
Ġ al
Ġ on
Ġ E
Ġ F
Ġc on
Ġ K
k an
Ġ H
Ġ as
) .
Ø ¯
t h
it y
e p
Ġ 2
an t
it h
Ġ L
Ġ N
ar e
a in
es t
Ġ v
m ent
ĠT he
ĠØ ¯
a ct
Ġd i
Ú ł
Ġth at
t r
o p
0 0
u re
Ø ¨
er e
at e
Ġd an
ï ¼
Ġy ang
Ġs e
i al
Ġ J
i es
a c
u p
u k
Ġe x
o ur
. ,
o g
ĠI n
i p
Ġ O
q u
Ġ Ùħ
ä ¸
Ġw h
Ġ 3
e ar
a v
i an
Ġw ith
i b
Ġp er
en d
f or
iv e
o c
om p
¿ ½
ï ¿½
u b
Ġb y
Ġ an
e v
Ġ are
a j
Ġ or
e c
is t
Ġ us
Ġ at
ro m
Ġr es
a i
Ġ it
Ġ U
Ġ G
Â ł
Ġ 0
p er
Ġ un
Ġ Ú¤
âĢ ¦
ĠØ ³
ic al
p l
Ġ 4
Ġ W
u ct
il l
a w
1 0
i z
h t
e w
ay s
ul t
Ù Ĥ
ï¼ Į
ã Ģ
ar t
Ġ j
ad a
Ġ le
em b
u g
f f
or t
o v
Ġa d
ĠØ ¨
s e
en ce
âĢ¦ âĢ¦
o un
y a
_ _
ar i
Ġst ud
Ġb er
Ġf rom
Ġ20 1
Ġ Ùĥ
e k
ĠØ ª
Ġw as
) ,
Ġ &
Ú ¬
Ø Į
at ed
ð Ŀ
ent s
al am
Ø§ ÙĨ
Ø§ ÙĦ
ab le
ç ļ
al ays
in e
an ce
.. .
Ġ 5
on g
çļ Ħ
................ ................
e g
Ġc omp
ag e
Ġ Ù
Ġ .
Ġm en
Ġth is
ä º
20 1
ãĢ Ĥ
for m
Ġp r
ak an
Ġt er
n al
ation s
e b
Ġs h
u al
âĢ Ļ
ear ch
E R
u c
9 9
f er
p ort
av e
en c
p ro
ÙĬ ÙĨ
A N
ol og
ion s
ar a
ar d
i h
Ġ im
Ġ20 0
Ġc h
ĠT h
em ent
ic h
ĠM alays
Ġt r
us t
er t
ĠĠĠĠĠĠĠĠ ĠĠĠĠĠĠĠĠ
ÙĪ ÙĨ
ï¿½ ï¿½
el l
o k
Ø± ÙĬ
un g
t he
ig n
en s
a an
c om
T I
or e
p t
u e
O N
o us
o st
Ġ et
c on
æ ľ
ÙĦ ÙĬ
a ch
Ġd alam
Ġ V
Ġh ave
or k
l ic
d uct
d er
c c
Ġc an
ðĿ ĳ
Ġd is
T he
č Ċ
as t
Ùĥ ÙĨ
ar y
Ø ¬
o h
å ı
as e
Ġ 6
Ġ he
as s
y s
Ġ âĢ
ĠMalays ia
al l
in d
E N
ÙĪ Ø§
Ġ -
Ġa p
20 0
Ġn ot
in t
Ġm an
o f
ation al
at a
eng an
ä »
or d
p r
/ /
t p
e ch
an s
b er
u h
le h
if ic
Ġm eng
am p
it ion
o ut
Ġs p
er v
s o
Ø± Ø§
Ġstud y
: //
Ġwh ich
e x
Ġh as
or s
an c
at er
Ú Ĩ
h er
ÙĦ Ø§
ÙĬ Úł
ĠS t
Ġw ere
a il
Ġin i
t o
st r
iv ers
1 1
a id
I N
y st
Ġin d
t uk
æ ĺ
id e
g e
ic e
th er
ĠØ§ ÙĦ
v er
Ġst r
j ect
Ġthe ir
at an
Ġm e
w w
ff ect
Ġse b
Ġ Y
ig ht
- -
Ġp l
Ġd engan
c l
c ess
it i
Ġ 7
Ġcon t
ik an
1 9
Ġex p
r i
ter n
a u
A R
em p
or y
o ul
o b
am a
Ġk e
ro w
Ġa b
a f
Ù ģ
å ¤
n ya
ĠP ro
et w
al ah
ang an
e f
ĠA l
Ġ en
et h
E S
I n
o od
Ø ©
il ity
o u
our nal
Ø ¹
Ġal so
Ġun tuk
ĠU n
ev el
ic s
__ __
A L
i le
as ed
oul d
ht tp
Ġc om
g an
Ġw ill
ĠI s
ar k
æĺ ¯
Ġm od
I S
c i
âĢ¦âĢ¦ âĢ¦âĢ¦
Ġ 8
æ Ī
ÙĪ Ø±
ac k
a ce
1 2
yst em
Ġ1 0
evel op
Ġs aid
r am
Ġ qu
Ġ1 9
ech n
as a
Ġa m
on e
on d
ä ½
l ow
e en
ĠC h
os it
Ø§ ÙĬ
ĉ ĉ
Ġre l
e ed
n ing
u an
el y
ig ure
as i
n ow
c re
ug h
Ġh ig
Ġk ep
ar an
r es
Ġp eng
u ch
olog y
im e
Ġm emb
al u
è ¿
l am
ay a
ov er
ĠE n
ĠC on
Ġ 9
m an
Øª ÙĪ
l u
an k
1 5
at ive
å Ĳ
l ed
1 3
Øª Ø§
Ġp art
Ġd if
Ġ Z
1 6
Ġin ter
m s
Ø³ ÙĬ
etw een
ĠR es
âĢ Ŀ
oun d
ag ement
Ġc l
it ies
ä¸ į
i ew
S I
Ġa g
at i
ĠA n
is h
ä ¹
re e
Ú ½
1 4
y p
Ġres earch
k a
Ġus ed
lic k
Øª ÙĬ
en er
ĠØ¯ Ø§ÙĨ
Ġa ct
t e
Ġal l
ys is
i i
ĠJ ournal
et er
ag i
Ġsh ow
eth od
Ġy ou
Ġ ÙĬÚł
h ip
Ġexp and
Ġres p
ion al
Ġus ing
ĠTh is
Ġp re
Ġ ï
ĠA s
ĠO F
C lick
i ed
å °
TI ON
Ġcon s
oun t
âĢ ĵ
å Ī
Ġan al
l es
u a
ĠP er
a us
el ah
Ġo b
Ġ [
Ù ł
os e
Ġ ro
un d
Ġs up
om e
a z
Ġbe en
2 2
Ġa cc
Ġ ÙĪ
Ġs el
å ľ
æľ ī
1 7
Ġb etween
Ġ =
Ġ :
Ġw ork
Ġw e
Ġm ore
Ġp ada
an a
Ġp en
m in
5 0
v e
æĪ ĳ
å ħ
F igure
Ø± ÙĪ
ce pt
Ġa c
ap at
A B
p h
at ing
Ġ1 99
at es
am e
o y
Ġres ult
Ġo ut
å ®
A C
on s
Ġ el
Ø £
us tr
Ġin v
Ġdif fer
aj ian
1 8
c ent
Ġm em
an y
Ġd es
Ø Ń
ĠØ ¬
le ct
ä¸ Ģ
ah an
Ġas s
r ic
ing s
at ure
u kan
A T
r it
i re
ĠØ§ ÙĬ
Ġcom m
Ġo ther
ad i
ag ai
Ġs ystem
O R
Ġd ata
ç Ķ
ÙĪ Ùħ
ĠUn ivers
ut ion
A P
form ation
Ù İ
Ġd o
Ġd evelop
ar g
al an
u j
3 0
ab ility
o ok
T R
ĠIs lam
E M
Ġthe y
Ġp h
Ġs ub
Ġkep ada
er i
in ess
id ak
Ġm ak
2 1
l ah
Ġk er
T h
iz ation
Ġe v
ĠÙħ ÙĨ
it e
Ġe ffect
tern ational
Ġpro cess
Ġm er
e h
Ġv ari
Ġp ol
ur al
ur ing
ÙĪ ÙĦ
Ġad alah
he m
ĠA b
am b
Ġt ime
ro l
c r
Ġ "
at u
Ġon e
Ġs uch
Ġ em
Ġm y
act ion
Ġt elah
form ance
tr ib
äº Ĩ
Ġit s
ate g
U R
Ġmod el
o leh
Ø¯ ÙĬ
ing g
Ø§ Ùħ
v el
Ġp el
in k
Ġin t
or g
r ess
ev er
now led
................................ ................................
Ġo leh
ect ion
ãĢĤ ãĢĤ
ĠI t
2 3
U N
Ġm el
Ġth ere
il d
è ¯
Ġpro duct
enc es
ro ugh
00 0
ĠS h
l i
2 5
ĠØ ±
ul ar
ĠIn d
us iness
Ġun der
Ġb el
ĠâĢ ľ
um p
ign ific
ir on
Úł ÙĨ
ĠĠ Ċ
Ø§ Ø
ww w
is s
um ber
A M
Ġs o
A S
Ġ Ùĩ
Ġpro v
ĠM an
Ġs et
Ġf act
Ġc ol
it u
al ity
' s
å ¾
Ġre g
Ġhig h
Ġb ut
ĠØª Ø±
cl ud
enc y
ur es
Ġt ak
Ġs c
d uc
T ER
ff ic
Ġ i
Ġb ah
row se
Ġp ers
ĠÚ¤ Ø±
Ġ ÙĦ
Ġm ethod
l d
oc ial
is m
L E
ic es
C H
as an
Ġ up
Ġ Q
1 99
Ġtr ans
Ġwh o
Ġb u
v iron
ĠS ci
Ġ ant
EN T
m er
Ġs ur
ĠØ¨ Ø±
oc i
str uct
2 4
Ġor gan
le t
ad e
Ġt idak
å ¥
ro up
Ġa k
ĠM oh
Ġ ÙĨ
ow er
viron ment
id ent
d o
Ġin cre
pl ic
it al
Ġth an
U S
A H
Ġim p
w o
Ġ ar
http s
I C
nowled ge
Ġm as
U M
Ġn o
ir i
aus e
Ġn eed
Ġt ah
r y
T able
re at
Ġf ir
st it
Ġs ol
¡ Ù
Ġs em
for e
i x
Ø§ ÙĪ
Ġt e
ĠØ³ Ø¨
Ġdiffer ent
æ ī
m y
in a
per t
ĠĠĠĠĠĠĠĠĠĠĠĠĠĠĠĠ ĠĠĠĠĠĠĠĠĠĠĠĠĠĠĠĠ
Ġle vel
ĠĠ Ġ
is e
Ġm ay
ĠA d
äº º
-- --
ug a
â Ī
b le
2 6
Ġy ear
Ġv al
Ġin f
Ġ Âł
Ġd ari
2 8
ut h
ro s
ot h
Ġt echn
Ġs ep
Ġit u
ar ip
ark et
Ġm ed
Ġc o
Ġus e
r on
Ùħ Ø¨
Ġle ar
ĠA r
ur r
ĠRes earch
er ing
al th
* *
å Ľ
a x
4 0
O D
Ġp e
a ir
Ġg r
Ġstud ents
ignific ant
Ùħ Ø§
Ġd ec
ed uc
arip ada
åľ ¨
Ġ1 5
ex t
____ ____
Ġpr es
ik e
Ġad d
ĠSt ud
ĠA N
i um
Ġsp ec
Ġn ew
ol d
ub lic
ang e
Ġanal ysis
ĠEn g
er y
g ram
Ġth rough
ic t
al ly
Ġm in
he d
è ¡
h ad
ĠÙ ģ
Ġin to
æ Ĺ
ater ial
Ġwh en
n e
m ad
en e
w h
Ġj uga
ul ation
ĠØ ¹
act er
Ġfor m
Ġseb agai
er n
iv es
A TION
Ġt est
l ine
2 9
ï¿½ï¿½ ï¿½ï¿½
Ġy our
t ain
er g
s h
2 7
Ġon ly
p ect
aw a
Øª ÙĨ
Ġf in
ap h
Ġ1 3
g un
s es
Ġat au
e e
y ar
it ed
w ard
ä ¼
Ġk es
ant s
ä½ ł
or m
ĠC omp
S t
y n
Ġb agi
iz ed
p os
Ġmen j
con om
æ Ŀ
b e
Ġn eg
iz e
re l
Ùĩ Ø§
at h
Ġb i
ĠØ§ ÙĪ
Ġm ost
et y
Ġ x
ep osit
Ġt wo
i qu
ĥ ½
Ġs erv
Ġ1 6
i ent
ere ka
) :
av i
Ġact iv
Ġ1 8
Ġc or
Ø§ÙĦ Ùħ
Ġan y
m e
Ġc ar
ï¼ Ł
Ġmen y
up akan
Ġ ent
am an
Ġh ad
al e
o ol
E C
Ġ1 4
f ter
ĠĠĠĠ Ġ
Ġd aripada
ations hip
ĠI N
iv id
å Ń
it a
Ġper formance
Ø µ
n ess
Ġb ased
over n
ĠÚ¤ Ø¯
ow ever
ol low
amp le
Ġpart ic
ul a
Ġm ain
al i
å ¸
6 0
ĠT r
is ion
im p
ar ed
Ġo ver
pl oy
Ġim port
aj ar
p ec
æ ĸ
Ġ ia
è ¦
int i
ĠâĢ ĵ
3 3
um an
ent ion
Ù Ģ
Ùħ Ú¤
ĠØ £
o int
ĠE x
8 0
Ġp ar
it s
Ġab out
in s
ç »
i ev
Û ı
å į
ment s
Ġap pro
it er
Ġg ener
y l
Ġmer upakan
ÙĨ Ø¯
Ġ ÙĬ
el d
ing k
Ġ1 2
ist ics
ro p
do i
t en
âĢ¦âĢ¦âĢ¦âĢ¦ âĢ¦âĢ¦âĢ¦âĢ¦
he s
ĠIn ternational
Ø§ ÙĥÙĨ
Ġw ell
Ġse k
ag es
I D
ap a
r a
iv en
ar kan
o x
Ġ ,
Ġs ignificant
ç ľ
ific ation
Ġsup port
v iew
ir an
w ord
I T
Ġse c
Ġg roup
f ul
Ġthe se
trib ut
Ġd r
olog i
Ġt yp
oc k
Ġc r
Ġk ajian
ed u
] .
p en
O L
Ø§ Ø±
tr act
ib r
al a
os s
Ġa kan
E L
d ul
l ish
op le
Ġtah un
ap er
Ġï ´
Ġ ÚĨ
Ġex per
ib le
ĠP r
un ct
Ø¨ ÙĬ
iv ely
Ġbe c
Ġ Â
Ġin formation
Ġin clud
oun tr
åĪ °
Ġ if
fer ence
ic k
Ġp emb
A K
Ġw ould
b ih
Ù ī
Ġme as
is tr
A b
Ġval ue
è¦ ģ
U L
stit ut
Ø§ Ú¬
Ġ +
Ġdes ign
Ġ1 1
ĠN o
Ġam ong
ä» ¥
å ·
Ġ1 7
ĠA p
A l
y d
Ġs k
i ous
U n
u ah
c omp
l is
and ing
ep end
Ġl ike
Ġresult s
ent ial
Ġb l
å Ĭ
Ġs ome
3 5
ÙĪ Úł
R O
ak s
ÙĪ Øª
ap an
ect ed
com e
å İ
as es
m it
us an
äº İ
Ġre qu
ĉĉ Ċ
å° ±
in c
us s
8 8
Ġm ereka
in es
ĠP h
R E
B rowse
ÙĬ Ø³
Ġd e
Ġwh ere
Ġre c
Ġd ig
Ġc ap
ÙĬ ÙĦ
ur n
ol v
Ġf ound
Ġthe m
æ ²
t ing
as h
Ġ3 0
ad em
ĠIn t
Ġinv est
ek n
4 5
Ġat t
id er
le ment
Ġre port
Ġst at
re ct
ik a
ĠA cc
Ġcont rol
or ld
al s
ur an
C h
ain s
eposit ory
è Ģ
is k
7 0
Ġ ................................................................
i e
ĠÙ ¢
Ġf ollow
duct ion
ang s
t ed
Ġ ut
ert i
Ø ®
Ġbec ause
Ø ´
Ø ²
ar acter
ĠMan agement
ord ing
Ġlear ning
ung an
ÙĦÙĬ Ùĩ
iv ed
if ied
Ġg o
m ail
Ġ Ú¬
c es
A D
Ġap p
s u
Ġp em
emb er
Ġl oc
eg r
3 6
ĠF or
Ġd ef
ÙĪ Ø³
åı ¯
Ġpro ble
o le
ĠH e
åı ĳ
Ġw ater
Ġpro ject
j a
il y
ĠØ§ ÙĬÙĨ
l p
Ġind ustr
ot her
em per
ĠØª ÙĬ
s erv
Ġb oleh
eb ut
P ro
7 5
Ġf ind
ĠB inti
IN G
ðĿ Ĳ
in i
i eld
Ġd uring
Ġa fter
è ®
Ġn umber
E D
Ø§ÙĦ Ùĩ
ĠUnivers iti
ang u
h as
eng th
Ø§ Ùĩ
ĠØ§ ÙĪÙĨ
art ic
un ic
å ¹
urr ent
Ġd ue
å¤ §
ical ly
Ġle bih
ak at
é ĩ
Ġresp ond
ust om
ĠØ¯ Ø§ÙĦÙħ
ĠS el
Ġ ident
Ġ X
pro v
Ġsh ould
c op
Ġk nowledge
ĠTh ere
f ace
Ġï´ ¿
ĠMoh d
ĠA nal
Ġdis c
3 4
ar m
i er
r aph
ĠAN D
id es
Ø§ Ø³
ul an
Ġt ers
ĠâĢ ĺ
Ġ2 5
ang k
ĠP eng
Ġpe ople
è¿ Ļ
y m
å ĩ
ang g
r an
Ġdevelop ment
Ġm at
ch ool
Ġrel ationship
anc ial
il a
had ap
ar is
p ut
A n
l im
Ġs m
Ġm arket
Ġen vironment
Ġp p
un y
ĠU S
re f
echn ology
Ġe ach
Ġbe h
Ġ z
0 5
ĠÙ ¡Ù
Ġp ass
3 9
I M
Âł ĠÂł
Ø§ Øª
Ġd ik
ÙĪ Ø¯
ØªÙĪ ÙĤ
id ikan
ä¸ ª
b y
Ġle ad
é Ģ
ine ering
Ġc ountr
olog ical
Ġqu ality
ĠUnivers ity
Ġimport ant
ĠP ol
Ġor der
Ġs atu
Ġpr act
ĠD r
Ġman agement
E T
ent al
Ġp ur
Ġd eter
Ġs im
Ġp end
est ion
e y
u it
Ġm on
ĠM el
ip t
Ġk el
Ø «
Ġm emp
ÙĦ Ùĩ
7 8
4 9
Ġyear s
ain ing
Ġb usiness
ÙĬ Ø±
Ġd em
if e
Ġre m
ak t
el s
ĠSci ence
AP TER
T M
at kan
am pl
Ġd apat
it ud
ic ro
Ġg ood
an j
ĠIslam ic
Ġfir st
Ġv ol
3 8
Ġh is
Ġs ocial
our ce
s is
Ġman y
m en
Ùł Ù
Ġte ach
Ġhe lp
O S
on es
Ġad v
ĠP M
Ġm aterial
overn ment
Ġfact ors
o ad
CH APTER
ĠM od
Ùħ ÙĦ
7 6
Ø ·
I V
Ġb oth
ur ther
ed ah
ĠV ol
ur s
is c
M alays
Ġstud ies
on t
angu age
Ġs es
O M
Ġpro f
Th is
Ġstr uct
é Ĺ
Ġem ploy
A s
Ġd il
Ġb r
Ġor ang
æĿ ¥
m ed
Ø§Ø ¡
å ¿
âĢ ľ
Ġ )
å ¼
e j
ä» ĸ
âĢ ¢
Ù ĳ
Ġh t
ä¸ Ĭ
ov e
4 8
ab les
ï ´
Ġm ust
Ġin s
Ġad a
Ġpres ent
âĪ Ĵ
a ik
A Y
é Ĥ
ĠO r
Ġe qu
and ard
Ġg row
Ġ educ
Ġp osit
Ġl a
Ġc ell
è¡ ¨
p ar
o ugh
Ġb ers
ag a
ĠAb dul
Ġ ÙĦØ§
Ġht tp
Ġind ic
Ġk em
Ġn on
om m
or ang
Ġsep erti
ĠØ¯ ÚłÙĨ
Ġpro gram
å¥ ½
ro und
% )
p or
ÙĬ Øª
Ġn i
Ġhig her
Ġb ar
Ġb et
Ġl ow
å Ĩ
an n
Ġ est
å ĵ
Ġk now
Ġth ree
an an
3 7
am in
v ent
ow n
Ġpen y
Ġcon duct
Ġcl ass
Ġm et
ï´ ¾
Ġo ur
uth or
Ġber k
4 6
at is
I I
ial ah
Ġwh ile
A G
og in
ĠÙħ Úł
Ø °
Ġstr ateg
aj a
our ces
ap p
Ġ201 4
um b
Ġex pl
Ġsec ara
ut er
ä¹ Ł
ĠMalays ian
pr ess
5 5
w n
IS T
ï¼ ģ
Ġbah awa
emper ature
un j
U C
Ù ı
ä¼ ļ
Ġ201 5
erg y
pr es
Ø±ÙĪ Ú¤
ĠW h
ĠH owever
at ic
iv ity
æ ĥ
Ġm end
AR A
Ġa w
w ith
å º
uny ai
Ġ20 10
Ġbeh avi
Ġseb uah
e an
r ed
ĠI m
ÙĪØ§ Ùĩ
Ù Ĳ
Ø§ Ø±Ø§
Ġf e
Ġ201 2
an i
ĠS tr
ult y
Ġ /
t s
Ġv ery
an ya
Ġk et
t al
ĠP l
Ġ ialah
Ġters ebut
pt ion
Ġind ivid
1 00
ä¸ ĭ
Ġinf lu
atis f
Ġg u
ĠR e
ce ived
Ġr ate
at or
ĠP en
c ed
ĠR M
con d
ç Ľ
ibr ary
im um
in ce
Ġc ould
pec ial
Ùħ ÙĬ
Ġap plic
Ġ201 7
ekn ologi
Ġth en
Ġia itu
if y
Ġel ect
on om
å Ĵ
æ ķ
Ġg et
ay u
ac y
ĠO n
cent r
y ang
un an
it ions
Ġ201 1
ert a
Ġo per
Ġ '
ang kan
S TR
etw ork
evelop ment
Ġ2 6
ot e
Ġ201 3
8 5
uh an
8 9
Ġdi b
m as
le ar
Ġe conom
å ¦
ĠØ Ń
è ĩ
le x
Ø§ Ú¤
in al
8 6
ÙĪ Ùĩ
he l
Ġcon d
hem ical
Ġto ward
Ġc ost
ech an
struct ion
4 4
s y
ak u
Ġg l
pl ied
un ity
ros s
Ġd et
æ Ģ
é ģ
å ¯
Ġl ain
l in
re qu
Ġf unct
Ġdi rect
ÙĪ Ùĥ
Ġd it
201 3
i o
pert ies
u f
Ġshow s
ĠØ§ÙĪÙĨ ØªÙĪÙĤ
Ø£ ÙĨ
Ġm aj
aj aran
Ġh ow
H E
any ak
Ġadd ition
9 0
Ġp aper
201 4
Ġf l
com m
ĠM ed
Ġare a
b r
Ġp ublic
ĠC ON
a ff
ĠT er
© Ù
Ġc ult
æ Ń
Ġl ong
alu es
Ġa ir
ig h
201 2
k s
ug g
ĠØ ¥
ĠD es
u z
Ġs er
uc cess
å¾ Ī
ĠA z
ap i
Ġ2 4
Ġ1 00
å¤ ļ
i j
Ġcons ider
n a
y t
Ġl im
ĠĠĠĠĠĠĠĠĠĠĠĠĠĠĠĠ ĠĠĠĠĠ
7 7
oc us
Ġ201 6
d an
us ion
om en
re ad
ac ulty
0 1
è §
Ġcon f
Ġ200 9
ÙĨ ÙĬ
um e
é ĥ½
è µ
ent uk
Ġof f
Ġt u
Ġacc ount
ar ah
ro duction
r en
Ġc re
Ġc ustom
çľ ĭ
ĠE duc
ak a
Ġhe alth
Ġ5 0
Ġm ot
S S
I G
Ġmemp unyai
ual ly
åıĳ è¡¨
og raph
ÙĪ ÙĤ
ĠA h
ingg i
i ence
201 5
ffic ient
Øª ÙĤ
ia u
uk kan
Ù Ĵ
Ġd im
i od
Ġs ame
Ġbe ing
s ue
Ġ åıĳè¡¨
ÙĢ ÙĢ
b ased
Ġo p
er m
em ents
cr ipt
Ø±ÙĪÚ¤ Ø§ÙĥÙĨ
Ġp op
il ai
ul l
os ition
ik ut
è ½
ic y
ĠM al
u at
Ġpers on
Ġch aracter
3 1
20 10
å ĳ
ih an
trib ution
Un ivers
Ġme an
Ġa v
ch iev
Ġker ana
gun akan
ç ī
of t
æ ¯
6 5
C O
Ġr isk
Ġto tal
ĠAnal ysis
Ġter hadap
d apat
Ġper t
th at
Ġb ank
am mad
ag n
Ġinv olv
ĠN ew
7 9
at al
201 1
æ² ¡
ĠA m
c k
éĤ £
Ġ200 8
v ious
Ġk aw
s on
Ġpel ajar
---- ----
Ġob tain
ur ut
n ov
ĠÙħ Ø±ÙĪÚ¤Ø§ÙĥÙĨ
Ġd id
Ġo wn
ar ch
Ġant ara
u ar
ist s
Ø³ ÙĨ
Ġ2 1
is is
ĠEng ineering
ii i
is ed
ol ah
Ġb en
Ġh er
ĠØ³Ø¨ ÙĪØ§Ùĩ
Ġcol lect
ĠA g
Ġk eb
ar ge
Ġp ati
Ġunder st
Ġc urrent
Ġa ffect
Ġob ject
Ġm ult
A d
Ġincre ase
Ġ end
reat ment
at ch
Ġe ar
ur ed
ĠStud y
AB STR
Ġst ill
Ġo pt
unic ation
N O
un akan
Ġre f
M S
3 2
s i
ÙĪ Ú¬
Ġp ot
c ul
it or
ent ing
y at
yd ro
og n
æ ł
ist ic
æ Ĭ
d i
as ing
è ¾
Ġp oint
I R
Ġj ust
Ġpass word
Ġvari ous
åĲ İ
Ġimp act
er a
åİ »
Ġmenj adi
Ø§ Ø¯
Ġ201 8
6 6
ĠT o
Ġa chiev
ĠN or
E n
aj i
Ġf ood
æ ĭ
O G
Ġwh at
Ø±ÙĬ Ùĥ
ir ed
Ø ¶
I L
Ú¤ Ø¯
o id
ob al
n er
Ġ eng
Ġo il
ĠT echnology
Ø§Ú¬ Ø§ÙĬ
æ Ķ
Ġd ep
it an
ç İ
ist ance
i ap
ver y
ä¸ º
m a
L ogin
y ah
Ġ Î
Malays ia
L IST
Ø§ Ø¨
4 7
ib ility
s or
Ġs ize
Ġshow n
ect or
Ġp ower
ĠM us
Ġth ose
ut ure
T A
w are
st ud
p ond
Ġmak e
Ġ20 20
Ġrel ated
Ġcomp ared
201 6
ers hip
Ġper k
ust ain
Ġ es
æ ¬
Ġ200 7
Ġh uman
v al
é Ŀ
od e
Ġse cond
AC T
unj ukkan
EM ENT
Ġc ase
ÙĬ Ùĥ
il ar
Ġt emp
itud e
re g
æ ŀ
l and
d r
t y
Ġgrow th
Ġtoward s
o o
con t
ĠI f
SI ON
âĢ Ķ
ĠB in
epend ent
Ġf ac
in ed
im es
iqu e
è¿ ĺ
æ Ħ
Ġbet ter
c o
200 9
im a
yar akat
ual a
t i
pos ed
Ġre ad
æĹ ¶
ĠS ystem
è ´
Ġfin ancial
201 7
Ġber t
E E
ar ian
Ġt emperature
g en
ill s
Ùħ ÙĨ
Ġak u
Ġ4 0
8 4
Ġh and
Ġactiv ities
i or
d in
ĠØª Ø§Ùĩ
ä¸ Ń
Ġmed ia
adem ic
ĠÚ¤ ÙĨ
Ġåıĳè¡¨ äºİ
OD UC
Ġb ro
Ġeduc ation
Ġl ess
alu i
Ġl agi
Ġ ÙĤ
Ġ200 6
b rowse
ĠAs s
å Ģ
ur u
ah a
Ġf ocus
ĠB usiness
6 7
Ġ ðĿĳ
ĠCon t
iss ion
è ĥ½
Ġv alues
8 7
I s
iv er
ĠR epository
Ġinvest ig
Ġ201 9
Ġindivid ual
Ġcons um
Ġinter est
Ġo cc
ä» ¬
Ġd el
ï Ĥ
ä¹ Ī
Ġtr ad
am ad
Ġk a
Ġf low
ingg a
ĠØ§ ÙĨ
Ġpartic ip
Ġs erta
s p
id ence
ak e
Ġb ack
Ġs u
w a
Ġc al
art ment
________ ________
Ġmeas ure
ĠÙ İ
Ġbe fore
Â ·
et s
Ġ emp
S h
Ġmaj or
é Ļ
Ġproble m
h id
m eng
Ġ2 9
Ġf am
Ġresp ect
Ġs uccess
Ġc ent
AN G
C E
g r
is i
ve y
Ġre t
p re
ire ct
iv ing
Ġw orld
n ot
Ġ $
ed ict
ĠØ§ ÙħÙĦ
Ġappro ach
atisf action
ugg est
æ °
an e
Ġper cent
Ġro le
Ø ¥
Ġg overnment
V I
Ġk ed
il ities
ffic i
Ġc rit
Ġrespond ents
Ġm ade
ĠF igure
p p
Ġex t
il m
ãĢ ģ
Ġl ife
Ġwith in
end er
Ġy g
P er
P ER
çĶ ¨
Ġob serv
C on
ĠØªØ§Ùĩ ÙĪÙĨ
ĠM in
ampl es
åĴ Į
ab or
i TM
Ġcon centr
ĠT eknologi
o or
ä ¿
Ġqu estion
at her
as on
Ġprov id
Ġ200 5
Ġ2 3
Ġsub ject
it ive
Ġimp lement
Ġ ï¿½
Ġ2 2
Ġb as
5 9
6 9
Ġp ost
ĠE lect
ĠM ARA
ĠF in
er ia
am i
e es
ĠĠĠĠ ĠĠ
ÙĪ ÙĦØ§
Ġev alu
ĠPro f
Ġ â
er c
ĠEduc ation
ï Ģ
ag ian
in ter
l ess
! !
b ook
ĠA c
åı¯ ä»¥
Ġdig unakan
al ing
Ġre view
anc ed
Ġ2 7
Ġm asa
lis hed
ĠR ev
Ġmeng gunakan
et ic
le ase
at ural
ĠØ§ Ø¯
ĠA t
Ġtyp e
ĠSt at
em s
in ation
ĠB ah
5 7
Ä ±
as kan
er ah
ur b
C L
0 9
Ġpar am
Ġposit ive
AL AY
Ġ2 8
Ġpro perties
n i
ĠD i
Ġn ak
ri ed
ĠA M
l ing
U D
Ġr ight
t ion
let ak
v en
ab ah
åĩ º
os p
pecial ly
ĠD ata
ĠK h
å® ¶
ĠN ur
P P
S N
Ġch ild
Ġ |
il an
Ġindustr y
g er
ert ain
Ġf r
Ġen ergy
ild ing
SI A
iter ature
Ġag ain
b on
um m
Ġsm all
ĠÚ¤ Úł
Ġat as
è °
R e
ĠMel ayu
and ar
p eng
å ģ
Ġim prov
su es
4 3
U UM
Ġp oss
at ory
end s
ÂłĠÂł ÂłĠÂł
Ø³ÙĬ Ø§
å ½
Ġs ample
201 8
Ġ u
A r
Ġsur face
5 6
4 2
Ġpro t
Ġcon cept
Ġ ide
èĩ ª
æ ³
Ġcomp et
R es
200 8
ce ed
ĠT able
Ġp un
Ġ200 4
ï¼ ļ
ur i
ak i
å¦ Ĥ
sy ch
b agai
è¿ ĩ
Ġprov ide
Ġcont in
v ers
ĠØ¯ Ø±ÙĬ
d ay
Ġtechn ology
Ġac id
ĠK uala
ih at
Ġd ia
om un
Ġch ang
ODUC TION
çĶ Ł
l er
Ġneg ara
ĠC omm
S T
........ ....
arg a
d is
Ġshow ed
å ī
Ø± ÙĨ
h ib
ĠAh mad
Ġst andard
ĠE ffect
j ek
ĠĠĠĠ ĠĠĠ
end ed
ĠB i
our s
ones ia
ÙĪØ± Úł
Ġon line
Ġg iven
o ot
ĠS ocial
ĠC or
p ers
ig a
ĠØ§ÙĪ ÙĦÙĬÙĩ
Ġserv ice
ail able
w e
Ġg re
IV ER
' t
ist em
ug ht
Ġpl ay
J ournal
pres ent
Ġconduct ed
l um
all eng
Ġto p
ï ģ
ĠIn stitut
d u
ir a
ðĿĳ ĸ
ult s
c or
Ġproduct s
f rom
Ġdisc uss
et ers
ĠW e
Ġb est
Ġcont ent
c er
g or
Ø¬ Ø§
è¯ ´
k er
Ġloc al
Ġproduct ion
ĠM uh
Ġstruct ure
æľ Ģ
4 1
ys ical
Ġk al
ĠR E
ed ia
op er
ĠØ Į
ĠD is
Ġter letak
ong an
ĠInt roduction
ress ion
eg ree
duc ed
op h
å Į
EN D
M E
ĠS T
ĠØ³Ø¨ Ø§Ú¬Ø§ÙĬ
å¹ ´
ap e
ä ¾
0 3
Ø ¡
istr y
Ġ200 3
Ġfact or
ÙĬ Ø§
ew ork
Ġ20 21
Ġt an
W h
Ġin st
Ġkaw asan
od y
ĠB er
ãĢ Ģ
Ġs en
g round
å¾ Ĺ
Ġw ay
im b
ĠC ol
TR ODUCTION
Ġpro m
ç Ĥ
Ġl anguage
Ġs aya
Ġent er
Ġev en
ak ukan
an ning
ÙĦ ØªÙĤ
ĠP ers
z a
ĠM at
Ġcomp any
Ġvari ables
ĠSci ences
Ġd ah
Ġdi j
d e
ĠU s
Ġun ivers
oci ety
Ø º
0 2
Ġs chool
t on
Ġmethod s
Ġe very
Ġwith out
es ar
cr ib
Ġdeter min
P T
ALAY SIA
SI TI
Ġpot ential
or gan
ek s
ang unan
ĠIn ter
Ġstr ength
Ġass ess
Ġs uggest
Ġs ens
ĠM e
Ġse ver
Ġs l
Ġper form
8 3
åŃ Ĳ
ĠÙģ ÙĬ
ĠB r
Ġper iod
ĠR el
b i
200 7
æ İ
ĠCon ference
m ore
ĠS p
ĠThere fore
t if
um ent
ĠJ oh
ĠEng lish
res earch
ĠD evelopment
t ic
ain ed
us i
Ġp ay
ron ic
un t
ç Ħ
Ġre al
ĠC O
Ġcountr ies
re pr
Ġam ount
Ġv is
ĠS ur
Ġter ms
Ġs ama
a e
ar ing
g et
ĠThe se
Ġh al
Ġp at
Ġcon tribut
m m
re c
Ġ20 00
ç §
ãĢĤãĢĤ ãĢĤ
ÙĬ Ø©
one y
ol ar
am s
cl usion
Ġch ange
ad u
Ġth ink
ep artment
? ?
ram ework
s c
UR E
ĠAl lah
e ad
R M
ĠMod el
Ġactiv ity
ĠS ing
Ġex press
an ies
al m
Ġm ark
Ġab le
ĠØª ÙĦÙĩ
Ġn etwork
Ġv iew
Ġrequ ire
Ġman a
ik asi
Ġ ...
gor ith
ump ur
å¤ ©
200 6
Ġse g
Ġ Ã
ĠØªØ± ÙĦØªÙĤ
m od
ABSTR ACT
Ġm icro
ĠS ub
8 2
T S
is ing
iven ess
ver age
Ġs ince
Ø³ Ø§
anc es
ot a
Ġmen unjukkan
ĠE conom
us ia
Ġf our
Ġexper im
ĠS c
Ġorgan iz
ag ing
repr ene
ut an
Ġst art
Ġreport ed
ĠS erv
Ġpol it
orm al
Ġresp ons
v est
Ġth ank
as ter
ĠAcc ount
ĠG r
s el
en al
h ir
in an
å ķ
AB LE
ÙĪ Ú¤
20 20
I P
Ġn an
Ù ¢
Ġdo es
ist ing
ens ion
Ġmel alui
ĠC l
Ġserv ices
en a
r al
ati o
Ġ ed
Ġs al
ĠHe alth
Ġf urther
Ġp ast
ÙĬÚł Ú¬
Ġn ow
OL OG
Ġfind ings
Ġes pecially
ĠStud ies
AC K
ant an
ĠW ith
Ġinflu ence
ĠAn d
Ġass oci
Ġobtain ed
Ġt et
Ø³ Øª
å ±
Ġter b
Ġf uture
Ġex tract
ern ame
ÙĬ Ø¯
Ġ200 1
ip le
ĠÙ¡Ù ©Ù
æľ ¬
= =
Univers iti
201 9
ĠN eg
at t
tern et
or i
0 6
ï ĥ
o ard
Ġ enc
Ġd one
Ġdif f
h ar
m ine
av ing
k u
ĠØ ´
Ġj ob
ĠTr ans
at ures
N A
ĠAl l
ĠM ALAYSIA
Ġmen c
Ġpre vious
pro ve
8 1
d as
ĠT e
Ġeffect s
Ġm uch
ĠO b
Ġh ous
uk a
Ġt ent
Ġd ev
ðĿ ľ
u ang
ffici ency
l m
at ors
Ġhttp s
oft ware
Ġto ol
it ation
Ġben ef
is ation
Ġ čĊ
Ġpr ess
ĠÙħ ÙħØ¨
ÙĪ Ø§ÙĨ
Ġper lu
Ġber l
Ġc our
ĠM ethod
Ġd om
uf act
Ġt reatment
cop us
ĠA ct
Ġmas yarakat
out h
Ġst ate
er r
M oh
om et
ĠInd onesia
or al
t il
IVER SITI
at if
he st
Ġ200 2
5 3
ud ah
l l
Ġbah asa
u um
R epository
Ġs ed
ĠC o
ition al
Ġn e
Ġeconom ic
Ġapplic ation
IS SN
Ġt inggi
O P
ï¿½ï¿½ ï¿½
on se
Ġa ud
ent ly
p ose
Ġw rit
Ġsever al
Ġc are
ik at
i ate
Ġdi per
Ġc aus
) ;
Ġneed s
ĠS ar
Ġcountr y
Ġtyp es
ÙĪ Ø¨
ÙĦ Ùħ
ÙĬ Ú¤
ih ak
Ġk ec
h ub
ĠE m
Ġreg ard
Ġm ix
c le
ĠT HE
ĠOr gan
akt or
Ġinclud ing
E W
Ġ6 0
ĠÙĬ Ùģ
ĠP re
yp e
aris on
Ġfollow ing
Ġm echan
ï ī
Ø§ Ø±ÙĬ
Ġf ield
Ġcom b
åĽ ½
å° ı
ĠK el
ay aan
il ik
ap ter
ump ulan
at ely
5 4
Ġdevelop ed
rel ation
Ġet h
ĠR ep
Ġen h
E x
is ter
ĠL ibrary
aj ah
ir d
Ġmaterial s
Ġ3 1
O H
s ur
Ġs ah
h a
Ġcomm on
Ġfunct ion
Ġint egr
if fer
ep t
nov ation
ĠØ¯ ÙĬ
Ġr ed
0 4
Ġl ower
ĠA k
Ġtak e
D G
200 5
Ġn am
Ġis sues
Ġc he
ur usan
Ġber b
un e
Ġsel f
Ġpr edict
ul f
Ġlear n
ar r
Ġb in
w ay
0 7
ĠØ³ ÙĦ
ill ion
op e
ear ning
Ġ âĪĴ
Ġpati ents
ens ity
Â °
Ġproble ms
u le
Ġl ay
Ġl aw
ac c
éĩ Į
p e
5 1
res pond
æĥ ³
5 2
l ib
Ġp as
ĠThe y
ĠÙĪ Ø§ÙĦ
5 8
ĠDes ign
t a
das arkan
min istr
ur ity
è ·
Ġs he
ig in
ĠL umpur
ul is
Ġc all
por ate
çĦ ¶
Ġconsider ed
ĠS ec
el ajaran
st ant
Ø± Ùĩ
w ays
Ġbel iau
ang at
Ø§Ø¡ ÙĬ
ĠA mer
con s
A cc
æ Ļ
ĠC ent
I t
P S
ĠK ajian
ell ing
Ġl oad
Ġpro posed
ob ile
ingk at
ç Ł
w an
a im
ah im
Ġ ÙĪØ§
ĠØ§Ø¯ Ø§ÙĦÙĩ
åı ª
u i
Ġexper ience
Ġfam ily
Ġw ord
Ġdi p
ĠH al
w as
en is
åľ °
if f
yp ot
eh avi
ĠB el
requ ency
Ġs itu
l or
d f
6 4
ud din
arg et
eb ab
ak ing
ĠRev iew
UN IVERSITI
ĠÂ ±
ar ang
Ġc ook
Ġstr ess
Ġv ers
Ġcomp on
ut e
æŀ ľ
Ġsem ua
Ġd ua
ĠØ³ Ùĥ
Ġk ita
Ġter dapat
m at
Ġsk ills
Ġgroup s
ÙĬ Ùĩ
w it
Ġal low
ç º
Ġm m
Ġ %
ĠTh us
c ular
se qu
Ġ................................................................ ................................
Ġspec ific
am ai
yn am
èĢ Į
ï¼ ī
å¿ ĥ
Ġmon th
EN G
Ġses u
f for
âĢ ĺ
Ġab ove
In ternational
p ek
Ġ ens
ay ah
ĠN ov
M P
im an
at s
Ġr est
Ġpr ice
Ġsol ution
, "
ĠMus lim
C T
or ies
Ġs ing
ĠS abah
6 3
éģ ĵ
ot al
en ess
Ġd own
Ġo pen
c ol
end iri
ĠQ u
Ġd a
Ġb al
ĠØ¨ ÙĩØ§
T ABLE
Ġd ay
iv iti
6 8
k e
ÙĪ ÙĥÙĨ
s ub
Ġsystem s
um lah
Ġpartic ular
Ġconcentr ation
om b
Ġb anyak
E P
Ġacc ess
Ġac cept
7 4
est ions
Ġa im
as k
it ative
aj aan
ab led
um er
r u
ad ual
ol ution
Ġl ast
ĠS earch
s copus
200 4
20 00
wh ich
å¯ ¹
a q
U T
ĠÙ¢ ÙłÙ
ĠK eb
Ø§ ØªÙĪ
Ġse j
ber apa
Ġim prove
m ar
Ġ ................................
s up
Ġpl ant
ä» Ģ
Ġ3 5
Ġsim ilar
y z
ĠP ar
Ġknow n
7 1
up un
Ġa ut
ĠS ains
lum at
ĠÙĨ Ú¬
ĠĠĠĠĠĠĠĠĠĠĠĠĠĠĠĠĠĠĠĠĠĠĠĠĠĠĠĠĠĠĠĠ ĠĠĠĠĠĠĠĠĠĠĠĠĠĠĠĠĠĠĠĠĠĠĠĠĠĠĠĠĠĠĠĠ
Ab out
åĲ Ĺ
éĹ ®
Ġis sue
9 5
Ġg en
u es
200 3
ĠT est
um ah
O T
7 3
. ;
ĠIn formation
it es
Ġbar u
Ġtr aining
æī Ģ
Ġs atisfaction
y e
Ġse e
Ġincre ased
N ote
Ġgener al
gun aan
ĠR ES
Ġstr ong
Ġf ib
Ġchild ren
Ġs yn
a ud
V ol
St at
y r
Ġl and
ak ar
th ers
é ¢
Ġd egree
ur a
et ah
n ew
Øª Ø±
p ly
Ġest im
iv ation
.... .
ir st
Ġex ample
Ġbe come
Ġg ive
Ġr ange
ab ila
Ø¯ ÙĤ
Ġme ans
ap t
artic le
v ant
alan kan
Ġh ere
ĠÙĥ ÙĪÙħ
it ing
d alam
Ġcon c
aw ah
Ġo x
aw ak
an al
Ġw ant
Ġw eb
7 2
Ġbu y
Ùĥ ÙĬ
T ENT
S P
uth ors
Ġbe berapa
ĠR ec
Ġl ook
Ġm us
Th ere
Ġn atural
ik al
Ġad op
ĠS o
Ġh ydro
Ġagain st
Ġwe ight
ĠA B
g ot
Ġa ge
C C
es is
Ġeffect ive
af ety
p a
el um
åĽ ŀ
ç Ń
ï¼ Ī
Ġpol y
ig nal
im al
Ġan other
ĠAr ab
åī į
ĠR eg
ai re
NO W
ĠD ec
Ġdeter mine
ÙĦ Ùī
ĠB ar
æ²¡ æľī
ĠØ¨ ÙĦÙĬ
0 8
ens ive
Ġch o
Ġï ĥ
ĠU iTM
10 16
Ġs ign
, âĢĿ
ES S
Ġs amples
Ġcon struction
le te
du ce
ur ang
Ġto ur
K U
ci ence
ĠMuh ammad
og en
Ġl og
Ġset iap
ang or
Ġr atio
l ight
over y
Ġm ax
Ġ <
o ff
Ġb aik
amp ung
ĠR et
Ġacc ording
z y
ĠEn vironment
l an
Ġrespect ively
Ġch alleng
ebab kan
Ġcult ure
Ġl arge
c m
ul u
aks an
Ġb ukan
NOW LE
Ġf il
Ø§ Ú½
i ation
iqu es
6 1
Ġcomp anies
T r
ĠP end
Ġrec ord
ar uh
Ġpr im
Ġcell s
P h
Ġman ag
ĠS al
angs a
te in
M an
ast ic
ØªØ§ Ø±Ø§
ĠM ah
ĠØ§ÙĬ Øª
Ú¤ Ø±
ĠD isc
Ġim age
Ġmemb eri
ĠK es
ĠØ§ÙĦ Ø¹
Úł Ùĥ
Ġgu id
Ġ ..
m i
Ġcond itions
os ial
ĠD alam
çĶ ±
tr action
ĠP ublic
ĠM en
g al
b ah
aw i
p ol
NOWLE DG
ç ¾
Ġorgan ization
Ġ ÙĦÙĬ
on al
gorith m
ĠØ¨ ÙĨ
Ġteach ing
le y
Ġspec ies
uk t
ĠØ¯ Ø±
ĠØ§ÙĬ Ø§ÙĦÙĩ
Ġl iterature
Ġw he
ĠM ar
Ġs amp
g n
Ġke y
åĽ ł
P lease
æĸ ¹
Ġd at
å ĸ
Ġcomm unity
Ġre present
Ġf ew
s k
Ġn ilai
eng ah
act ions
ult ure
us nya
is es
os is
A J
at est
w ork
ep as
Ġk at
æ µ
k nowledge
Ġb ud
un ia
æ Į
ur y
osp ital
b ack
ĠS em
~ ~
Ġk ek
aterial s
6 2
id ity
ĠØ¨ÙĦÙĬ Ø§ÙĪ
Ġr educ
Ø§ÙĦ ÙĬ
ĠP ress
Ġï Ģ
Ù ĭ
angs aan
Ġber m
l ink
Ġpl ace
ĠL i
ĠSh ah
ĠE v
ĠS up
ĠInd ustr
Ġmen er
ç Ī
os ed
F or
Ġcharacter istics
pect ive
ÙĦ ÙĨ
Ġl ine
Ġcustom er
ĠS ch
Ġmemb er
N G
æ Ľ
ĠB l
amb il
Ġident ify
Ġpro ses
enc ed
Ġut ama
ĠP RO
I A
éĿ ¢
Ġp ihak
Ä ģ
Ġdec ision
m l
Ùĩ ÙĨ
ØªØ§ ÙĪ
F ER
in f
uj uan
Ġchang es
Ġap plied
Ġp ula
Ġp and
Ġf und
Ġen abled
E K
en ing
ĠB ank
n aire
Ġe k
Ġlevel s
æł ·
in ya
Ġs istem
ult ural
EN C
ant u
é ¡
Ġest ab
Ġav ailable
Ġare as
ĠB IN
ä¹ ĭ
ĠAd d
F aculty
ĠCh ina
Ġgl obal
Ġt ext
Ġcomm it
U s
Ġpop ulation
Ġf ail
Ġa uthor
ä»Ģ ä¹Ī
Ġh ari
åĪ Ĩ
æ ¸
ç ½
ag ram
has il
Ġbehavi our
s w
edu ce
ä½ Ĩ
I K
umm ary
C R
it ial
Ø³ Ø¨
u el
Ġemploy ees
ay ment
Ġg uru
Ġthe ory
iv al
cre te
Ù £
Ġ *
ĠD at
Ġdis e
H e
Ùł ÙłÙ
Ġ3 2
ud a
Ġse h
Ġcomm unication
Ġ art
Ġf ree
Ġl ist
Ø ¸
ic a
uct ion
Ġ3 9
Ġh anya
Ġst ep
pro duct
200 2
er al
Ġter m
Ġdes crib
ak it
mit ted
ĠO N
ĠA S
Ġh ar
Ġ................................................................ ................
Ġar ound
Ġka edah
th ough
V E
Ġparam eters
ig ital
Ġinvolv ed
k in
Ġrequ ired
Ġper m
k ep
Ġm ov
Ġtechn ique
ĠA C
ç ¬
Ġfor got
P L
Ġk omun
Ġb re
Ġpeny el
æ¬ ¡
ub lished
é ©
ens i
W OS
Ġcont ext
Ġas pect
Ġw omen
Ġsel ected
Ġl ight
am al
er l
un ities
ah ang
ĠS ek
e qu
Ġincre asing
çİ °
ACK NOWLEDG
ĠMal ay
Ġc ases
i ability
per im
Ġse orang
t ers
Ġcond ition
u as
Ġc lear
Ġ20 22
Â ±
è¡ Į
onom i
es ter
ĠCON TENT
yar ikat
iz ing
an u
ç Ĳ
Ġg ot
ustain able
In d
fer ences
Ú¤ ÙĬ
and a
n ah
Ġd ays
Ġunderst anding
el f
A m
Ġph ysical
ĠIN TRODUCTION
Ùł Ùł
Ġp enting
Ġa h
Ø£ ÙĦ
c ell
Ġker ja
Â· Â·
200 1
Ġ3 3
Ġre le
b l
Ġop port
é Ľ
Ġd on
ub ungan
Ġg as
Ġdis tribution
Úł Ú¬
Ġforgot ten
iv ate
æĸ °
Ġteach ers
Ġcook ies
sh ow
è ¶
d es
C I
ĠPol icy
Ġpress ure
ble m
Ġe as
ĠO f
ĠM arket
Ġf eed
rel ated
Ġorgan is
Ġcap ital
Ġcomp let
ðĿĳ ¡
Ġpract ices
at akan
lu id
C omp
Ġe fficiency
is ions
m emb
ĠL earning
Ġ4 5
ET H
Ġto o
b u
Ġhig hest
Ġut il
9 7
ÙĪ ÙĦÙĬ
ĠServ ice
Ġab ility
sor ption
Ġprovid ed
ï Ī
Ġc ateg
Ú¬ ÙĪÙĨ
Ø¨ Úł
ec ess
æ ´
Ġpract ice
M A
e fficient
ç Ŀ
é Ĵ
Ø¯ Ø§
ç Ļ
ÙĪ Ø±ÙĬ
Ġcons ist
Ġres ources
Ġinclud e
Ùħ Ø§ÙĨ
Ġc y
ual ity
Ġsh ort
Ġwas te
or ph
è Ĥ
ap ore
Ġh id
Ġpat tern
Ġh y
æĪ Ĳ
ith er
Ġh ard
d engan
Ġs ay
ul ated
Ø§ Ø¬
il i
Ġsur vey
k es
Ġf ive
ess ional
Ġc ur
Ġcon n
Ġtent ang
ri ev
p df
ĠAcc ording
Ġs ector
Ġ199 9
ĠF aculty
n d
Ġ ~
Ġr un
U K
m et
Ġd epend
W e
p el
at us
äº ĭ
Ġus ername
Ġ3 6
P M
tr ans
il ah
ub ah
9 6
Ġtet api
a ut
AK A
res et
Ġbe g
ĠF OR
qu e
m on
ufact uring
Ġpel bagai
Ġa verage
plic ations
Ġac ademic
al k
Ġtrans fer
Ġcar ried
ĠØ¬ ÙĪÚ¬
Ġmend apat
ari ah
Ġ3 7
Ù ¥
Ġresp onse
Ġph ase
ĠÙħ ÙħÚ¤
ĠÙĥ Ú¤Ø¯
b it
ĠAs ia
n o
Ġo thers
ç ®
Ġposs ible
Ġt ax
Ġmodel s
ĠY ear
un der
Ġt imes
and s
Ġd iri
Ġmak ing
Ġtah ap
ĠØ¨ ÙĬ
Ġre ve
ro om
m ost
ad d
ap ati
t or
æ¯ Ķ
mail to
å¼ Ģ
Â Ń
Ġpresent ed
com es
Q u
Ġsing le
Ġdec re
ab atan
åģ ļ
Ġf ri
cept ion
Ġenvironment al
ev ier
rec ord
Ġb ody
ĠS er
ĠW ork
P A
Ġdiffer ence
Ġobserv ed
Ġstud ent
Ġked ua
å Ŀ
id ang
çŁ ¥
inc ip
Ġfir m
ĠA f
v ention
ung i
Login Please
ĠÙħ Ú½
c an
Ġand a
D r
ch ange
as ure
g u
Ġbu ilding
ka itan
Ġb entuk
ĠÙ Ĳ
av el
9 8
Ø¨ Ø±
w ere
ç «
ĠI S
P I
Ġb esar
Ġl ink
ĠM as
åħ ¶
es ides
Ġs ection
Ġh im
Ġs ource
Ġle ast
ĠUS D
ac es
um ents
Ġsh are
Ġun it
g o
Ġbehavi or
y el
n et
end ing
ĠB u
N o
Ġs oftware
Ġc ertain
ed i
âĢ¦âĢ¦âĢ¦âĢ¦âĢ¦âĢ¦âĢ¦âĢ¦ âĢ¦âĢ¦âĢ¦âĢ¦âĢ¦âĢ¦âĢ¦âĢ¦
Ġus ers
ĠS y
ĠUn ited
Ġso il
Ġsp eed
Ġber j
I F
Ġ3 4
h at
ĠH am
wh ile
ap or
pl ay
Ġs il
Ġp ut
dr aw
ĠN ational
Ġsuccess ful
Ġdiff ic
aw an
Ġ err
ul au
uj ud
on str
ÙĬ Ùħ
ace book
S ub
ĠF ood
é ļ
plic ation
r as
ĠG ener
ah man
Ġh ist
è° ¢
om a
ek er
ĠL e
Ġcon struct
ĠS im
us at
Ø§ Ùĥ
f t
Ġresearch ers
iffer ent
. )
Ġit ems
iv ision
Ûı ÙĬ
ĠE d
E AR
Ġcontin u
Ġth erm
h i
end ah
U SION
i ef
v i
æ³ ķ
ĠÂł ĠÂł
A g
çĽ ¸
a ikan
amp us
Ġal ways
ĠÙĥ Ø§ÙĪ
act ors
ĠØªÙĬ Ø¯ÙĤ
re t
Ġcar bon
T o
th is
Ġin stitut
hem at
ĠD epartment
ar ik
h am
ĠSel angor
ĠP el
Ġ ill
ç ķ
word s
é ĺ
Ġl ack
ĠG e
ACKNOWLEDG EMENT
Ġsah aja
Ġcustom ers
u rop
or es
l oad
Ġof fer
Ù ¡
ĠØ ®
id a
Ø³ Ø±
ul es
t ara
äº Ľ
Ġs ent
Ġsek olah
9 3
ÙĨ Øª
al ed
Ġmemb ers
artic les
Ġth us
Ġvari able
å· ±
ï¿½ï¿½ï¿½ï¿½ ï¿½ï¿½ï¿½ï¿½
ĠM ean
ul y
ETH OD
ĠB ased
A F
ĠÚ¤ Ø±ÙĪ
an ol
Ġex amin
ä¸ »
Ġr educe
akan an
d en
Ġg reat
9 4
Ġneg ative
CL USION
Ġwork ing
O n
C l
Ġt el
ang ka
Ġe ffor
Ġens ure
riev ed
ampl ing
P eng
Ġm ight
ĠØ§ ØªØ§ÙĪ
Ġant i
ÙĦ Ø³
Ġs imp
m ark
ĠIs mail
ç» ı
Ġl o
Ġ âĪ
Ġcomp lex
Ġun til
ĠT O
ic ies
ĠG l
pr il
åħ ¬
Ġs us
çľ Ł
Ġassoci ated
Ġg e
çĤ ¹
Ġf ramework
Ġin c
t le
æĹ ¥
ï ĭ
us ter
enc ies
Ġj e
ÙĦÙĬ Ùħ
Ġse en
Ġ8 0
Ġb awah
ĠK er
ĠT an
Ġter t
" .
Ġtak en
str act
Ġï ģ
Ġin ternational
Ø¬Ø§ Ø¯ÙĬ
F rom
ĠM ult
oun g
VI EW
ach ing
Ġdef ined
æĦ ı
ĉ Ċ
ĠA uthor
id ik
S H
p ing
å¸ ĸ
ar eness
ile m
t iviti
ad ar
Ġt re
m al
Ġus er
ĠH ar
ur ation
s et
ïĤ ·
Ġa uthors
èĩª å·±
ĠP R
reprene urs
ĠØ¯ Ø§ÙĬ
v anced
ard s
ĠW orld
ĠI I
ĠØ¯Ø± Ú¤Ø¯
K ey
Ġmas alah
ĠInd ia
Ġconc ern
h al
af t
è ¢
ĠH uman
Ġd ist
Ġc ause
ØªØ§ Ùħ
k aji
Ġan ak
20 21
i ah
c a
ĠIn f
ĠOb ject
ĠC ar
Ġ ib
anc ing
Ġpur pose
act or
os ure
Ġstrateg ies
ç ¥
Â ©
ä¸Ģ ä¸ª
Ġhe at
Ġacc ur
p m
ĠW an
m es
Ġin come
urther more
Ġpert ama
Ġpol icy
Ġqu estions
Ġseb elum
ef ul
osit e
Ġpro ced
Ġman usia
Ġ um
Ġn ormal
-------- --------
Ġt arget
Ġ199 8
1 10
e id
ĠÙĥ Ø±
ak ala
Ġs ignal
Ġc over
Ġm ach
ÙĪ ÙĬ
Ġar r
erv is
us e
us kan
or n
Ùĥ Øª
anj ang
uk u
Ġs endiri
Ġstat us
aw ab
Ġas k
ĠBah asa
Ġspec ial
ĠS et
im ate
ypot hes
ĠP ER
ad an
el ect
Ġc hemical
Ġinter view
ĠPro cess
l a
Ø§Ú¤ Øª
p end
wh ere
stud y
ut r
Ġstrateg y
ä¸į æĺ¯
ines e
c ar
ĠT echn
i y
pro cess
ud in
ada an
act ive
Ġv ia
Ġwhe ther
Ġre comm
ceed ings
Ġ3 8
ĠÙħ Ø±ÙĬÙĥ
ÙĪØ§ Ø±
Ġcol l
P r
âĢĿ .
ai z
Ġpro duce
tr a
] ,
ÙĪÙĨ ÙĬ
Ġmas ih
Ġm ass
A t
Ġpl an
Ġ7 0
ĠP ahang
ant i
en ai
ĠAbdul lah
j ust
ĠÙĥØ§ÙĪ Ø³ÙĨ
it ar
P R
Ġfir ms
ek atan
Ġc ir
mas uk
Ġp ath
v es
ENC ES
ac hes
ap atan
ĠPro gram
Ġl ot
r ical
ograph ic
o ught
å¦Ĥ æŀľ
al au
ut usan
hasil kan
Ġm ah
æī ĭ
res h
Ġsignificant ly
é «
or th
Ġdil akukan
ĠP emb
ĠM ay
Ġf em
olog ies
ap kan
ist ical
art a
Ġprov ides
ograph y
eh old
ide o
Ġst ated
t ime
ĠF rom
Ġp osition
Ġthe sis
ĠV al
ter nal
ic ine
Ġperson al
am ed
d uk
èµ ·
ĠØ¯ Ø¨
Ġ ess
I AN
O r
Ġv ir
Ġkes el
ĠF r
Ġst aff
ïĪ ł
Ġenc our
Ġme et
Is lam
Ġn ext
% ,
Ġs alah
ĠU N
s ec
Ġparticip ants
å¥ ¹
Ġret urn
ĠP L
ĠÙ¢ ÙłÙłÙ
Ġs uit
Ġdet ail
Ġident ified
B S
ĠS m
og le
am at
ĠB e
if at
or igin
å· ²
Ġh aving
Ġanal yz
ound s
Ø ¦
at ives
il it
O UR
Ġp H
Ġb ahan
Ġpro duced
åŃ ¦
Ú¬ ÙĬ
ä½ ľ
Ġmed ium
" ,
ang i
us ing
Ù ¡Ù
00 00
Ġsem asa
Ġst age
Ġap a
9 1
ĠE l
Ġbel ow
Ġout put
Ġcan not
ĠP ada
or ed
æ ±
el u
ail y
d om
ac ity
Ġunderst and
re en
Ù ¤
ÙĪ Ú½
Stat istics
Ġap abila
å® ļ
d a
an ak
stit ution
ĠP art
Ã ¼
il ih
Ùİ Ùĳ
aw atan
vent ional
Ġinter nal
P E
Ġp ara
ustr al
I TER
s earch
AN D
ï Ĭ
ap s
l ik
al es
Ġt en
Ġel ements
ignific ance
Ġl ik
par ation
I f
a o
S earch
Ġte am
ĠÙħ ÙĦÙĬ
Ġimplement ation
Ġ199 7
åĬ ł
Ġdef in
up an
Ġt urut
Ġmak lumat
ĠI a
y ear
Ġo ld
ĠØ§ÙĦ Øª
D M
Ġl at
Ġrec ogn
V ID
Ġre ason
Ġqu al
Ġph ot
ul ations
Ġfe el
Ġbel iev
un tuk
Ġqu ant
em o
ĠB ack
** *
e ffect
A W
ç ¼
et a
Ġ ing
ud uk
Ã ©
9 2
Ġin put
ingk atkan
OLOG Y
Ġcal cul
ĠIm p
ĠAl i
t est
e el
Ġapplic ations
ÙħØ§ Ø³
M y
ri x
ur nal
Ġdis s
Ġc ross
Ġberl aku
ĠL anguage
s ystem
overn ance
ðĿĳ Ľ
ĠÙ¢ÙłÙ ¡Ù
ord in
Ġof ten
b etween
ĠPer formance
at ively
Ġh ot
ept ember
h an
Ġsp e
AT E
ĠAp plied
æľ Ī
v ert
Ġfin al
re am
us ed
ÙĬÙĨ Ø§
Ġg el
Ġprocess es
ot t
Ġcomp lete
Ġneg eri
ic an
Ġrel ig
é© ¬
Ġr umah
ĠSar awak
IN T
it ors
Ġsp ect
ĠÙħÙĨ Ø¬Ø§Ø¯ÙĬ
Ġdi ber
ç¾ İ
ç» Ļ
Ġpend idikan
Ġadv ant
re h
ĠM ore
ĠØ§ ÙĪØ±Úł
m el
é £
Ġp ul
Ġtechn iques
ag aan
S el
Ġd er
ak ah
C S
ĠM aj
ent ukan
Ġsc ale
ĠØ³ ÙĬ
ÙĪÙĦ Ùĩ
Moh d
y le
per formance
ir m
AT URE
ĠRE VIEW
Ġre fer
ac a
Ġk omp
ĠMoh amad
C ON
Ġs angat
ĠC H
Ġst ock
Res earch
Ġn ecess
ĠY us
âĢĿ ,
ĠĠĠĠĠĠĠĠĠĠĠĠĠĠĠĠ ĠĠĠĠĠĠĠĠ
Ġm ar
Ġf aktor
ĠC r
tribut ed
ĠĠ ĠĊ
P age
Ġhas il
ĠØ µ
re ed
Ġref lect
æĥ ħ
éĹ ´
ĠK ep
f in
els evier
eter min
Ġj enis
å¥ ³
Ùĥ Ø±
Ġal tern
ynam ic
af i
ÙĤ ÙĬ
b ar
ĠS chool
Ġw a
æī į
Ġ4 1
Ġp es
Ġtemp at
ĠAb d
T H
Ġw id
Ġper b
ak kan
Ġorganiz ational
uct ure
Ġm g
Ġ4 3
Ġe ither
os ph
Ġachiev e
Ġpre p
Ġmeasure ment
Ùģ ÙĬ
Ġk ata
Ġk u
h d
ĠIs sue
pr iate
è½ ½
Ġobject ive
Ġ9 0
Ġre cent
o z
at form
em ic
Ġsesu atu
Ġmem per
l ar
w ater
Ġ äºİ
the ir
Ġl oss
M ed
Ġs ources
Ġtr y
ĠØ§ Ø¥
ä¿ Ŀ
ATION S
å½ ĵ
ĠAs ian
Ġ4 8
ĠPro ject
ĠC om
Ġsubject s
ĠKel antan
Ġseh ingga
Ġ4 2
or et
ĠP ub
am atan
T E
Ġin itial
Ġr adi
ox id
Ġpur ch
ĠNeg eri
o i
US T
Ġobject ives
Ġind ependent
ons ep
Ġfe atures
Ġd unia
ĠL im
ad ikan
ĠST UD
ilm u
Ġbu at
.... ..
ad es
ran e
g i
ï ½
ar ies
Øª Ùħ
ĠC he
uc k
ah kan
Ø§ÙĦ ÙĨ
ah iran
Ġpercent age
Ġint ro
Ġc ut
Ù ¦
iv il
Ġan n
ab ly
er b
Ġ ang
Ġh ingga
ir es
Ġt urn
FER ENCES
Ġs osial
en ar
br ahim
Ġword s
ÙĪØ§ Øª
Ġfollow ed
èĢ ģ
Ġmon itor
the sis
ĠO ne
åİ Ł
Ġre ceived
ĠL aw
am es
ĠRet rieved
ĠP ayment
Ġreg ion
I m
ĠSing apore
read y
it ect
ĠØ³ Ø§ØªÙĪ
id d
Ġe p
il ihan
ðĿĳĸ ðĿĳĸ
Ġm ention
ĠKeb angsaan
un a
Ġmeas ured
Ù ¨
ĠK e
Ġm ur
Ġ5 5
m em
ĠS eb
Ġdiffic ult
oc ation
Ġf ull
æ ģ
Ġpro tein
çŃ ī
ig inal
Ġd in
Ġdevelop ing
ypothes is
è Ī
Ġker ajaan
ĠD ar
ig her
ef in
ĠH ence
I B
Ġadd ress
Ġassess ment
è¢ «
ĠStr ateg
Ġopt im
T UN
x i
ut ing
ĠØ§ Ø³
eng k
ĠD ivision
Ġear ly
Ġp ort
m ission
Ġkem ud
or der
ĠÚ¤ ÙĦØ§
ih atan
Ġdig ital
Ġp enc
Ġh ours
t ure
im ens
Ġexp ected
Ġ4 4
Ġm oney
am ine
Ġber kaitan
Ġak tiviti
er man
Ġpres ence
H owever
è ģ
r up
im in
3 00
P en
Ġal gorithm
æĪĳ ä»¬
ab il
è¯ ·
ĠZ h
ab i
pl ac
Ġsep ar
ĠÙħ ÙĬ
Ġover all
O C
ĠH as
Ġn ature
ĠA pril
Ġs ociety
Ġm obile
Ġrem ov
ĠJoh or
Ġcrit ical
ĠIn i
Ġk ar
C or
Ġm illion
A TI
D ate
è½ ¦
ĠP ower
Ġke j
Ġexper i
g ress
ab out
% .
ĠØ¹ ÙĦÙī
Ġto day
è ī
v ari
ĠCont rol
am eter
In t
Ġkes an
ØªÙĬ Ùĥ
ĠS AB
Ġbers ama
Ġk umpulan
U B
è¯ Ŀ
ä¹ °
è º
it ro
A p
ĠY ork
Ġn ational
Ġper ceived
Ġmain tain
Ġneed ed
ĠÙħ ÙĦ
Ġf requency
in ear
En g
Ġp alm
B ased
é ķ
Ġmemb uat
h ave
è £
ĠM ETHOD
** **
l ist
ç ´
Ġcompon ents
Ġber dasarkan
Ġmeng ikut
Malays ian
ĠInstitut e
Ġcollect ed
Ġpeng gunaan
ðĿ Ľ
Ġs afety
eth yl
Ġdem and
PER P
Ġche ck
ĠB ut
ub e
Ġre action
ĠÙħ Ùħ
ĠPro blem
val ue
Ġimport ance
l ation
h us
Ġl arg
ĠØ§ÙĦ Ø¨
ITER ATURE
ne y
Acc ording
Ġ ul
S M
ĠCon s
Ġh ome
ÙĪÙĦ ÙĨ
Ġrespond en
Ġ @
Ġc m
Ø¨ÙĬ Ùĩ
ĠÙħ ÙĪ
ĠS e
00 1
av es
ĠØ§ Ø¨
ĠCONTENT S
Ġcon tract
Ġpr ior
Ġcour se
and om
ministr ation
amp u
Ġ199 6
Ġmet al
ĠS Y
Ùĥ ÙĪ
p as
uj ian
egr ad
E d
re ci
o on
ĠElect ronic
S C
é ľ
å°± æĺ¯
Ġ >
Ġf it
Ġgre en
el aki
Ġlim ited
Ġb ig
Ġdij alankan
ly ing
ÙĦ ÙĪÙħ
Key words
Ġprim ary
Ġint ention
d ang
Ġter masuk
Ġter d
Ù §
Ġtr ust
new s
g l
Ġsup ply
ous e
Ġy ield
ir ical
Ġf ulf
ros cop
Ġb ook
Ġh ubungan
åĲ Į
ĠB ehavi
ĠG u
r ich
ä¸ĭ è½½
Ġin str
n an
é »
adu ate
Ġin form
our ism
Ġj umlah
J adual
Ġf ace
Ġsel epas
port s
n eg
Ġide a
sor b
g ed
T Y
Ġindic ated
it le
at ik
on y
Ġpemb elajaran
ung ai
å ĥ
Ġ4 6
s b
ĠS ummary
be za
æ° ´
F ig
Ú¬ÙĪÙĨ Ø§ÙĥÙĨ
å¤ ĸ
Ġmeng enai
ec onom
ĠZ ain
ph p
é ¦
A h
ĠOn line
ç ¨
Ġmax imum
Ġrequire ments
Ġph en
ĠSt ate
ervis or
Ġm ole
Ġle t
æľ º
etah uan
Ġdise ase
è ĭ
il ayah
for t
ĠQ uality
urb an
Ġevalu ation
Ġquestion naire
es e
N ur
Ġbah agian
Ġkal angan
Ġp et
Ġapp ear
F Y
¥ ¿
æī ĵ
Ġb andar
s ite
ĠM c
Ú¬ ÙĬÙĨ
ĠSub ject
Ġunivers ity
pert y
å §
il angan
ĠØ§ Ø£ÙĦ
Ġ4 7
ĠD o
Ġcor relation
as ar
Ġus ually
Ġtan ah
Ø§ Ø³ÙĬ
é« ĺ
ĠJ anu
Ġl uar
Ġpro b
ill ed
Ġs ym
Ġn ear
ĠRep ort
ĠÙĥ Ø§Ùħ
Ġp an
pl ace
id s
ell ig
ĠÙħÙĦÙĬ Ø³ÙĬØ§
Ġsc ore
ĠPend idikan
Ġc er
AP P
199 9
P ada
éĴ ±
åĬ Ľ
Ġn ama
Ġan sw
Ġev ent
ĠH igh
AG E
Ġgr aph
ian ce
ĠV ari
Ø§Ø µ
åı ĭ
ç ©
Ġp oor
Ġcom e
ess ion
ur uh
if t
ul um
re m
A IN
s r
çĿ Ģ
er ation
ib atkan
ĠØ¨ ÙĪ
ĠUs ing
lish ing
b an
Ġc ard
en se
ÙĪØ± ÙĨ
Ġl ab
hem istry
ĠM y
ĠØ§ÙĦ ÙĤ
Ġread ing
é ĥ
ivers ity
lear ning
Ġanal ys
EE E
PT TA
. âĢĿ
æ į
ia o
anc y
ĠR os
Ġp aling
ĠS k
Ġd iv
ĠE urop
m ethod
ĠD IS
æ ı
Ġd oc
ĠA R
å° ĳ
Ġs cre
Ġ4 9
Ġd ivid
Ġess ential
ref hub
Ġact ion
ind ex
Ġsp ace
L AR
ĠS eptember
iss ert
èĢ ħ
Ġindividual s
for d
K M
ilik i
s m
è ¥¿
H ome
ank s
ĠC atal
j ana
Ġter k
Ġk urang
ala upun
ĠSAB AH
ch itect
Ġt iga
Ġfor e
ap ai
æĪ ĸ
Ġbu ah
ÙĪÙĨ ÙĨ
alu ation
Ġal ready
ĠA w
ĠBack ground
ĠPr act
Ġ199 5
ĠØ§ÙĦ ÙĨ
UM S
alam an
åħ ¨
RE FERENCES
ad b
Ġl ength
ub ahan
ĠS P
ĠÙĥ ÙĦ
å £
ĠN ig
ĠO leh
Ġ arg
ad ing
or ing
Ġwh y
Ġre ally
èº «
gun a
Ġex isting
ĠAl am
is a
Ġperform ed
Ġm agn
Ġp ack
I Z
Ġind ex
As s
ĠJ apan
Ġle ct
il es
ut es
ĠA L
un ya
Ġt em
Ġelect ro
ĠP em
Ġd eb
lu kan
c y
Ġb ulan
ĠP e
Ġinter action
å· ¥
Ġf at
' ,
Ġdiffer ences
b ut
è Ħ
Ġah li
. -
ual iti
Ġcre ate
Ġpolit ical
Ġ................................ ................
ĠA ustral
ap id
æĺ İ
Ġag ama
Ġbenef its
us h
Ġus eful
L ES
ĠR ahman
Ġb idang
ä» ¶
Ġtrad itional
Ġd ir
Ġm ac
Ġc atal
Ġcall ed
Ø° Ø§
iz ational
emp at
ĠÙĥ Ùħ
ip s
ĠM aterials
Ġ Ûı
Ġprom ot
ĠØ§ ØŃ
Ġregard ing
ĠD e
ustain ability
St ud
M ENT
om s
clud e
Y S
um in
ect ions
Ġd eposit
Ø§ÙĦ Ø§
oret ical
N ew
Ġkel u
Ġsitu ation
Ġfore ign
ĠG roup
m atan
Ġd am
ic ial
Ġthank s
ult i
Ġas pek
n g
Ġcor porate
çĲ Ĩ
Ġpl anning
um i
æĦ Ł
Ġw an
ĠP sych
ĠØ ²
Ġthrough out
G r
Ab stract
EAR CH
åĲ §
Ġs umber
ĠAss oci
Ġim m
ĠCh inese
ous ly
i q
iv ery
Ġbu ild
um a
ĠR az
ĠL ee
Ġbas ic
st anding
ĠRes ults
Ġmemb antu
ĠS he
ĠIn ternet
Ø¯ Ø±
Ġc op
Ġev idence
Ġ ilmu
ĠE qu
at in
Ġlead ership
ĠN e
br id
id ation
B er
Ġsuit able
ĠK em
ĠAb u
us m
Ġadd ed
Ġw ar
aman ya
å Ł
w ell
ĠN as
eh ic
ond on
ol a
åĵ Ī
Ġprof it
Ġcan cer
l o
ĠS ociety
Ġf ar
Ġlay er
Ġcollect ion
Ġcomp arison
V A
Ġsec urity
D I
S A
Ġm es
ut ions
ig ation
åĲ į
el as
ĠE r
æķ °
em ploy
ix ed
Ġin novation
A pp
Ġcl in
ĠÚ¤ Ø±Ø§
Ġnam ely
ur k
A c
ch ing
Ġex ist
d ec
g ing
Ġ5 1
Ġd iter
Âł Âł
Ġdr ug
ç ģ
Ġaw al
Ġk ind
å® ŀ
cont rol
Ġs ite
ĠM ac
al kan
EC LAR
Ġket ika
ÙĪÙĩ ÙĨ
g ov
in o
m ak
og r
c hes
Ġcont act
Ġal ong
t age
e z
æĹ ł
en vironment
ak yat
Ġhigh ly
Ġre ce
ĠNov ember
ĠW ater
ĠÙ £
ĠS ME
am un
Ġem erg
Ġke ep
ĠK edah
aksan akan
hid matan
Ø§Ú¬ ÙĬ
ip p
ur uhan
ĠS a
enc ing
N or
âĢ Ł
Ġseb anyak
Ø± Ø¨
l ain
Ġinvest ment
S E
Ø§ÙĬ Øª
Ġcr ed
Ġdem onstr
Ġcon crete
199 8
Ġp eker
R ajah
Ġbank s
ECLAR ATION
in cre
p ublic
ĠØ£ ÙĨ
Ġprof essional
é Ķ
ç¬ ¬
Ġp sych
angs ung
ĠØ¯Ø§ÙĬ Ø±Ùĩ
ĠComp uter
Ġl iqu
ĠB as
ag ed
Ġcon stant
ac hel
Ġt im
Ġeffect iveness
Ġstat ement
Ġtr a
S R
Ġaspect s
ĠM on
ap pro
Ġact ive
oc al
Ġcap acity
Ġred uction
ĠEconom ics
ĠCO VID
Ġreve aled
Ġvol ume
Ġatt itude
Ġex pert
ĠW eb
ci ent
C A
ult an
UR ES
s id
D P
s ide
Å Ł
Ġl ater
ĠEn ergy
è ª
ĠÙ ¡
o ber
ĠA ir
ĠB rit
Ġeng ine
er o
d x
Ġber p
Ġex traction
åĲ ĥ
ç ¤
ĠAccount ing
Ġt able
Ġ7 5
Ġv i
è Ĭ
Ġhe ad
Pro f
Ä «
è ¨
ĠM et
ot s
Ġ5 3
oy al
er ian
Ġwrit ing
G A
E F
ak in
Ġc ara
ail and
s pec
Ġerr or
Ġtherm al
Ġs y
ĠÙħ ÙĦØ§
ĠØ¨Ø± Ø³
get her
r ate
Ġcrit eria
Ú¤ ÙĪÚł
ĠP res
H A
est ic
Ġto gether
Ġtest ing
Ġel ement
eter usnya
Ġexperim ental
ĠMel aka
at ter
ekn ik
ÙĪ Ø¬
I X
Ġtour ism
in ar
Ġgre ater
ĠF IG
ĠB y
çĶ µ
P l
ĠBIN TI
in formation
ĠPro duct
Ġwe ek
ing er
Ġbl ood
çŁ¥ éģĵ
Ġmult iple
Ġdetermin ed
ĠCON CLUSION
ĠS iti
ab ilities
ah agian
ĠO ct
ĠØ¨ Ø§
ĠÚ¤ ÙħØ¨
ub le
Ġ6 5
ah un
å¸ ¸
ĠP ulau
Ġag ar
Q uran
b n
oun c
Ġk on
Ġs ide
Ġd ensity
o ch
eb ru
Ġv ideo
Ġaw areness
Ġwork s
Ġcult ural
p emb
ĠI brahim
Ġsuggest ed
Ġinstitut ions
am ar
Ġda erah
ĠM ad
Ġs ix
ĠN umber
Ġpro duk
ĠF urthermore
M od
amb ah
w eb
oun ter
ÙĪØ§ Ø³
æ ¥
Ġpl atform
ind ing
b a
ĠAz iz
ĠAn t
Ġmed ical
5 00
S ource
Ġprovid ing
ÚĨ Ø§Ø±Ø§
ä½ į
M uh
cript ion
A z
uj uk
U iTM
Ġequ ation
ol ic
b al
ĠM icro
ĠÙĨ Ø§Ùħ
s l
ess ment
D es
r ist
ĠA fter
Ġpr ivate
Ø¨ ÙĪ
U AL
Ġb acter
ol ongan
Ġcor rect
D A
ĠY ang
D S
åĽł ä¸º
Ġ5 2
respond ing
ĠB esides
åı Ī
Ġindic ates
Ġwork ers
ĠC al
ĠK a
Ġsol id
Ġpoint s
Ġb oard
Ġeconom y
d n
Ġrecord ed
achel or
Ġse arch
f a
EC T
d ua
Ġb o
Ġl elaki
il t
ÙĬÙĨ ÙĬ
r ation
th rough
le ge
em pt
Ġexp ect
Ġhid up
éĩ į
Ġth ough
Ġmarket ing
st at
ĠÙĦ Ø¨ÙĬÙĩ
Ad vanced
Ġak hir
ogn itive
Ġmember ikan
é ħ
i ang
Ú¤ ÙĨ
Ġchalleng es
Ġac qu
æĽ ´
ĠNo or
Ġtan pa
Ġit em
ĠA ug
as ih
ÙĬÙĨ Øª
Ġsel ection
Ġt ask
Ġcl aim
v ol
Ġstud ied
x y
åº Ķ
ĠM ost
man agement
Univers ity
av y
em en
ĠÙĥ ÚĨ
ĠM d
ĠWh at
Ġloc ation
incip les
ĠØ³ ÙĨ
Ġlim it
r id
ukt ur
n ic
p at
Ġm ic
Ġlearn ers
le vel
Ġb inti
ak ai
clud ed
eng gan
O F
g ener
Ġf uel
Ġus age
Ġapp reci
Ġpar ents
Ġe fficient
Ġ5 6
ĠÙĨÚ¬ Ø§Ø±Ø§
en ali
Ġpen j
Ġmention ed
unct ion
od es
Ġmeas ures
ĠO R
P ol
Ġbr and
Ġvis ual
ĠJ une
C ont
ÙĨØ¯ Ø±
ian s
Ġin iti
ot ic
D igital
æľĢ åĲİ
echan ical
en n
Ġcon tr
Ġwan ita
ÙĪÚ½ Ø§Ø¡ÙĬ
b ec
Ġis ol
oot str
æĸ ĩ
Ġs w
ĠØ³ Ø¬
ĠInstitut ional
Ø±ÙĬ Ø³
o in
Ġin hib
op t
Ġdo i
artic ip
Ġ199 0
Ġaud it
ĠT un
is an
Ġenh ance
and ungan
åĬ ¨
ĠG h
ul k
le an
Ġpop ular
qu are
ass an
Ġet c
Ġb ur
c al
Ġn ame
Ġr ather
ĠÙĨÚ¬ Ø±ÙĬ
AB LES
Ġappro priate
æľ Ł
Ø¯ Ø§Ú¤Øª
ĠØ§ Ú¤
Ġber ikut
o ogle
199 7
________________ ________________
is ms
D i
Ġdiscuss ed
ĠM eng
emb angan
Ġ5 9
ast e
ill ing
Ġk ena
ĠMarket ing
ĠK nowledge
ung kin
Ġatt ention
itud es
Ġav oid
p art
ĠD an
Ø¨ Ø±Ø§
ĠD AN
Ġper ingkat
G R
Ġpoly mer
Ġ5 4
Ġf a
ĠÙħÙħÚ¤ ÙĪÚ½Ø§Ø¡ÙĬ
uj u
åĨ į
Ġwho le
i O
ĠØ³ Ø£
ĠD issert
ar ab
Ġf ilem
end a
se k
te e
Ġexperim ent
ĠSt andard
r or
Ġdirect ly
Ġorganiz ations
x x
Ġsh op
row th
erc ial
S tr
w ise
Ġp ener
Ġsem ula
APP END
ag u
Ġparam eter
M en
ÙĦ Ùĥ
L ibrary
ab ric
ann el
Ġcomm ercial
Ùĩ Ùħ
Ġform ation
Ġinclud ed
Ġd ic
Ġd en
éĥ ¨
os en
Ġh old
Ġs ell
Ġ199 4
Ġpol l
Ġat tract
L atest
Ġh ab
Ġm ampu
ĠThe ory
Ġle g
C o
ĠC OM
pre t
Ġle ft
ism e
Ġ ?
D R
cl us
ten ance
ï¼ģ ï¼ģ
Ġcon ventional
ĠÙĥ Ø¯
Ġr endah
Ġco efficient
.... ...
Ġsupport ed
b el
stud ents
c ertain
c are
M C
Ú¤ Ø³
be z
Ġh om
os ity
Ġres istance
Ùħ Ø¯
Ġke adaan
in j
erl uan
kep ada
ĠN etwork
Ġd aily
Ġmean ing
ĠFin ance
ç Ĺ
Ġber beza
IT Y
Ġ 99
ç§ į
Ġpro duc
reprene ur
a a
ĠØ§ÙĨ ØªØ§Ø±Ø§
é¢ ĺ
uh u
Ġaut om
Ġ5 7
Ùħ Øª
ĠSystem s
Ġper l
Ø¨ Ø§
ter m
iz es
Ġl iter
s em
ÙĢÙĢ ÙĢÙĢ
cript ive
ur g
Ġcons ists
O I
Ġmot ivation
Ġ emb
Ġtr ade
ĠØ§ÙĦ Ø¯
Ġfri ends
: -
Ġ urban
ol es
Ġrele vant
ĠEnvironment al
ç ¦
Ġres id
Ġinclud es
o ud
anal ysis
al so
è§ ī
am aan
d ata
lect ion
k g
ĠB hd
d evelopment
AR Y
w ar
ĠWh en
ĠâĢ ¢
Ġpati ent
I d
Ġd rop
ĠØ³ Ùħ
Ġex ternal
ĠW ang
aris an
row n
ĠS en
ac hed
åĥ ı
enggan u
Ġcir c
Ġ9 5
Ġocc urr
ĠBel iau
Ġtool s
uz zy
ĠÚ¤ ÙĪØ³
Ġindustr ial
ĠC hemical
ĠI EEE
ĠAmer ican
è ĥ
ht ml
ĠPer ak
ĠK ar
ĠSek olah
ĠEconom ic
Ùħ Ø±
ĠT R
ĠMoh amed
Ġm akanan
ip l
Ø§ ÙĪÙĨ
Øª Ø³
Ġsim ulation
ron t
ĠDisc overy
at ur
OLOG I
ĠR am
Ġfor ce
æīĢ ä»¥
ĠPh ys
== ==
ootstr ap
ÂłĠÂłÂłĠÂł ÂłĠÂłÂłĠÂł
Ø§ÙĨ ÙĬ
ĠCon clusion
æ Ł
Ġl ah
Ġmat ter
T er
è¿ Ľ
s ol
arian ce
Ġth ird
Ġg ame
ä»ĸ ä»¬
æİ ¥
Ø§ÙĨ ÚĨ
è Ļ
ight s
ĠO pt
Ġd istance
C US
d ifferent
Ġac ross
ĠO per
repreneurs hip
Ġsub mitted
Ġinvestig ate
Ġnecess ary
ot o
è¯ ¥
ĠSTUD Y
Ġtrans port
Ġfind ing
ĠM ak
ĠFin ancial
oc ol
ABSTR AK
ĠM AN
idd le
h igh
osit es
Ġem ot
. "
z z
es an
ak ulti
æĬ Ĭ
ar s
ip ment
Ġconsum ption
Ġdim ens
Ġ article
ĠK ota
N T
x im
ber g
im ana
Ùĥ ÙĪÙĨ
asure ment
Ab dul
Ġcaus ed
Ġin ternet
Ġpemb angunan
ç ĥ
n t
Ġindivid u
perim ental
am ent
Ġser ies
å¤ ª
Ġsu atu
sequ ently
os a
Ġs om
ul ate
b as
ĠS outh
Ú¤Ø± ØªÙĬ
ec ut
Ġd ry
Ġ0 1
Ġn k
Ġs ure
Ġthere fore
TI C
Ġor iginal
Ġj ika
Ġ ir
ÙĦ Ø¨
Ġde ep
Ġh owever
ĠFIG URES
ĠK u
ch olar
ĠĠĠĠĠĠĠĠ Ġ
Ġlik ely
Ġmonth s
Ġek onomi
Ġse qu
hem e
ex p
pro f
li er
ĠÙĥ ÙĪ
éĢ Ļ
in for
ï¼Ł ï¼Ł
Ġprocess ing
Ġcommit ment
F R
ĠS ome
ĠØ¨ Ø§Ú¬ÙĬ
Ġman ufacturing
p ite
ĠØ³Ùĥ ÙĪÙĦÙĩ
Ġproject s
Al l
ĠT ABLES
iz a
Ġmeng ambil
Ġfem ale
ik s
æī ¾
æķ Ļ
he he
æŃ £
ab at
ÚĨ ÙĬ
Ġpart s
Ġpers pective
ðĿĳ ¥
il ing
St aff
ĠGl obal
Ġaffect ed
uk ar
ir kan
IN TRODUCTION
ĠO ut
Ġd est
or age
R ec
US M
Ġre p
bez aan
el askan
Ġpre vent
k od
ĠTh en
Ġdet ection
er ed
ä¸ ī
Ġmin imum
Ġimprov ement
ä¼ ł
Ġconsum ers
ĠWith draw
Ġr ates
B N
Ġmen ingkatkan
ĠØ± ÙĬ
cept ions
e orang
ĠD em
S D
Ġresearch er
EN CE
ĠCatal og
s ignificant
aw at
) )
ĠC an
ï £
Sub mit
ĠMore over
Ġro ad
ĠJoh n
æĪĳ çļĦ
Ġmak a
at itude
ĠSel ain
ĠÙħ Ø³
Ġill ustr
p ons
Ġmat rix
ew an
Ġoper ation
æĶ ¾
ä½ł çļĦ
Ġfollow s
Ġprep ared
199 6
ĠF irst
Ġbud aya
ĠA PI
ai wan
ĠL ogin
ĠØ§ Ø®
Ġm al
v is
Ġy oung
a is
Ġs ampling
ĠL ondon
Ġpro per
aruh i
Ġbank ing
ĠComm unication
ĠCent re
d em
çĽ ´
ĠD NA
ĠSec ond
Ġ ï¿½ï¿½
Qu ick
Ġh ospital
ç ħ
Ġanal isis
Ġ5 8
Ù ©
ind ustr
jek tif
os i
Ġsimp le
Ġright s
ĠR as
åķ Ĭ
p oint
. ).
ĠP ert
Ġback ground
Ġber as
l ike
ĠThe ses
Ġopport unity
Ø±Ø§ Ø¬
af e
Ġbl ock
Ġreduc ed
F OR
ĠF ar
ĠDat uk
Ġl it
çī ©
Ġw ind
Ġmeny ebabkan
Ġus es
se b
Ġdesign ed
CUS SION
Øª Ø±ÙĬ
as ons
ĠN ot
ing an
ÙħÚ¤ Øª
ä¸ ¤
r d
Ġk ali
ph a
ĠP ost
ç ³
æĢ §
ĠAN AL
ep at
ĠDissert ations
Ġim ages
M ade
g k
Ġg ender
ĠCl ass
ĠMed ia
S o
ĠVol ume
AM I
Ġter us
Ġn ov
N AL
Ġberb anding
Ġpeng urusan
ç ²
Ġcomp uter
ap y
emp or
Ġmem iliki
p age
Ġso alan
ĠÙģÙĬ ÙĦÙĬÙħ
Ġmeng h
ĠS ol
Ġcontribut e
ak hir
Ġw at
abor atory
ĠStat ement
el i
od ies
anc is
wit ter
Ġachiev ed
ĠMin istry
Ø¯ÙĬ Ø§
mod el
s s
ung si
ingk atan
Ġï´ ¾
ĠN on
Ġf ish
Ġkemud ian
ĠObject ives
ĠGener al
our se
Ġv ehic
ÙĦ ÙĦ
B r
d et
Ġdescrib ed
ad ang
Ġtrans form
ÙħØ¨ Ø±
ar es
Ġemp has
Ġor ient
Ġs oci
Ġs ik
Ġfunct ions
Ġg iving
è¿ĺ æĺ¯
Ġreg ression
Ġch apter
Ġmeny atakan
B ootstrap
Ġf ast
Ġc am
edi akan
al ian
B A
åĲ Ī
ĠStud ents
ap un
INT AS
Ġtest ed
ĠE F
erv iew
ĠÙĦØ§ ÙĬÙĨ
ĠAdd itions
Ġhigh light
TI NG
pos es
umb uhan
um en
l s
Ġor g
Statistics Login
Ġpl ants
åħ ¥
L INTAS
Ġincre ases
ĠI Repository
my Staff
uum lib
ĠLogin UUM
Bootstrap Made
ĠIRepository The
StatisticsLogin LoginPlease
ĠAc ademic
Ġguid ance
ï½ ŀ
g roup
Ġberj aya
Ġemploy ee
iss ue
im port
Ø³Ø¨ ÙĪØª
ĠUS A
P O
i et
Ġmod er
è¿Ļ ä¸ª
D epartment
Ġmur id
ĠM arch
z i
y ak
ĠÙĥØ§Ùħ Ú¤ÙĪÚł
Ġperk ara
Ġis u
Ġcompon ent
199 5
ras tr
ĠI SS
Ġl inear
ĠÙħ Ø¹
ara an
Ġaccount ing
ĠH an
ĠK et
Ġst ability
el ine
Ġb aga
Ġk ew
Man agement
g y
ĠF ebru
I J
w ah
Ġ ;
ust ak
Ġk ini
ĠI T
( '
t echn
ĠØ³Ø£ ÙĪØ±Úł
Ġcost s
Ġlect ur
Ġmajor ity
B ER
Ġ6 4
ĠDec ember
Ġter ut
Ġro b
ĠF orm
Ġkesel uruhan
Ġn orm
ul s
ĠS H
j id
ĠÙĪ ÙĦØ§
in vest
Ø§Ø ¦
Ġfail ure
ĠØªÙĬ Ùĩ
ĠØ¨ Ø±Ø§
Ù Į
ĠÚ¤Ø± ØªØ§Ùħ
E X
ç¼ ĸ
E V
cop e
éĢ ļ
Ġpenyel idikan
æ¯ ı
E A
ĠH ow
Ġf luid
Ġnew s
ĠTh ailand
Ġf lex
ĠØ§ Ùĩ
Ġstruct ural
Ġw ays
ĠN a
Ġs yarikat
s ep
ĠRES EARCH
ç½ ĳ
Ġj ournal
20 22
Ġl ama
Ġgener ation
ig en
l as
Ġwe ak
ĠØ³ Ú¤Ø±ØªÙĬ
Ġper ception
Ġc it
m ah
Ġimprov ed
sr c
Ġb ase
Ġst ates
X X
èī ²
aks i
w ill
ÙĨØ¯ Ø§
ĠComp arison
Ġinvestig ation
ÙĬ ÙĪ
stit usi
y en
n el
am ily
æľ ĥ
ar u
Ġpeng ajaran
ĠUn der
Ġdr aw
ĠÙ ¤
m b
aw al
Ġmain ly
ĉ č
Ø¨ Ø¯
Ġmark s
Ġconsum er
Ġup on
E G
ĠS M
Ġqu ite
t ak
ĠOct ober
Ġk hus
s uch
T otal
Ùĥ ÙĦ
Ġmemb rane
oper ation
in ning
Ø¹ Ø©
çİ° åľ¨
ist ik
F in
Ġrel iability
ä¾ Ĩ
Ġr andom
Ø± Øª
Ġg round
Ġdiscuss ion
Ġestab lished
ç ĭ
ĠO ther
Ġcomp ounds
Ġal most
Ġmel ibatkan
ab et
Ġpre c
Ġgo ing
Ġs eri
g g
Ġkelu arga
Ġass um
Ġop in
ÙĨ Ø§
Ġexpl ained
Ġeas y
a ur
Ġn ever
Ġg ain
Ġdil ihat
Ġsecond ary
ï´¾ .
Ġre pres
angg ung
Ø¬ Ø±
Ġ199 3
it aran
ment ation
p ir
Ġt end
Ø±ÙĪ Ø³
Ġparticular ly
oc c
en uh
ĠP in
en aan
ĠM ot
Ġ6 3
ĠØ³ ØªÙĬ
ÙĪ ÚłÙĨ
ap pen
Ġber ada
m ing
p s
Ġsek itar
IN ESS
g reg
ed d
econom ic
Ġide as
ĠØ§ ÙĥÙĨ
å »
åĢ ĭ
any akan
Ø± ØªØ§
ĠE N
Ġaltern ative
ĠJ uly
um n
YS IS
ĠK ore
un c
ĠC ap
if ically
Ġb ag
ect ors
17 5
Ġmechan ical
Ġhist ory
Ġwid ely
Ġm udah
P ass
ĠE th
Ġmechan ism
k r
d isc
S O
Ùĩ ÙĬ
ĠCh aracter
and ungi
ind a
å¤ į
åĩ ł
Ġut k
id ed
ĠL ITERATURE
g es
ÙĨÙĬ Ø§
ĠP ut
Ġs atisf
Ġ6 1
N AH
ãĢĤãĢĤ ãĢĤãĢĤ
ĠØ§ÙĦ Ùģ
Ġpro perty
Ġn umer
f l
ĠĠĠĠĠĠĠĠ ĠĠĠĠĠĠĠ
Ġfac ilities
u ro
Ġseg i
ĠØ³ ÙĬÚ¤
ĠS ep
è¾ ĳ
Ø±ÙĬÙĥ Øª
yt ic
hid upan
Ġgr atitude
ur ance
Ġdel ivery
yel idikan
æ ¨
M B
Ġper nah
Ġaccur acy
he t
Ġkal au
ä½ ķ
Ġkem ahiran
ĠK im
Ġm ut
Ġex change
ac ed
ĠT H
å¾Ī å¤ļ
Ġeffor t
å¤ ´
æŃ ¤
Ġr apid
Ġf requ
ĠAug ust
ni agaan
par ent
åº ¦
Ġpolit ik
, ,
åŃ ĺ
ĠS ultan
if i
ĠNeg ara
i ada
k al
ulis an
Ġrelationship s
ä» ·
Ġpeng etahuan
ap ers
Ġr amai
pro gram
Ġb ond
ĠÙĪÙĦØ§ ÙĬÙĩ
........ .
Ġorganis asi
n y
ay er
d ig
ĠBrit ish
L O
ict ion
aks ud
ur un
Ġmach ine
ĠØ³ Ø±Ø§
ĠF acebook
Ø§ÙĦ ÙĪ
ĠAr t
Ġ ]
ent u
lu ence
Ġcomp osition
Ġpem er
Ġcl ose
ÙĦ ÙĦØ§
ess or
n ers
EK N
US INESS
Ġmark ah
Ġdik enali
Ġpend uduk
Ġam at
Ġch ain
Ġbi om
be ing
ĠD el
åĳ ¢
ĠT otal
Ġbas is
Ġmot iv
M in
Ġass ist
ĠS dn
Ġy et
d oc
Ġup d
id ah
Ġw ilayah
ĠP ak
ĠØ¹ ÙĨ
è® ©
amb ahan
M T
el ves
d evelop
uit m
Ġeduc ational
Ġm ent
Ġke hidupan
F AC
lement ation
ç ł
éķ ¿
Ġk ampung
S ec
re ement
Ġ0 9
ÙĪØ§ ÙĬ
OR K
In ter
Ġcomp reh
Ġpre fer
as ikan
Ġsek ali
ĠÚ¤ Ø±ÙĬ
M el
m ain
Ġal am
ĠS ection
ĠE X
v erview
P D
Ø§Ø± Øª
ðĿĳ ħ
Ġro om
ul asi
Ġm ess
Ġindic ate
oc ity
ay ar
Ġdi agn
ĠB en
ĠP et
ul ly
Ġ ................
D alam
ĠÂ µ
æ Ĥ
Ġk adar
Ġ199 2
I AL
h y
Ġmeng g
Ġ5 00
Ġfunct ional
ĠF actors
ir ah
æ ħ
Ø ¤
Ġre ference
Ġsel ect
n am
Ġrecomm end
ivid ual
Ġs ustainable
th man
Ġcoll abor
Ġex amine
âĢĻ ,
om an
A k
adem ik
ĠEn t
Ġk onsep
Ġz akat
olv ed
Ġm ale
ĠT ime
cl ass
AC H
Ġschool s
M ean
ÙĪ Ø§ÙĦ
éĩ ĳ
est asi
aw angan
ĠÙĥ Ø³
ĠNig eria
Ġam b
é ĸ
aksan aan
P C
ÙĤ ÙĨ
ĠIn vest
U H
ĠSt ates
% ),
AN CE
Ġser amai
kan ak
ir it
Ġaim s
ĠÙħ Ø§ÙĨ
Ø¯ Ø¯
Ġth ick
ĠN O
ĠØ¨ ÙĨØ¯Ø±
Ùī ÙĦ
rel ationship
Ġdo ing
Ġen ough
ic i
oxid ant
yp es
Ġ q
k el
ÙĦÙĬ Ø³
Ġcalcul ated
ang un
Ġat tribut
Ġsh aring
Ġber g
AG EMENT
ĠC ase
y mer
IN D
Ġw all
ä¿ ¡
air es
Ġemploy ed
Ġmod e
ĠØ³ Øª
Ġk o
ĠI d
el ines
ustom er
yar at
enting an
ing u
ĠÎ ²
ad ah
in u
Ġtre ated
h ide
ib er
ĠS pec
Ġ6 2
Ġus aha
Ġh ak
ĠA T
ub a
con f
ĠEurop ean
Ġmak es
amb ar
chitect ure
Ġ æľ¬
âĢ¦âĢ¦ âĢ¦
ag er
Ġ #
) (
os ing
ĠOrgan ization
und ang
hemat ics
UL TS
ĠMed icine
Ġhous e
15 0
åħ ³
ĠÚ¤ Ø§Ø³
ï´¾ ØĮ
Ġ6 6
Ġass ign
ur us
Ġper anan
ç ı
Ġsens or
ç¼ĸ è¾ĳ
Ġterd iri
Ġs cience
l t
O ne
uc ial
t ual
Ġper ubahan
ĠI CT
Ġf ilm
ĠR ob
P a
i as
Ġg overnance
Ġgener ated
Ġatt empt
H el
ĠRes pond
Ġappro aches
1 20
M R
j p
Ġmeng hasilkan
b ial
Ġorgan ic
Ġgo al
ĠT ourism
arab angsa
M e
Ġth ings
ĠÙħ Ø§Ø³
Vol ume
è§ £
ĠS D
éľ Ģ
c ap
Ġp ent
ĠY ou
Ġcho ice
æĢ İ
Ø§Ø± Ùĩ
ĠU tara
r um
ĠØ¨Ø± Ùĥ
ĠAustral ia
E B
ĠD irect
ĠT urk
æ ¶
ä» İ
Ġadvant age
........ ..
Ġtest s
Ġr ang
ĠBu ilding
ĠH assan
Ġtr end
ĠA ut
é º
Ġm is
ĠØ °
æ ·
ellig ence
y es
Ù į
ĠØ´ Ø±ÙĬÙĥØª
W T
ĠÂ °
ustak aan
Ġp ain
Ġb ound
åĵ ¦
ĠSME s
th ing
ut ri
ic ity
ã ĥ
Ġ ii
em a
oc hemical
ĠPh il
Ġ7 2
ĠÙĥÙĪÙħ Ú¤
æĭ ¿
Ġ6 7
ĠÙ ¥
Ġemp irical
str ain
Ġevalu ate
uh kan
m g
F T
or ne
ĠF low
uss ion
Ġâ ī
ĠS eri
Ġd ependent
è¾ ĥ
å ĭ
st e
åĵ ģ
Ġconf lic
n aires
Ġmem er
and id
ĠF ig
An d
ĠÙĥ ÙĪÙĨ
Ġintro duced
TI VE
alah an
ĠI ran
am ah
l iance
Ġ199 1
Ġact ual
Ġl iving
Ġmult i
ĠJanu ary
ab ase
st agram
Ġ ç¼ĸè¾ĳ
Ġsh ape
æľĢåĲİ çĶ±
å¸ĸ æľĢåĲİçĶ±
Ġm ungkin
Ġrequ ires
u atan
p em
Ġch osen
Ġph ys
l ong
Ġæľ¬ å¸ĸæľĢåĲİçĶ±
Ġse ed
Ġdimens ions
M al
k now
IN E
çĶ ·
P RO
Ġ Ï
Ø§Ú½ ÙĤ
Ġk eg
w in
Ġcomb ination
Ġinvestig ated
ĠI D
C D
ç® Ĺ
Ġpast i
int a
Ġcontin ue
é ª
åĸ ľ
ric ultural
Ġmin utes
S up
hat ian
ĠAf ric
Ġref ers
es tern
Ġkec il
ĠT el
uj ukan
Ġde ath
D o
Ġbr ing
Ġth ought
tic le
Ġh um
T e
R ES
ĠP ark
ĠØ¯ Ú¬ÙĪÙĨØ§ÙĥÙĨ
ðĿĳ Ł
ä¹Ł æĺ¯
akt u
Ġle gal
Ġses eorang
Ø§ Ø¯ÙĬ
Ġcy cle
ĠØ¯ ÙĪØ§
an ian
on ic
ist an
Øµ ÙĦ
ä½ ĵ
ounc il
Ġproced ure
Ġ1 50
Ġsuccessful ly
Ġdis cl
ĠTer engganu
Ġsesu ai
Ġh appen
h ab
Ġpart ies
ĠP aper
Ġst eel
t op
Ġmel akukan
ĠG overnment
Ġpart ial
ĠMed ical
Ã ¶
ĠØ¨ÙĩØ§ ÙĪØ§
emb ilan
M us
Ø§ÙĪ Ùĩ
AN T
ĠIndustr ial
ul ose
Ġeas ily
ah ami
Ġmemb awa
Ġg olongan
S ent
at aan
Ġteach er
åĢ Ļ
f r
ud e
Ġtechn ical
ĠS ungai
æ »
Ġ( %)
apa ian
EKN OLOGI
ik ian
Ġcatal yst
Ġvers ion
ker ja
Ã ¡
ĠØªØ± Ø³Ø¨ÙĪØª
çľŁ çļĦ
g t
Ġseb ab
Ġp ow
W ith
ÙĬÙĨ Ø¯
Ġc amp
ÙĬ Ø¨
çī ĩ
Ġex hib
b usiness
Ø ¢
ÙĪÙħ Ú¤
al t
Ġmas uk
Ġs udah
Ġsol utions
Ġpurch ase
ell a
ĠG en
ĠK ing
ĠDIS CUSSION
ä¸ İ
ä¾ ¿
ĠÚ¤ ÙĨØ¯
Ġter p
Ġtak ing
ĠG reen
åĮ ħ
Ġpart y
ĠAp pro
Ġcomp osite
ĠÚ¤ Ú½
P U
G AN
Ġdiber ikan
Ġres ource
ĠN amun
Ġib u
Ġ ion
Ġd ate
j ah
æ° ĳ
Ġj am
ðĿĲ ¶
AT A
v ii
ow s
Ġclass ification
Ġ6 9
Ġrel ation
iman apun
Ġopport unities
Ġfocus ed
T HE
ĠP at
B L
b b
S ek
Ġt as
ĠM r
h old
ert y
ĠJ un
f e
åĪ «
Ġb ad
Ø¯ Ùħ
Ġcre ated
ind ings
è· Ł
Ġin cor
ĠE st
Pass word
ĠANAL YSIS
Ġvol tage
ĠÙĥÙĪÙħ ÙĪÙĨ
ĠØ³ ÙĦØ§
ms elves
Ġj adi
Ġhe art
Ø§Ø¡ ÙĬÙĨ
emp uan
ĠB USINESS
ud ukan
Ġ ujian
ĠØ§ Ø¬
ĠF e
anding an
Ġprof ile
Ġcomp ut
eg et
ĠRel ationship
plac ement
Ġtemp oh
ox ide
å® ĥ
æı Ĳ
D is
F A
um ar
egrad ation
S c
Ġc ash
Ġcaus es
w ik
vers ion
åľ º
ep er
Muh ammad
p osit
Ġliqu id
ÙĪ Ø³ÙĬ
iv ities
Ġl angsung
Ġp age
k i
Ġp or
æ ¼
éĻ Ħ
Ġmonitor ing
Ġcompet itive
ĠF at
ĠMethod s
) -
Us ername
Ġ8 5
ĠÚ¤ ÙĬ
lin ear
p ast
éĹ® é¢ĺ
ĠCh en
Ġstruct ures
aw asan
Ùĥ Ø³
d own
ĠA v
Ùħ ÙĪØ±
j as
Ġas as
Ġfor ms
B i
j ournal
umb ers
eth ing
A nal
ĠImp act
ĠØª Ø±Ø§
Ġ1 20
ĠUn it
aj u
ĠB ud
ĠAssoci ation
ut a
199 4
ĠMal aya
C ol
ak er
ul us
vers e
ĠD ate
Ġthink ing
Ġmend apati
anc angan
UM P
B C
Ġco ol
Ġimplement ed
Ġ3 00
ro ph
Ġvari ety
Ġstrateg ic
Ġstart ed
Ġhal al
ĠSh ar
ik iran
Ġm or
it ik
Ġpay ment
end ak
Ġb and
Ġfil ter
ow ards
åı ¸
Ġsal es
Ġad apt
ðĿĳ ĳ
åı Ĺ
ĠA re
am u
s im
sup port
ĠAl though
Ġin tr
Ø¯ÙĬ Ø±ÙĬ
Ġdivid ed
è Ĳ
ers on
TI T
çĻ ½
ref list
N ame
app ing
Ä Ł
V iew
i ents
Ġj elas
p ustakaan
im ent
ĠØ³ ÚĨØ§Ø±Ø§
P K
if ikan
ĠU K
Ġremov al
Ġkep utusan
H O
lis her
ç¥ ŀ
b een
Ġclin ical
ast ing
ĠS ince
åı °
in ing
ĠP as
ĠM a
å® Į
c el
end ix
F C
Ġr a
eng aruhi
anc ement
Ġ6 8
r ah
ub ber
Ġsol v
Úł Ùĩ
j i
ung g
o e
Ġset ting
ĠØ§ Ø±
ç ±
angg ap
j awab
ĠA D
S ar
ðĿĳ¡ ðĿĳ¡
abet es
Ġh arm
OUR NAL
Ġgo als
ĠØ§ÙĦ Ø³
Ġg ives
ak af
ffic acy
Ġmot or
el ocity
Ġsur v
ĠØ¨ÙĪ ÙĦÙĬÙĩ
ĠCon cept
ill i
ĠWh ile
Ġmethod ology
f ect
lib at
F I
Ġt ind
Ġestab lish
Ġdiper oleh
aw ai
ĠCon f
Ġr ain
Ġmel ihat
k em
ĠU se
ĠStat istics
men y
Ġl ip
........ ...
Ġdec l
ol ve
y an
b en
ðĿĳ Ĩ
p ower
cent age
ANG AN
çļĦ äºº
y gen
å® ī
y cl
air s
A I
ul ai
Ġn ie
E AN
ric ulture
Ġle h
Ġkep erluan
ĠPer k
ĠO x
Ġc lean
Ġa yat
ĠPro ceedings
ĠIn novation
ĠL evel
et ary
Ġ7 3
ul lah
ep un
Ġfib er
ch ang
ay at
Ġm ew
Ġcr yst
è°¢ è°¢
ill er
Ġm ind
ĠPub lishing
ek itaran
P re
Ġbenef it
am ental
f all
ok ong
Ġits elf
çĪ ±
Ġst ay
Ġku asa
Ġfac ilit
ĠAmer ika
Ġbre ak
Ġdis tributed
Ġloc ated
ĠEffect s
Ġman akala
å¿ «
Ġrequire ment
Ġev ents
ĠL ink
am il
ã ģ
Ġen j
ÙĪÙħ ÙĬ
ĠE ar
pr act
ÙĦ ÙĤ
Ġex cept
Ø± Ø¨ÙĬ
ug e
ĠÙ ı
Ġw or
Ġpro s
Ġr ules
IG N
im en
Ø¨Ø±Ø§ Ú¤
æ ĩ
ÙĪ Ø±Ø§
hel ess
R I
ĠÙħ Ø§
ep h
Ġ {
angk ah
ĠB al
ĠSur vey
ĉĉ ĉĉ
is on
h l
ĠØª ÙĨØª
Ġs at
eth anol
ĠM ic
gr aduate
il k
o oth
ä» £
kan an
çĤ º
r ing
at as
ĠK in
Ġf ully
Ġre v
ĠR EC
af s
K ajian
Ġd gn
ðĿĳ ł
ĠD efin
Ġm ula
Ġpeng kaji
apor an
omun ikasi
Ġnov el
h ana
Ġpro gress
Ġcol our
az ah
è¿Ļ æł·
ĠIndustr y
ĠAn n
ĠB atch
Ġs cholar
Ø³ Ø£ÙĨ
Ġgener ally
åı Ĭ
ĠH igher
Ġwas t
ĠT E
Ġrespons es
æľ ĭ
Ġad just
Ġinvolv es
Ġberk enaan
Â·Â· Â·Â·
Ġatt ack
M ar
Ġperk hidmatan
ĠS pecial
OM M
C M
f ield
if est
ah aman
ĠF ramework
éĥ½ æĺ¯
t d
m end
ĠInt egr
d ep
Ġcr ucial
Ġmod ern
ï¿½ï¿½ï¿½ï¿½ ï¿½
Q U
Ġindustr ies
Ġcar ry
ĠĠĠĠĠĠĠĠ ĠĠĠ
in ant
ĠÚ¤ ÙĬÙĨ
Ġ7 1
d ip
ÚĨ Ùĩ
ĠO ver
ĠØª ÙĨ
Ġbi o
ar ily
Ġh ost
Ġd ynamic
Ø± ÙĥÙĨ
ĠPin ang
ĠAnal isis
Ġt eknologi
Ġcomm unic
Ġph one
ĠØ¨ Ø¨Ø±Ø§Ú¤
Ġs ites
ĠM AT
eng g
in ct
Ġpro p
k et
Ġse x
Ġsub str
ĠD a
è ²
Ġp ed
Ġsen se
ĠL ead
Ġs low
ĠP ur
Ġtr avel
ĠP H
ĠS ri
ĠISS N
Ġt ujuan
Ġdev ices
Ġrelig ious
b ol
Ġw ujud
ĠPro ced
Ġh arga
ĠS EM
Ġmenc apai
B RE
ĠAp plication
Ġocc ur
op ulation
th ere
Ġsp read
Ġp ublished
Ġeffor ts
sb ref
M I
pro t
he ad
Ġfeed back
ad alah
Ġoper ating
ĠM A
ogr afi
ĠT im
Ġr ice
ĠIn c
aw anan
Ġweb site
Ġclass room
D oc
le bih
Ah mad
Ġsol ar
m arket
ĠNur ul
Ġaddition al
Ġs aw
w ide
Ġpre paration
ĠØ³ÙĦ Ú¤Ø³
è¿ ĳ
ov id
Ġant ib
asan ya
ĠP ort
é Ł
Ġ20 23
p ur
b re
Ġcont oh
Ġmanag ers
Ġadop tion
Ġv s
ĠPer ancis
' m
ĠD ewan
Ġindustr i
èĩ ³
K E
Ġdiv isions
ri ef
Ġn or
at uan
Ġres erv
Ġlong er
Hel p
Ġval id
ĠS i
ĠS cope
id ing
ĠE ast
r g
There fore
com ing
Ġ7 7
Ġdirect ion
pr ise
iran ya
Ġum um
B l
hemat ical
ĠMETHOD OLOGY
ĠAl so
etah ui
ch aracter
Ġc iri
t t
ðĿĳ ģ
Ġj er
Ġanalyz ed
b ank
Ġout comes
ast ikan
Ġl ap
ĠS w
æľĭ åıĭ
ĠÙĥÙħ ÙĪØ¯
alam i
II I
ĠCon struction
ĠS CO
a uthor
Ġsej arah
uc ed
Ġdev ice
Ġo k
Ġw on
åı £
ap ak
Ġm ental
ĠPl anning
ĠÙħ Ø±
th an
ung k
ĠÙĥØ± Ø§ÙĨ
ĠH is
om ent
ä¸ ĸ
Ġh ypothesis
............ .
ĠO il
Tr ans
ĠB andar
è· ¯
Ġsel ama
ĠK ampung
ĠØ§ Ø§ÙĦ
ak ang
F acebook
Ġhe avy
ÙĪØ± ÙĪØª
Ġin j
Ġbel ief
Ġmix ed
èµ °
ĠI C
Ġpartic les
Ġseb enar
ÙĪÙĨÙĬ Ø³ÙĬØ§
Ġw ear
ail ability
Ġp aid
Ġag ent
çħ §
Ġbro ad
ar ative
æ ¡
Ġm cm
hel l
ä¸ ľ
z one
ĠT ER
ila ian
Ġr ank
ĠØ§ÙĦ Ø´
ĠT ah
ĠPeng urusan
ĠP age
Ġmanag er
ĠØ¯ Ú¤
pos ition
ol der
Ġt a
k ajian
ĠÚ¤Ø± Ø§ÙĨÚĨ
Ġreport s
ĠH ist
Ġeng ineering
roscop y
% ).
æĻ Ĥ
ĠQu estion
m ot
n c
Ġpro jek
ä¸į ä¼ļ
Ġf er
ïĢ ½
ify ing
ibr ation
............ ..
ministr ative
repreneur ial
ĠM OH
ÙħÙĬ ÙĦÙĬ
Ġs ignificance
Ġh app
Ġexpress ion
el ih
Ġmener ima
Ġag ree
the y
ØŃ Ø¯
Ġhal f
Î ²
Ġst op
Ġrespons ibility
ĠPl ant
ĠD ES
sel f
Ġre asons
è§ ģ
Ġin stitution
ÙħØ§Ø³ ÙĪÙĤ
Ġcontinu ous
å ł
r at
App endix
ĠJ abatan
åħ Ī
Ġl ar
AM P
Ġr as
empor ary
Ġestim ated
Ġpeng guna
id i
& #
Ġdoc ument
Ġon ce
Ġlit tle
ĠInd ex
Ġpeng h
Islam ic
ild ren
Ġmendapat kan
im ization
Ġbacter ia
centr ation
Ġst orage
o ice
ØªÙĬ ÙĤ
ÙĨØ¯ ÙĪÙĨÙĬØ³ÙĬØ§
o il
ĠÙĥ Ø¨Úł
as er
Ġter j
Ġadop ted
ĠD engan
ĠS un
Ġdom ain
Ġmix ture
b ehavi
ĠØ ·
is asi
ĠF l
c os
ĠU M
Ġrel ative
Ġm ata
s en
C om
Ġs ud
ingg al
alu able
a ian
S n
Ġemp at
h h
Ġsup aya
Ġch art
Ġk om
ant ung
Ġin nov
con duct
Ġ ur
ok ongan
L I
Ġm orph
Ġj ud
8 50
ĠS yarikat
Ġdi agram
Ú¬ ÙĪ
ĠJ alan
Ġth er
b aik
Ġatt itudes
Ġprogram s
ĠR aja
Ġj oint
Ġwhere as
um s
Ġs ini
ĠK B
h r
ĠMen urut
4 00
Ġdis ebabkan
Ġopt imum
Ġpol icies
ĠĠĠĠĠĠĠĠ ĠĠ
Ġw ide
ian a
Ġlist ed
ear son
ĠPro t
Ġin struct
Ġinst ead
Ġpr ices
ĠMAN AGEMENT
Ġbel i
åı¯ èĥ½
f low
pect ives
ĠØ¨Ø± Ùħ
F irst
Ġext ent
Ġdis play
ident ial
............ ...
ash im
ĠC re
Ġ7 6
Ġam alan
æ Ĳ
ĠØ¥ ÙĨØ¯ÙĪÙĨÙĬØ³ÙĬØ§
qu ality
Ġla ut
i u
æĶ ¶
AR I
ĠN an
Ġing in
en ed
Ġst yle
Ġmenj adikan
å Ķ
Ġprot ect
Ġexp osure
Ġ0 3
Ġbal ance
Ġf abric
F S
Ġk en
n es
D ata
h ydro
ĠEduc ational
c ement
L C
des ign
urr ency
Ġpl ot
ĠCom mit
R el
Ġpeker ja
Ø§Ùĩ ÙĨ
Ġper bezaan
anc er
ĠT EKNOLOGI
er d
åºĶ è¯¥
ĠS out
Ġbeliev e
re port
ĠH ospital
rit ical
o ist
åĪ ©
æĶ ¿
AJ IAN
Ġde al
ĠR ed
il ang
äº Į
p onse
B y
Ġfor est
ðĿĳ Ĺ
Ġ7 9
Ġpattern s
por ation
Ġget ting
Ġstat istical
val ence
Ġk ont
çĽ ®
Ġansw er
Ġpeng ajian
am ong
æ¯Ķ è¾ĥ
t u
ç µ
uk it
m emp
om eter
Ġ0 2
tain ed
ĠH us
Ġ er
G B
æĺ Ł
y yah
Ġad sorption
Ġmov ement
Ġpe ak
åĵ ª
Ġcomp are
BRE VI
Ġ !
ØªØ§ Ú¤ÙĬ
pl ikasi
ĠA ud
ĠA PP
men j
ens ile
d aripada
Ø¹ Ø¯
Ġk andungan
Ġthe mselves
Ġent ire
c in
ut y
int egr
Ġhy brid
en rich
Ġm ove
ÙĦ ÙĪ
E duc
Ġk an
P H
s er
Ùĩ ÙĪ
ay an
ðĿĲ ´
Ġdecre ase
Ġg ap
æ´ »
Ġapp ly
éĶ Ļ
Ġ ik
ĠÚ¤Ø±Ø§ÙĨÚĨ ÙĬØ³
ot ential
m ode
ĠZh ang
ister ed
rastr ucture
A Z
ĠÙĥØ¨Úł Ø³Ø£ÙĨ
he ast
Ġprot ection
ĠU p
Ġst ak
è į
ag ain
å° Ĩ
h ari
Ġco up
ĠAm ong
éĿ ŀ
om y
Ġqual itative
Ġl ed
Ġj oin
Ġfe ature
n eed
âĢĻ .
ãĢ Į
ert as
cient ific
Ġj alan
Ġk asih
UL TY
Ġl ive
Û ¡
Ġout come
Ġter libat
ĠS ample
199 3
199 0
Ġr akyat
Ġcont ain
ĠÃ Ĺ
Ġcomp r
APPEND IX
H z
ãĢ į
c ulation
Ġexamin ed
ä¸ ļ
ç ĸ
ĠMin ister
ff er
ic on
çī ¹
C omm
anggung jawab
Ø± Ø³ÙĬ
ug erah
Ġparticip ation
ir ing
ä½Ĩ æĺ¯
per ience
Ø³ ØªÙĬ
å ©
Ġsom ething
Ġn as
Ġhelp s
H ons
M D
it ab
Ġass ets
Ġaw am
it age
Ġ7 8
Ġtechn ologies
ĠØªØ± Ø¨
Ġk ami
Ġper c
oid s
Ġexperi ences
ĠIn g
uk i
P s
ĠJ epun
ĠÙħÙĨ ÚĨ
inc angkan
S p
w ood
op articles
Ġang le
S L
ĠMean while
Ġk os
ĠØ¨ Ø³Ø±
imp inan
ever al
Ġn m
ack ing
ðĿĳ ļ
ĠH aji
Ġprom ote
Ġsen i
Ġcon tribution
Ġlo an
ĠP ENG
Ġelect ric
Ġïĥ ¼
Âł Ġ
Ġcateg ories
r in
åĨ Į
Ġun d
ew ater
t idak
ĠAt t
Ġr ad
Ġf ixed
Ġcho ose
z o
å ¢
Ġform al
D ec
ĠPeng ajian
urs us
z e
SI D
xi ety
ject ion
Ġfri end
ÙĬØª Ø±
Ġreduc ing
ĠB ER
Ġr asa
mer ce
i at
6 00
ecut ive
Ġem ail
man a
Ġequ ipment
ĠM or
us aha
g el
Ġth read
IC ES
Ġmeng andungi
adem y
Ġman age
Ġro t
A ct
he ses
Ġw r
uk ur
ire less
n ik
Ġexpl ain
Ġallow s
IC ATION
ĠØ¨ÙĩØ§ Ø³
Ġf all
ÙĦØ§ Ùħ
O K
ĠJ urnal
ĠØ¬ ÙĨ
Û Į
Ġpr inciples
Ġk ualiti
ĠĠĠĠĠĠĠĠ ĠĠĠĠ
ĠB agi
ific ial
ul i
Ġb adan
Ch apter
Ġval idity
Ġposit if
ĠM echanical
adb iran
æ¬ ¢
Ġbi asa
n on
uk um
ĠM uda
ip lin
M IN
Ġ0 8
ÙĪØ± ÙĪ
itro gen
ant ara
ĠM ent
Ġ7 4
11 1
Ġro ot
è ©
Î ±
18 0
ik o
Ġâ ľ
Ġhous ing
Ġdet ect
Ġb uku
inc iple
Ġk in
ĠPr as
ehold ers
éĩ ı
ĠØªØ± Ø¯Ø§Ú¤Øª
åĨ ħ
Ġcommon ly
oyal ty
Ġl iao
omet ric
ad akan
ari o
ran ch
ĠÂłĠÂł ĠÂłĠÂł
S m
ic ation
ĠZ n
Ġdetail s
ĠL et
å¹ ³
ãĢ ĭ
Ġind irect
Ġask ed
ward s
ĠAB BREVI
Ġlow est
ĠC awangan
Ġ8 9
ä» Ĭ
ink ing
ur uter
- >
ĠUS M
Ġb it
ĠPl an
T C
Ġle aves
Ġ0 4
ain an
Ġh ati
Ġber h
Ġch arg
Ġo l
ĠN az
ĠÚ¤ ÙĪÙĦØ§
ej arah
Ġlead s
ĠØ§ÙĬ Ø§ÙĬØª
ä¸į è¦ģ
è ±
Ġp eg
Ġc ount
is hed
know n
p ada
pl ant
ĠO k
og ram
: :
rit eria
un ch
Ġaccept ed
Ġk ap
Ø§ Úł
åį ģ
per k
B ut
Ġsup ervisor
ä½ Ľ
Ġstep s
Ø¬ Ø§ÙĬ
ĠM emo
ĠC ell
ĠS u
Ġ8 1
å·² ç»ı
aj ib
ĠI r
j aan
Ġsyn the
ĠD et
Ġf lu
ed eral
im edia
Ġbeg itu
Ġf arm
Ø¨ ÙĨØ¯
Ġassoci ation
eb uah
Ùĩ ÙĬØ±
M emo
h ow
Ġproced ures
ro id
Ġf resh
b and
aq f
12 3
Ġas al
æŃ »
Ġelect ronic
ĠS il
B R
ĠR em
g overnment
åį İ
p aid
éĢ ī
Ġz aman
t re
gorith ms
B AB
m ax
on ly
en ew
Ġwrit ten
Ġmain tenance
Ġper atus
Ġ8 3
Ġun its
Ġdat ang
oc r
Ġcent ral
ĠRaz ak
pl ies
ant ik
Ġrel atively
iz ens
Ġd ok
Ġc ode
he alth
b ers
ec k
ĠStud ent
ĠÎ ±
UN D
xim ately
et ric
Ġfr uit
a it
ĠL iterature
ex pl
è Ń
zy me
C re
amin ation
ek tr
Ġins ide
ĠØ¯ ÙĨÙĬØ§
ens es
mas ing
g mail
k eb
Ĩ Ĵ
ĠC R
am er
d ef
æľ Ľ
Ġkar ya
ĠT wo
ant uan
im ah
ram e
c he
Ø§ ÙĪØ§
Ġdam age
ĠKore a
N ot
nowled g
ĠØª ØªØ§Ú¤ÙĬ
os oph
Ġsem akin
b ach
æ° Ķ
Â ®
igh b
ĠT V
Ġs ifat
Ġdid apati
Ġmen arik
ĠJ OURNAL
Re ferences
Ġc ity
B e
ç ¶
Ġlead ing
Ġpract ical
Ġappreci ation
C ar
in v
Ú¬ ÙĨ
import ant
ur t
ĠServ ices
Ġcred it
uk aan
sh op
Ġinst ance
ST EM
ä½ ¿
Ġf av
m aking
à ¸
as is
ĠM ust
el lect
adu ates
p ed
Ġinstr ument
ĠD I
ul kan
Ġsc ores
Ġk ira
int ah
Ġp ip
Ġmod ified
M ore
ĠÙĥ Øª
Ġrepres ents
Ġdib uat
Ġ................................................................................................ ................
è ı
ðĿĳ ĵ
jp g
Ġr ural
æµ ·
ĠC urrent
ä½ ı
we ight
ĠT ype
Ø² ÙĬ
med i
Ġberm ula
Ġphen omen
elu arkan
ç³ »
ĠM u
Ġsel uruh
Ġhe ld
Ġg ene
ĠEv aluation
jas ama
com b
og ene
Ġrespons ible
Ġinflu enced
Ġor igin
ĠØ ©
ant ai
A A
U AN
Ġ iii
Ġident ity
åĽŀ å¤į
Ġpartic le
ĠK ed
ĠØ± ÙĪÙħ
at o
ab uran
ĠPh arm
Ġclear ly
Ġch ar
Ġch annel
Ġthe oretical
ĠSch olar
n s
Ġset t
Ġ9 7
eb ih
Øª Ø¹
ĠL ist
ĠD etermin
Ġimprov ing
Ġear lier
åķ ¦
Ġnam un
Ġt reat
ĠH ot
P ENG
Ġdi ameter
z ah
Ġcont ains
R D
Ġch arge
b oard
it ivity
Ġextract s
id in
app s
ĠF und
ach ers
O b
i able
Ġf igure
t emperature
Ġstat istics
Ġex erc
struct ure
R ev
199 1
Ġsej ak
ON G
ĠP al
ill ah
res ults
Ġt ub
ĠÙĩ ÙĦÙĦØ§
w al
man n
ĠC L
R eg
ĠS ustainable
Ġt api
CO UN
Ġdefin ition
Ġdeposit ed
Ġun ique
ĠTe aching
åĮ ĸ
ĠR isk
Ġtert entu
in aan
Ġb us
over ed
ĠØ¯ Ùĥ
ÙĦ Ø©
pel ajar
Ġt iada
K ep
Ø§ÙĨ ÙĨ
ĠOrgan izational
S EN
199 2
Ġc ore
el t
ĠHas il
Ġtas ks
ĠEm ploy
ĠÙĥ ÙĬ
iks aan
f ollow
åıª æĺ¯
çľĭ åĪ°
c ountr
Ġv elocity
ĠTh erm
Ġdim ension
Ġka um
av as
ĠId ent
ĠF our
ĠØ¨ Ø§Ø±Øª
Ġc ab
ĠÂ ©
us ah
m ay
Ġpas ukan
ok e
t reatment
Ġocc up
ãĢ Ĭ
Ġder ived
æĮ ģ
Ġ ä¸Ĭ
B I
æ¸ ħ
d irect
Ġtr ue
ger is
éľĢ è¦ģ
Ġlarg er
ov erty
Ġproduct ivity
ĠB Y
Ġre infor
ur kan
ĠÙĥ Ø¨
Ø§ Ùģ
Ġb illion
Ġl ove
ir med
ã Ĥ
ĠH y
ðĿĳ ĺ
ĠC hemistry
Ġinter pret
Ġan im
Ġload ing
Ġform ed
Ġcon cluded
K h
éļ ¾
ek a
ĠP usat
Ġinst all
æĹ¶ åĢĻ
V ER
Ġsign ifikan
Ġox ygen
ement erian
Ġk anak
ĠAss essment
Ġresult ing
Ġh ence
Men urut
c iri
b ert
Ġcl imate
Ġg old
èĬ ±
ĠC lin
Ġa j
pers onal
ĠCol lege
Ġsm art
ipl oma
ĠØ³ Ø§Ùħ
FOR M
ĠQ uran
Ġpend ekatan
Ġprevious ly
Ġbert ujuan
e i
å¸ Ĥ
ĠCor porate
ĠO ff
P ers
in ary
pr int
ĠC ity
ok ok
Ġl ate
Ġvers us
Ġst im
ÙĬÚł ÙĨ
v iii
ĠI bn
Ġintegr ation
cont ent
Ġs eterusnya
Ġunivers ities
Ġber d
ĠM emb
S et
ĠF R
Ġto x
Ġ8 7
B M
10 5
Ġfulf ill
Ġadv ert
Ġcr isis
Ã §
ĠC ivil
ĠU MS
Ġtemp atan
U P
ĠL ow
!! !
ĠÙĥÙħÙĪØ¯ ÙĬÙĨ
å¤§ å®¶
Ġsamp ai
c ited
ole cular
U se
AG T
ong s
pro duction
Ġnetwork s
å ²
åŃ ©
Or gan
Ġt eknik
Ġs umm
if ah
Med ium
elect ric
è¾ ¹
AM A
c hemical
Ġr aya
å½ ±
Ġth reat
Øª ÙĥÙĨ
utr ition
Ġseb ahagian
ak on
ĠB oard
ĠØ§ ÙħÙĬ
Ġcl os
G ener
Ġgener ate
Ġ9 6
IC AL
ĠÂ ·
Ġident ification
oist ure
è´ ¹
Ġt uan
ĠD ep
Ġse ek
Ġcon clusion
Ġmer ujuk
Ġt urb
Ġl ibrary
ug as
wh en
Ġpr int
Ġwill ing
" >
id ering
Ġhous ehold
Ġag reed
Ġconsist ent
ag o
Ġdepend s
it is
ac ific
Ġmeny el
ĠÙ ¦
ar ia
ATION AL
Ġmak s
á ¸
ĠP C
ent ang
Ġg er
l ife
æ ĳ
S ing
ĠComp any
+ +
d t
ro le
p ati
ent er
omm end
Ġs ering
or a
rop ical
in der
j aya
Pro ceedings
Ø§ Ø¨ÙĬ
af iz
Ġoper ations
Ġs i
Ġp akai
Ġs ustainability
ific ations
str ateg
ĠØ§ ÙĪÙĦ
D ECLARATION
Ø° Ùĩ
Ġper niagaan
uk up
Ø¬ ÙĬ
omet imes
Ø±ÙĬ ØªØ§
Ġpand emic
Ġt w
Ġ ....
ĠØ§ Ú¬
ab ol
Ġexpress ed
ĠM ach
ĠPen ang
äº ¤
H D
N S
Ġstandard s
Ġeth nic
ypot heses
å¸ ®
Ġbe comes
aj uk
ĠH er
imens ional
Ġequ al
Ġr aw
yt ical
tain ing
ĠT a
al ik
Ġact ions
Ġsl ight
E m
åħ¬ åı¸
rup tion
ĠN i
ĠC u
M c
ĠØ³ Ø±ÙĬ
Ġ8 8
Ġp ilihan
ĠMethod ology
ĠL og
B atch
am eters
un ci
Ġaw ay
h ing
ell ow
Ġcurrent ly
emb ly
is ah
AS E
j ian
ĠØ§ÙĦ Ùħ
ut i
ĠM ain
ynam ics
Ġpres ents
Ġbl ack
Ġw ww
è¿ĺ æľī
or ical
yat akan
ingg u
ad ian
Ġkes ihatan
ĠCor relation
Ġocc urs
on en
Ġelect ron
yr ight
Ġdec isions
ĠC ost
ann ed
Ġv ict
Ġintegr ated
ĠU r
Y ou
me an
O VA
Ġex cell
ub atan
Âł Ċ
Ġse ems
Ġout side
Ġquestion naires
ra ud
M at
ang l
Ġ ðĿľ
æ¥ ¼
Ġstr ain
b ro
Ġvari ation
Ġsk in
Ġin stitusi
Ġre ach
Ġ9 8
ĠStr uct
ĠS ab
ev en
ĠI II
Am ount
Ġto ok
B P
Ġ19 89
stitut e
ĠC ouncil
Ġmarket s
ĠPsych ology
Ġachiev ement
Ġs ound
ĠEx pl
IT H
Ġs wit
Ġ0 5
ĠW est
ĠH az
ect s
M AD
Ġwe eks
Ġle pas
k ar
h ah
Ġst ages
i asa
ateg ory
Ġact ually
OMM END
ä¿Ŀ åŃĺ
ĠH ad
Ġscholar s
id en
p ref
Ġac k
æľ į
Ġm oral
Ġv er
. ),
ri er
Re ceived
Ġper ceptions
Ġmost ly
ast a
åĵĪ åĵĪ
Ø§Øµ ÙĬÙĦ
Wh at
arik h
Ġhot el
rom at
Ġper empuan
em ahan
ĠMe asurement
ĠCh apter
clud ing
Ġdom estic
an ah
Ġc ognitive
Ġn umbers
Ġ8 2
ĠS ens
imp in
å Ĥ
Ġc andid
ĠS yn
Ġthick ness
ak es
çļĦ è¯Ŀ
ÙĪ ØªÙĨ
ÙĪÙħ ÙĦÙĩ
ĠF il
è® ¤
æ¬¡ æķ°
ĠØ³ Ùĩ
Ġad equ
u ff
Ġreport ing
educ ation
æĬ ¥
ĠW ah
Ġd ulu
Ġmed i
Ġno ise
ĠÙĩ ÙĬ
ĠFebru ary
ow o
Ġcur ve
ition ally
t echnology
y er
ric ulum
ingk ah
r ics
ateg ori
Ġsp irit
ĠN ik
S EM
S ocial
b et
erv e
Ġconcept ual
ĠKh al
Ġterut amanya
åĲ Ħ
r is
Ġse ason
ĠG od
ĠEn ter
Ġtra ffic
ĠSer ies
P ub
Ġm uz
erv ation
n ilai
Ġâľ ĵ
ĠThe me
N C
. :
åº Ĺ
wh o
Ġ ä¸ĭè½½
ĠPro v
åĪ° çĽ¸
é ĵ
å¸ Ī
at ar
ĠS O
Ġ8 6
ĠS pr
ch er
Ġe ver
10 1
Ġsamp el
Ġsik ap
ust ion
Ġt issue
Ġadvant ages
ĠØ§ÙĪ ØªØ§Ø±Ø§
ci ences
Ġoptim ization
ĠE D
Pro duct
G oogle
AN A
iss ions
n umber
Ġcol or
ĠG AGT
s a
Ġj ual
ĠØ¯ ÙĥÙĨ
af ah
Ġexamin ation
k en
e al
Ġb ab
Ġtrad ing
å Ħ
Ġr m
Ã ½
ur angkan
Ġ8 4
pro ject
ÙĦ Ø¯
if orm
Ġg ather
ĠThe ir
ĠÙħ ØŃ
c hed
Ġdep th
ĠV is
ĠL ong
ox y
éĻĦ ä»¶
bec ause
is ional
Ġ9 3
ĠTer dapat
ul ating
Ġspec ifically
Ġinf ection
ĠP an
sub mit
ac cess
ĠÙĥØ¯ ÙĪØ§
Ġbud get
Ġlook ing
ĠØ£ ÙĪ
Ġinvolv ing
åį ķ
ĠVal ue
Ġä¸ĭè½½ æ¬¡æķ°
est ed
Ġ1 000
Pro gram
Ġconcentr ations
af ter
Ø±Ø§ Ø³
ĠØ¬ Ø§Ø¨
Ġgrow ing
ĠD R
Ġten aga
Ġä¸Ĭ ä¼ł
ä¸ĭè½½ éĻĦä»¶
c oh
Ġcontr ast
åĪ°çĽ¸ åĨĮ
ĠÙĨ ÙĪ
ä¿ĿåŃĺ åĪ°çĽ¸åĨĮ
ĠS embilan
ä¸į è¿ĩ
ĠE k
FAC ULTY
Ġro les
ĠABBREVI ATIONS
Ġrest ric
çİ ©
Ġsur f
âĢ¢ âĢ¢
ua ian
Ġcom es
Ġag greg
Ġk g
Ġber f
åĲ ¬
g ate
av a
åĴ ¯
Ġpl astic
it ure
Ġal though
Ġpan el
Ġann ual
ad vant
ar ter
T O
Ġpel anc
Ġb ir
ĠInd ian
ĠSim ilar
ĠD av
if ier
åľ ĭ
h ak
cons ider
Ġpl aced
In stagram
e a
s ik
avas cript
ĠE ach
ĠEx perimental
Ġorient ation
Ġg ave
Ġ9 1
Ġ19 80
Ġag reement
uc ose
ins ip
Ġ iv
Ġor al
s ocial
Ġmas ing
" )
ĠAd ministration
Ġw alaupun
Ġemot ional
as p
d el
Ġv ariance
D C
Ġhar us
Ġpow der
Ġpur poses
Ġattribut es
Ġoff icial
iz er
Ġ articles
ott om
ĠØ «
A SI
Ġcare er
Ġre pe
ang er
iz ations
yar ah
Ġpre m
II UM
ĠR ahim
ib at
ðĿĳ Ĵ
Ġd ivers
Ġgu ide
ĠN ilai
Ġgo es
at ial
ÙħÙĬÙĦÙĬ ÙĤÙĬ
se bagai
Ġprogram me
æ² Ĵ
Ġj abatan
ç© º
Ġbet ul
F L
ĠØªÙĬ ÙħÙĪØ±
Ġelect rical
Ġopin ion
ĠLi u
è ĳ
eb er
Ġsc ope
Ġ19 88
Ġfib re
Ġmemp engaruhi
ĠL eg
ĠThe mes
Ġcl uster
ĠAC COUN
ĠO thman
ess ed
f ol
alleng es
Ġmin im
ĠMuslim s
Ġth ing
Ġn ation
m ic
åı į
Ġsep anjang
angun kan
ĠPract ice
ble ms
Ø§ÙĬ Ùĥ
Ġcol umn
ĠS l
ER S
M as
å± ±
ĠM O
ad angan
ning s
ĠMoh ammad
Ġvehic le
100 7
T witter
Ġmemb entuk
ata u
S im
if ul
Ġpro te
yat aan
Ġdi al
ĠÙħ ÙħÙĬÙĦÙĬÙĤÙĬ
Ġ( "
Ġdiber i
U A
åį ĸ
ĠD ev
ind ic
web of
Ġobserv ation
ØªÙĬ Ùģ
S ch
éĹ ¨
éĤ£ ä¹Ī
ĠH ong
ĠM ax
ĠP a
ceed ing
ement ara
ik ir
Ġsym pt
S chool
ĠArab ic
ress ive
e ffici
ĠN atural
P ar
ĠBar at
åĲ ĳ
ab ul
od ium
Ġlead ers
ire ment
AS S
Ġrecomm ended
Ġpr estasi
t elah
åĳ Ĭ
is ition
Ġun certain
lam at
Ġcomp ound
Ùĥ ÙĬÙĨ
åĢ ĳ
ðĿĳ Ĳ
ç ¡
ĠB akar
Ġdise ases
ĠC RE
Ġw orth
ev ert
Ùħ ÙĪ
i wa
---------------- ----------------
å ĺ
Ġdecl are
å§ ĭ
Ġcont aining
en h
Ġl g
ĠPro perties
ĠL ab
ĠS ya
Ġaccept ance
ik el
ĠØ¬Ø§Ø¨ ØªÙĨ
ot ype
Ġh it
12 5
M O
ful ly
èµ Ħ
Ġf air
Ġanalys ed
Ġterb aik
ain kan
Ġg una
ĠO pen
k o
Ġvir us
ĠÙĥ Ú¤
âĢ¦âĢ¦âĢ¦âĢ¦âĢ¦âĢ¦âĢ¦âĢ¦ âĢ¦âĢ¦âĢ¦âĢ¦
ĠB ers
. (
Ġpl ate
Ġp air
p ost
Ġv e
Ġdel ay
uj i
Ġconflic t
il le
k h
Ġsh all
ĠK al
ellect ual
ac ing
ç¨ ĭ
ä» »
âĢ ĭ
Ġ \
ĠPro duction
C ited
fin ancial
ĠS ah
æĮ ĩ
ĠProf essor
Ø±Ø§Ø¬ Ø£ÙĨ
ðĿĽ ½
C r
Ġpro port
Ø§Ùħ ÙĦ
serv ice
The sis
hub ungan
Ø§ ÙĬÙĨ
B achelor
10 4
rid ge
ĠComp ut
es en
Ġb one
evert heless
ri ers
en alan
ĠPel ajar
Ã Ń
S iti
L e
F ull
ĠREC OMMEND
Ġmemer lukan
Ġquant itative
ĠDisc ussion
w orld
Ø¨ ÙĨ
ĠS ignificance
Ġcap ability
Ġclass ified
ĠS E
Ġ9 2
act ivity
Ġ âĢ¦
Ġa ff
æ ®
Ġsp es
Ġm ort
Ġhe ight
comp et
at ian
ĠW ib
d ah
ĠStr ucture
as cular
Ġresult ed
B U
ĠOr ang
ĠB ro
ä¸ Ķ
ĠO mar
cul es
aran ya
Ø£ ÙĬ
Ġsyn thesis
ag ree
r ay
ĠØ³ÙĦ ØªÙĨ
Ġmeng enal
med iate
Ġst ation
Ġsc hed
ĠØ³ ÙĪØ§
Ġag ents
Ġbiom ass
h ood
Ø± Ùģ
ol s
Ġcomplet ed
Ġper j
ĠHal al
ĠĠĠĠĠĠĠĠ ĠĠĠĠĠ
Ġeffect ively
ĠØ§ÙħÙĬ Ø±ÙĬÙĥ
Ġb ak
up a
Ġcontribut ed
Ġp usat
P end
ä¸Ń åĽ½
z ym
Ġp ark
ĠH ER
Ġte ori
Ġ ï¿½ï¿½ï¿½
pos al
in ity
on line
Ġextract ed
Ġd uration
Øª ÙĬÙĨ
ĠD igital
Ġ era
Mod el
Ġb angunan
Ø³ Ùĩ
Ġass istance
J oh
p le
14 0
åħ ī
est s
ord ance
Ġs and
Ġp anjang
s ama
Ġposit ively
k alau
Ġinvest ors
webof knowledge
10 6
ĠM es
S ur
Ġh ope
R ank
ĠU l
H T
Ġ19 85
Ġconcept s
Ġsc heme
ur angan
ĠD C
ach er
ĠL and
it ical
ĠF actor
ĠM S
å® ¹
Ġinvolv ement
Ġpand angan
ĠØª Ø¹
Ġsu fficient
10 3
Ġlat ihan
iz ikal
é ł
ok asi
13 0
ĠØ¯ ÙĬØ³
ĠRes ult
eri or
L ist
Øª ÙĪÙĨ
ĠTest ing
ers e
Ø¡ ÙĬ
Ø§ ÚĨ
ek at
Ġfor ward
B el
Ġ0 7
Ġt alk
Ġmole cular
G E
ĠØ¨ Ø§ÙĪÙĩ
Ġg ly
Ġcateg ory
ĠØ§ÙĦ Ø±
ĠP ener
Ġint ensity
I ES
Ġk emb
åı ĺ
Ġenj oy
ĠJ ust
es i
Ġf i
ĠPower ed
Ġexist ence
æ ĵ
S em
T echnology
ĠWib owo
Ġrisk s
E l
angg a
Ġked udukan
ĠPro p
Ġv eget
â Ħ
ĠIng geris
ĠUn tuk
H AD
ety o
ĠIs sues
en arkan
ĠStat istical
ðĿĲ µ
Ġv ent
at en
Ġstr uktur
Ġdem ikian
å¼ ı
ĠYus of
ĠØ¯ Ø§
ĠTr aining
Ġdi e
ĠØ¹ Ø¨Ø¯
ad z
hadap i
å¸ Į
ĠHam id
ĠÙĥÙĪÙħÚ¤ ÙĪÙĦÙĨ
åı «
çľ ¼
y les
ens yarah
ÙĪ ØªÙĪ
Ġgl ass
è§ī å¾Ĺ
Ġlim a
o a
Ġs oft
ĠC ina
Ġdel iver
Ag ung
d il
ĠL a
Ġrecogn ition
è¶ Ĭ
ig r
Ġperk embangan
Ġwh ite
Ġacc omp
ĠÚ¤Ø± Ø³
ĠØªÙĨØª Ø±Ø§
Ùĥ ÙĪØ¯
Ã Ĺ
Ġdis tr
ĠCol lection
Ġl alu
ĠP and
éģ İ
Ġs pr
Wh en
ad uan
Â µ
t ype
f i
ĠKa edah
L S
ĠI R
Ġsol ve
Ġs okongan
Ġdemonstr ated
AIN S
s an
è ³
Ġgood s
Ġpoll ution
ĠPras etyo
ä¸į èĥ½
æĹ¶ éĹ´
Ġsk ill
AP W
ir us
ĠÙ¡Ù ¨
Ġ0 6
Ġcon vert
Ġd asar
Ġplay ers
C i
ch arge
ist ically
ul at
Ġs a
Ø¯ Úł
Ġconf irm
per form
Ġmem astikan
ĠK r
èª ª
Ġd ed
Ġkew angan
im age
Ġp m
ĠP earson
ĠØ§ ÙĦÙĬ
edia an
ĠCh ang
ĠCent er
IC K
ĠÙĥ Ø±Ø§Ø¬Ø£ÙĨ
ĠFin ally
Ġst able
Ġcomm unities
effici ents
ðĿĳ ĩ
Ġkeb anyakan
k y
Ġeng agement
P emb
ĠK ong
ĠL td
uc le
åĳ ĺ
st andard
Ġpeng alaman
ad ays
ib a
im i
Ġpers ekitaran
ĠB o
Ġtop ic
Ġcom fort
N N
Ġs emp
public ation
Medium LoginPlease
12 7
el er
il s
Ġfocus es
E O
unct ional
ĠĠĠĠĠĠĠĠ ĠĠĠĠĠĠ
ĠØ³Ø¨ ÙĦÙĪÙħ
ç» ĵ
Ġlectur ers
d uring
Ġevalu ated
ar n
n ormal
Ġtak es
Ġ9 4
j avascript
ĠEqu ation
int o
Ġf ront
10 9
ĠÙĩ Ø§Ø±ÙĬ
ðĿĳ ĥ
ĠØ¯ Ø£
16 0
S cience
ĠH ashim
Ġï Ĥ
æ² ¹
Ġth in
all el
Ġfl ood
f ound
ĠL IST
Ġvi ol
ĠF uture
ĠPre paration
Ġconf idence
ĠPen yelidikan
p articip
st ances
Ġsc en
ĠH ol
âĢ Ĳ
ĠRec ommend
ĠRES ULTS
uruter aan
ĠØ§ Ùĥ
è¯ ķ
ug ar
ÙĪØ§ Ø±ÙĬ
ĠO l
Ġc ert
Ġunivers iti
press ion
b oleh
175 76
1 000
äº §
ĠÙĦ ÙĦ
ĠK ej
Ġv ert
m ereka
ag ue
Ø¯ ÙĨ
ĠØ¨ Ø§Ú½ÙĤ
ĠÙĥ Ø§ÙĨ
Ġk ot
Ġr ubber
Ġkomun iti
Ø± Ø©
å» º
ĠSup port
ĠØ§Ùĩ ÙĦÙĬ
at ang
ĠI P
Ġ4 00
y ing
ian ya
Ġab sorption
im ary
ĠD uring
em ia
umb ang
ĠØ¨ ÙĦ
olv ing
ĠØ§ ØªØ³
Ġm oment
Ġal b
ĠB ook
uster u
11 11
amp ir
Ġc os
h and
Ġun dang
28 9
Ġc ounter
åİŁ å¸ĸ
ç Į
ĠØªØ± ÙħØ§Ø³ÙĪÙĤ
Ġw ave
ES T
T ype
Ġnot ed
P el
Ġab s
P os
om atic
åİŁå¸ĸ çĶ±
10 2
ĠÙĪ ÙĤ
Ġd lm
Ġfac ed
ĠM R
ant ar
E v
Ġd iversity
l og
ĠÙĦØ§ ÙĪØª
ot echnology
ĠÙĦ ÙĦØ§
Ġview s
epend ence
Int roduction
m L
T T
ek ut
Ġr ise
Ġexpl ore
Ġm iss
Ġbu ilt
åĪ ¶
K L
et al
ĠH and
ist ant
è ħ
Ġpredict ion
ades h
meng gunakan
Ġrec overy
ĠSY STEM
æ £
ĠØ¨Ø±Ø³ Ø§Ùħ
J urnal
ĠMe i
ĠP EN
TIT LE
æł ¼
éĤ Ħ
land s
Ġw ood
ch ar
ðĿĳħ ðĿĳħ
em ale
Ġl agu
omet ry
ku asa
st ream
2 50
ĠP K
Ġj a
AT AN
C OM
af a
ĠElect ron
Ġg ak
Ġke h
ĠAd v
Ġs ectors
è İ
s g
k as
ĠE le
ĠH j
ib ilities
or iz
con n
Ġn et
ĠG rowth
ðĿĳ £
SEN ARA
con struction
Ġpl ays
ĠM ereka
å¿ ħ
Mus lim
E ffect
ĠPol icies
on i
ic ed
or ient
Ġprot ocol
Ġn utri
Ġw in
ĠPemb angunan
ĠC are
Ġz one
alays ia
ĠSel f
lam m
rom ot
ðĿ Ĵ
Ġb apa
Ġopt imal
å¸ ¦
ER A
Educ ation
Ġdi h
d ana
ah asa
ĠAppro ach
det ail
Ø§Ùħ ØªÙĨ
çķ Į
Ġs inc
ĠÙ¡Ù©Ù ©Ù
ĠÙĦ Øª
Ġcon sequ
Eng ineering
anj ung
Ġdi hasilkan
Ġv ary
R ep
G e
Ġar ah
az ali
Con f
æĪ ¿
ĠObject ive
UL T
Ġpsych ological
Ġt au
et apkan
Ġr uang
ĠM aster
Ġperk ataan
Ġsent iasa
ĠSout heast
Ġmeet ing
v a
ur l
Ùĥ Ùħ
Ġsus p
Úł ÙĥÙĨ
D evelopment
ed aran
Ġs un
ÙħØ¨ ÙĬÙĦ
Ġket iga
ĠSy ed
ek alkan
pr ises
Ġber at
z er
ĠB ab
os es
Ġadv ice
ĠS an
N D
Ġhydro gen
B u
on ent
ul akan
ðĿĳ İ
00 2
å ŀ
Ġman ufact
ðĿĳ Ŀ
record page
it ality
ik it
Ġst ore
B ar
ĠW ORK
ĠC G
Ġdeb t
als afah
AR T
10 7
ĠG o
med ia
ĠY ah
dis play
Ġkomun ikasi
æĸ Ļ
cept ed
as aran
Ġox ide
Ġstak eholders
ile y
Ġb ox
Ġr ich
æĹ ©
ĠD ECLARATION
Ġown ership
ĠMent eri
Ġseri ous
Ġsup er
/ -
u ed
Ġm eter
B usiness
Ġsh ared
å¾ Į
Ġstrong ly
Ġb ilangan
ĠÙ §
h o
ĠB oth
ĠZ ah
Ġmod al
ub uhan
Ġcut ting
Ġy e
Ġcompet ition
Ġf uzzy
Ġcomp osites
Ġtrans l
Ġm iddle
K W
d ik
Ġv ital
ĠïĢ ©
æ± Ĥ
eper iksaan
Ġd ar
ka un
ðĿĳĽ ðĿĳĽ
Ġc ame
Ġmanag ed
Ġc ivil
Ġal at
Ġaffect ing
aj uan
Ġh op
h ouse
ØªÙĪ Ø§ÙĨ
d etermin
Ġ19 87
atter y
A fter
10 8
neg ara
a ult
Ġdil aksanakan
au an
ĠÙĥÚĨ Ø§ÙħØªÙĨ
ĠÚ¤Ø± Ùĥ
Ġse ven
b agi
Ġpeny akit
ĠO g
Ġw aktu
Ġchalleng e
w i
Ġe ks
Ġkel as
Ġses ebuah
Ġdat abase
ĠL ife
AL L
P F
Ġrem ain
Ġpel uang
ros ion
Ġcharacter istic
K el
Ġoff ice
ĠÚ¤ÙĪØ³ ÙĥÙĪØ¯
c ial
Ø¨ Ø©
æĭ į
ÙĬ Ùģ
ĠS afety
il ot
y ond
ĠC our
and aran
CH N
ÙĨ Ùĩ
ĠØ¨Ø§ Ø±ÙĪ
le ad
Ġfund s
ogen ic
Ġr akan
Ġp ict
ÙĩØ§ Ø¯
Ġbeliev ed
ah am
G O
Ġs qu
Ġnot e
Ġv isc
ep si
ĠÚ¤Ø§Ø³ ÙĪÙĥÙĨ
Ġshow ing
Ġcon v
n ak
ĠÙĦÙĦØ§ ÙĥÙĬ
Ġg ram
ĠTan ah
Ġm other
Ġbi ological
Ġmac am
Ġexpl an
Ġ2 50
ĠÙĥ ØªÙĬÙĥ
ĠT inggi
Ġs uhu
ĠØª ÙħÚ¤Øª
rit ing
Ġbre ast
am m
ðĿĲ º
M ethod
Ġsuggest s
iss ues
ĠAn tara
ĠØ¯ Ø³
Ø§ Ø¹
ĠIt s
ul ang
ĠÚ¤Ø± Ø¨ÙĨØ¯
Ġfin ance
ĠAp plications
Ø§ÙĨ Ùĩ
Ġallow ed
æ¸ ¸
Ġsamp ing
r if
Ġt ree
Ġad ministration
ĠL u
AKA AN
D e
ic o
ĠP V
F P
Ġhealth y
ur er
éĻ ¤
ang gan
Ġsubstr ate
ĠM any
g ery
â ĸ
Ġrefer red
ĠØ³Ùĩ ÙĬÚłÚ¬
OR T
åĬ Ł
ĠMan akala
cl es
Ġaccur ate
ck nowledg
Ġoffer ed
ĠU MP
or row
st er
Ġnan of
å¹ ¶
ĠH D
TI R
ip h
= &
o om
N on
ĠMaj lis
ĠS C
Ġwr ong
b s
v an
Ġcontrol led
et t
ĠSel atan
äºº çļĦ
l ig
ĠS aud
K A
ak arta
Ġcon strain
ĠH all
ĠG ood
Ġh uj
Ġanti oxidant
se ud
ĠØ³ Ø§ÙĦÙĩ
Ġa x
ĠM er
H ow
è® °
Ġv aluable
emper atures
p ub
ace ut
ĠM OD
Ġam pl
ĠD ifferent
S al
est r
W O
ĠØ§ Ùħ
ob ic
o alan
An y
M ay
ĠE mer
ÙłÙł Ùł
Ġreg ions
ĠA min
Ġbr ain
ind ividual
f actors
Acc ount
ĠE ven
Ġs um
Ġdi anggap
Ġ10 1
ron bach
inc angan
ĠAS EAN
it ch
Ġack nowled
Ġmet als
ĠIN TER
past i
Ġfin ish
12 8
Ġutil ized
Ġdist inct
ï¼ Ľ
Ġ1 11
Ġkep entingan
F e
Ġkhus usnya
im prov
Ġcomp liance
Ġreg ular
M AN
è¯· éĹ®
Ġm it
l n
y o
Ġs ar
oper ative
ĠPh ysical
ign ature
b ox
ÙĪ ØªÙĬ
ÙĪ ÚĨ
ĠW ar
osoph y
Ġs afe
ĠØ§ÙĦ ÙĦ
è¶ ħ
ĠØ¬ ÙĪÙħÙĦÙĩ
Ġdip ilih
CON CLUSION
m icro
å·¥ ä½ľ
ic ing
Ġso al
Ġinter face
?? ?
res ult
ĠF requency
Ø§ÙĦ ÙĤ
Ġab sorb
pro ses
Ġm ap
ĠS AINS
Ġconf irmed
ain i
Ġch lor
Ø§Ø ²
is her
RO M
Ġconn ection
ĠG uru
ðĿĲ ¿
Ġdi ambil
em erl
S eb
enuh i
Ġbe kerja
ĠM em
h u
im ia
Ġdecre ased
K es
ĠØ¥ ÙīÙĦ
Ġb ila
Ġcre ating
Ġmen entukan
ĠM ass
ĠM AR
Ġad e
P B
unic ations
Ġsmall er
Ġr is
ĠG erman
äº ļ
ĠM obile
Ġph osph
ĠK amar
Ġconn ected
ÙĬÚ¤ ÙĪÙĨ
Ġerr ors
Ġrece ive
le ep
Ġsur round
Ġsoci o
ĠØ³ Ø±ØªØ§
Ġset s
Ġnan oparticles
en na
Ġn ih
Ġdev iation
Ġb antuan
19 88
Ġg ames
ĠRes ources
ĠØª ÙĬÚłÚ¬
R ef
ĠÚ¤Ø±Ø¨ÙĨØ¯ Ø±ÙĨ
ç¤ º
Ġre lease
pect ed
Ġm est
ob serv
t wo
ĠIn str
åŃ Ĺ
C op
ĠØªØ± Ø¨Úł
Ġ19 86
Ûı ÙĬÙĨ
Ġqu ick
Ġw t
ob ject
Ġw atch
it atif
Ġoff ers
se e
EL L
Ġtah u
Ġanalys es
S aya
Ġsem i
é ¥
Ġpen ingkatan
ĠØ§ÙĪ ØªØ§Ùħ
Ġarr ang
Ġchang ing
Ĺ ı
ĠØ§ÙĪ Ùģ
K e
S i
Ġl aboratory
resh old
ik h
çĲ ĥ
Ġcon ver
ĠØ¨ ÙĪØ§Ùĩ
Ġbel akang
Ġt t
ct or
ĠC ulture
Ġdetermin ing
amp el
c ultural
Ġexperi enced
ĠK AJIAN
P ort
Ġl aku
ĠSh ariah
ĠDefin ition
ĠSal leh
Ġf ire
ĠK l
Ġs uc
ĠAc ademy
å ¨
spec ific
éĺ ¿
Ġrel ations
amb ridge
bit kan
P ublished
or ity
Ġseb arang
a ign
r un
29 2
L ast
Ġn ight
ĠComp et
G l
ĠØ§ÙĨ ÙĤ
Ġs ession
om as
as m
Ġ angg
st ate
Ø¬ ÙĪÙĤ
Ġestim ation
k enal
ĠF akulti
el a
M M
æµ ģ
æĺ ĵ
åı¯ æĺ¯
RE E
reed om
Ġseg ala
Ġexp osed
ob il
Ġcateg or
d l
ĠComp uting
Ġtrans mission
Ġb ed
ĠTh at
å£ «
ul it
Ġt um
M ah
P e
Ġeth anol
ula iman
qu estion
ĠI st
B J
anj ut
ĠS ym
E conom
Ġmenj alankan
Ġkesel amatan
m ut
ĠØ¨ÙĩØ§ Ú¬ÙĬÙĨ
s ed
ov a
The se
Ġ çļĦ
Ġdiscl osure
11 4
Ġrelig ion
r ig
the se
Ġrel iable
ING S
ffor d
Ġp ure
ch at
Úł ÙĬ
ĠØ³Ø±Ø§ ÙħØ§
19 89
The y
Ġorgan isation
ara f
Ġd egradation
ĠM art
ment ed
UT H
h ere
Ġel emen
ĠØ§ØŃ ÙĦ
LE C
IC E
osp itality
b at
ÙĦÙĬ ÙĤ
Ġmeng alami
Ġset elah
Ġses i
product s
abul ary
N eg
u u
Ä± n
ĠKh air
AL AM
os h
ĠS A
ut ral
Ġbuild ings
ĠG raph
åĸľ æ¬¢
Ġa er
Ġclass es
af ar
comp ared
Pos kod
y g
em i
h ome
Ġon es
Ġh us
Ġsel idik
Ø§ÙĦ ÙĬØ§
ĠS um
çĦ¶ åĲİ
oc abulary
Ø§ÙĬ Ø³
ĠB ukit
Ġbal ik
ĠAn ti
S U
Ġear th
ici ency
æ º
h uman
ĠF ound
ach iev
Ġkec amatan
f ree
angl adesh
Ġhelp ed
s ome
ĠØ¨Ø± Ú¤
Ġinterest ing
Ġaffect s
å Ļ
ĠT ok
up ayaan
è Ľ
Ġprob ability
Ġstart ing
uk uran
11 5
ĠÙħ Ø¬
ĠBl ack
Ġsepar ation
Ġkont eks
r m
æĢ Ŀ
Ġform ula
Ø¯ Ø§ÙĨ
ÙĦ ÙĪØ±
re view
ert ai
ĠS oftware
c ost
it kan
in n
que ous
ar ak
Ġco operation
M on
Ġ10 9
ĠU t
ĠC A
oh on
SENARA I
ĠV an
' );
ĠT T
Ġl ines
ĠNor th
Ġbel um
respond ents
Ġserv e
ĠØ§ÙĦ Øµ
Ġberk esan
Ġinterview s
Ġun sur
ĠOx ford
u asan
Ġpem ain
ĠCommit tee
akar ia
F ID
TI V
d it
Ġ- .
ĠB io
ĠØ¯ÙĥÙĨ ÙĦÙĬ
ĠC y
ĠPen y
C P
Ġfil ms
ĠC SR
ess ing
ly sis
Ġen able
ĠDES IGN
ujud kan
ĠBehavi or
Ġv ision
Ġf ine
g raph
Ġh our
ĠKing dom
Ġtr ain
Ġm id
Ġdet ected
od ing
ĠRes ource
ĠT aiwan
st ance
Ġbeh ind
G h
Ġbec ame
ĠY a
Ġak ademik
Ġbaga imanapun
Ġse em
Cre ate
Ġcirc uit
r ul
Ġrepresent ed
ĠO verview
G S
Ġal gorithms
p lement
l ab
Ġoff ic
res pons
ab alu
Ġm un
er hana
Ġimpact s
Ġst ory
Ġberas askan
ä»ĸ çļĦ
Ġinv olve
Ø§Ø¡ÙĬ ÙĤ
ÙĪÙĨ ÚĨ
é ¤
Ġsequ ence
N e
ĠL ast
ci um
res pect
Ġstrateg i
ÙĬ ÙĤ
å° į
ar p
ĠÚ¤ÙĦØ§ Ø¬Ø±
L i
Ø§ ØŃ
Ġacc ordance
re es
ÙĪÙħ Ø¨
ĠKh an
ipt a
Ġpr inciple
Ġtind akan
Ġm L
Ġover come
EV EL
sep erti
Ġpr ed
Ġl oyalty
è£ ħ
Ġcomb ined
Ġdat as
Ø§Ø¨ÙĬ ÙĦØ§
åŁ º
Sel ain
Ġad sorb
Ġel ektr
act ivities
Ġmm g
acter ial
Ġinter vention
le ks
ri um
ĠS ize
amp aikan
Ġother wise
s ort
ĠON E
re et
ĠDis ember
ĠIn s
ĠL ik
Ġbel ajar
Ġr ule
clus ions
**** ****
ĠK ab
è® º
ĠPak istan
orne o
Ġwork place
ĠDat o
è¨ Ģ
Ġcompreh ensive
ric k
R et
Ġw ent
Ġan xiety
Ġper at
ĠH ydro
Ġbusiness es
k m
oc omp
Ġcent re
ĠH o
Ġconsider ation
pe ople
v ed
- %
U J
Ġscre en
ĠDis tribution
l atest
ĠR ole
Ġkemb ali
Ġbar at
Ġc ov
ïī ģ
Ġsek arang
w at
Ġe ight
angk at
Ġkel uar
ĠD ue
Ġconn ect
V ari
od ay
Ø§ÙĦ Øª
H igh
Ġm akan
ĠRel iability
ungg uh
Ġmeas uring
mer cial
Ġoccurr ed
H R
Ġph arm
Ġproduc ing
ival ent
w id
Ø§ ÙĤ
ad angkan
Ġchang ed
Ġj uta
ĠJ ob
b all
12 9
m ult
æ ¢
å® ¢
Ø¬ Úł
u its
ing ton
Ġs in
ĠJ adual
æ¬ ¾
ER IAL
Ġmas ter
Ġl ic
Ġmen ingkat
Ġ10 3
0 16
ĠH ard
ĠP D
s uccess
ĠT UN
ĠÚĨ ÙĬÙĨØ§
ĠB ay
cons um
ry pt
Ġav ailability
og y
r s
ĠT op
AL AN
Ġcomp lic
est ab
hold ers
Ġfl av
èĢ ĥ
Ġappro ximately
m p
memp unyai
Ġdr ive
F D
ĠACCOUN T
Ġro ck
ĠSm all
Ġul tr
ä¸ ĩ
ĠLead ership
ĠD evelop
os an
ĠÙħ ÙĪÙĦØ§
aceut ical
Ġf ungsi
Ġvict im
C ite
aks a
ost er
ier arch
Ġr iver
Ġpas aran
Ġter min
id ents
et her
èĭ ±
ĠØ§ÙĬ Ø±
ap ted
ĠR iver
or ation
ÙĪØ¯ ÙĪÙĤ
ĠB I
Ġupd ate
ones ian
uth ent
Ġ _
sec ond
oleh kan
Ġperb andaran
ĠÚĨ ÙĬ
Ġdi abetes
Ø³ Ø§ÙĨ
00 5
K er
Ġencour agement
ul in
Ġz ero
ĠReg ression
ĠElect rical
G RO
Ġmem ahami
S e
s ens
Ġr ingk
ab ung
str ak
ĠTh rough
Ġ10 5
ĠØ§Ú¤ Ø§Ø¨ÙĬÙĦØ§
Y W
Ġmenc ari
Ġ1 10
ĠS atisfaction
to ber
ĠÚ¤ ÙĪÙĦÙĬ
emp atan
æĬ ķ
ak h
Ùĩ ÙĥÙĨ
ĠSec urity
E lect
13 1
ĠB ul
L earning
00 3
Ġmeny ediakan
Ġsol vent
P ublic
Ġh az
Ġmener usi
ĠØ§Ø® ÙĬØ±
g a
ass oci
ĠÙħÙĨ Ø¬
Ġmin yak
Ġdescrib e
Ġguid elines
Ġtet ap
ĠÙĨ ÙĬ
Ġfor ec
AY A
æį ¢
Ġindic ators
ä¿ ®
amal kan
h igher
P V
ĠO ur
l if
r ight
ÙĦÙĬÙĩ ÙĨ
has ilan
ĠEm p
l ast
ul ah
ĠC D
ĠD ay
ag on
V al
incip al
g h
Ġ9 78
ĠM az
En vironment
ĠLink s
T el
Ġman aging
Ġcour ses
v alues
r adi
ĠL ocal
åķ Ĩ
Ġins urance
Ġaw are
é£ İ
W AR
p et
ĠIN D
sh ould
ĠD ia
åĽ ¾
ĠM o
å¤ Ħ
onom y
stud ies
tr ad
Ġrem ains
ĠA H
ÙĪÙĨ Ø¯
Ġemploy ment
Ġad min
iy yah
Ġf izikal
Ġsystem atic
me as
é£ Ł
s ized
ĠS ams
ip edia
ĠHER E
on ents
ĠTh ree
imp ulan
f ac
ĠC op
æĶ ¯
W an
Ġcour t
ï¿½ï¿½ï¿½ï¿½ ï¿½ï¿½
' )
Ġcit izens
g ood
ĠM ur
Ġa ward
11 3
ĠI V
hem atic
G u
ĠÎ ¼
t an
ç« Ļ
ĠU jian
ell er
l ina
Use ful
angu ages
Ġm ill
Ġwast ewater
os ses
ØŃ ÙĬ
F urthermore
Ġy outh
Ġst ream
Ú¤ ÚłÙĨ
Ġcap abilities
asi er
åħ¶ å®ŀ
A cknowledg
Ġencour age
Ġm alam
åĽ Ľ
Ġfield s
Ġevery one
äº «
Ġsupport s
ĠS UM
Ġexerc ise
ĠBank ing
d d
Ġmess age
Ġacknowled ged
ce ive
å® Ŀ
H al
Ġint roduction
ïĢ ł
ĠT idak
Ġne ighb
ur ik
pect s
Ġf ile
ĠKer ajaan
Øª Øª
isting u
plic it
on a
Ġdes a
00 4
eg ang
Ġ1 25
Ġen zyme
H ar
Ġcent er
ĠÙħ ÙĪØ¯
C he
S ystem
ĠÚ¤Ø± Ùħ
mas yarakat
Ġslight ly
we et
ekut uan
ans ion
ent ation
al y
çļĦ æĺ¯
av er
ĠØ º
C ons
Ġker eta
Ø¯ÙĬ ÙĤÙĨ
ĠO s
Ġh a
ĠG oogle
çī Ī
as aan
ĠØ³ ÙħØ§Ø³
ot es
Y es
å Ĺ
uk ti
iv ari
ant ikan
11 8
Ġcr ack
ĠS WT
Ġfor mer
ĠØ§ÙĦ Ùĥ
kenal kan
ĠComm unity
Ġfund amental
Ġinf rastructure
ĠØ¯ ØªÙĪ
tic les
13 5
Ġmenj elaskan
Ġkaw alan
Ġc uba
C an
ĠØ¨ Ø±ÙĬ
Ġh endak
Ġlead er
m ur
Ø¬ Ùĩ
l abor
Ġ ianya
Ġpr iv
è Į
Ġcont ents
Ġ ÛıÙĬ
ĠSci ent
ĠÙĥ ÙħØ§
New s
ĉč Ġ
Ġpre valence
u x
Ġincor por
Ġex tra
çĹ ħ
on us
ut up
Ġt ensile
Ġst e
ym ers
Ġmechan isms
Ġb il
Ġanalyz e
Ġenh anced
11 9
n n
ab ar
sk i
f unction
Ġdis tribut
Ġspe ech
Ġinter actions
Ġfin ancing
EL OR
é¡ ¶
ĠSar jana
Ġmem ang
Th ank
ĠS pect
Ġbeg inning
ag angan
F B
Ġf oot
tre ated
Ġconduct ivity
ter hadap
Ġsup pl
Ø¬ Ø¯
un i
ĠS uh
0 14
æĶ ¹
ĠS U
ĠThe sis
Ġex cess
ä¸Ģ æł·
ĠEv idence
Ġro ugh
Ġret ail
Ġw alk
ject ed
Ġmem ory
Ġacid s
Ġ1 18
ĠÙĩ ÙĬÚłÚ¬
ĉč ĠÂł
Cor responding
ire ments
Ġeth ical
Ú¤ ÙĪÙĨ
Ġdo uble
ĠØ± Ø§ÙĬ
ukt ikan
Ġgr ant
Ġber c
ĠØ¬ Ø±
om er
Ġ ĉ
Ø¯ ÙĬÙĨ
c urrent
Ġman ner
let s
aw ati
Ġinterest s
S erv
ap chat
t w
Ġprob ably
ĠIm age
P EN
Ġcon ven
Ġcr ude
Ġtr ial
Ġmod ule
ĠC a
Ġm uda
Ġk ons
D L
RO ME
Ġexperim ents
Ġfr act
ie ce
elu aran
Ġcer ita
ĠM ark
ĠH uss
f ile
L AM
y am
Ġim plications
==== ====
ĠCRE ATE
Ġs end
Ġc ement
record Rank
Ġd pt
as ma
Ġmodel ing
Ġr awatan
sc ape
ïĢ Ń
Ġter ima
ĠĠĠĠĠĠĠĠĠĠĠĠĠĠĠĠĠĠĠĠĠĠĠĠĠĠĠĠĠĠĠĠĠĠĠĠĠĠĠĠĠĠĠĠĠĠĠĠĠĠĠĠĠĠĠĠĠĠĠĠĠĠĠĠ ĠĠĠĠĠĠĠĠĠĠĠĠĠĠĠĠĠĠĠĠĠĠĠĠĠĠĠĠĠĠĠĠ
oleh an
Ġhighlight ed
Ġag ak
aga imana
Ġsed ang
v ere
id ay
Ø³ ÙĬÙĨ
11 2
icro bial
Ġc at
em ua
unj uk
11 6
ACKNOWLEDGEMENT S
P N
ĠCh rist
Ġd uit
Ġj en
ĠB achelor
In formation
ogn ition
amp iran
Ġp on
ĠP AGE
b o
è® ²
s cience
Ġâī ¤
ag en
coh ol
op ol
Ġdij adikan
pro p
Ġter l
emb ang
Ġv acc
appro ach
ĠRe qu
ĠÙĦØ§ Ú¬ÙĪ
is ian
ĠâĪ ļ
Ġconcern ed
ĠØ§ÙĬÙĨ Ø¯ÙĬØ§
ĠAv ailable
Ġal umin
éŁ ³
Ġv erb
Ġint ent
ÙĪÚ¬ ÙĬ
Ġdoc uments
t el
OR S
å¼ ł
Ġcomplet ing
as y
ĠC hem
ĠS TR
Ġt eks
again ya
ðĿĲ ¸
enew able
ĠK on
Ġup per
Ġa fford
ont al
am ic
t arget
Ġexpert s
ĠMan ager
et ies
Ġle af
Ġr ats
Ùĥ Ø§ÙĨ
ĠE C
Ġe ase
ç« ĭ
Ð °
ĠTim ur
ath y
' .
11 7
æĭ ī
sc ale
Ci D
Ġdiperoleh i
Ġspect rum
f it
ĠC ovid
ear ches
Ġcollabor ation
ĠH a
ult ane
W ork
ad at
ay akan
Ġinflu ences
ĠR ate
ĠS atu
ĠSeb agai
ĠÙħ ÙĤ
ins ic
ail s
Ġl ost
Ġsed ikit
j uga
Ġat m
æ ļ
T Q
Ġ1 15
æĻ ļ
is u
Ġsur at
Ġberk ata
CL ICK
as il
Ġt un
ĠØ¯ÙĬØ³ Ø§
ĠPh ase
H i
ĠØ³ ÙĬØ³
Ġcre ation
ĠAre a
Ġd h
s ites
uny i
tr iev
Ġmemb aca
Ġpenc apaian
Ġdetermin ation
Ġg aya
Ġhab it
N a
ust aka
ĠAd vanced
id ge
Ġisol ated
ĠJapan ese
go ing
Ġrecent ly
Ġdes pite
Ġ ign
ole j
Ġp overty
SH ER
ĠPer centage
ĠØ¨ÙĬ Ø§Ø³
us un
Ġb rief
Ġ1 17
ĠU V
research gate
ÙĪÙĥ ÙĪ
é» ĳ
âĢ ²
Ø³ÙĬ Ùħ
Ġscre ening
Ġmoder ate
Øª ÙĪØ±
Ġber ter
Ġ1 19
Ġsek tor
ac aan
Ġsympt oms
Ø³ Ùĥ
ĠPh D
ĠR O
ener gy
Å «
ĠS aid
Ġsm ooth
omb or
ins on
ÙĦ Ø§ÙĨ
ĠAcc oun
Ġhe ter
s he
ins ular
th ome
Ġtel ev
pro perties
Ġmeasure ments
Ġcol le
Ġal one
m aj
ĠSur face
æĸ ¯
Ġk or
id ae
ĠÙħÚł Ú¬ÙĪÙĨØ§ÙĥÙĨ
Ġ æĪĳ
Ġst abil
D OI
Ġmem ilih
ðĿĲ ¹
åĦ ¿
SHER PA
Ġexcell ent
Ġrespect ive
ĠB t
è® ¡
Sn apchat
æķ ´
Ġt ingkah
IN AL
ĠIn st
My Cite
ers ion
ROME O
OR CiD
IR ep
OG R
S W
ĠÙĪØ§ÙĦ Ø§ÙĪ
ĠAccoun thome
ĠACCOUNT Login
Ø¨ Øª
u asa
Ø§ÙĪ ØªÙĨ
ĠM D
ĠInf luence
d ib
ĠDes criptive
P AR
ĠØ§ Ø³Øª
l ocation
ĠSy ariah
ðĿĲ ·
Ã ī
s hip
Ġt alian
Ġbe yond
è¿ Ĳ
ens ation
Ġc reat
Ġcontrol ler
Ġm oisture
rom e
M eng
ÙĦÙĬ Ø©
Ġoper ational
f aktor
cons ist
Ġm engan
ä¹ ħ
Ġb ay
k at
Ġh ampir
Ġv ill
posit ive
Ġcon ference
Ġdis pers
ĠP CR
Ġaim ed
ous ing
Ġs ul
å¼ º
Ġm arg
ĠÙĪ Ø£
Ġlimit ations
äº Ķ
4 50
å¸Į æľĽ
Ab d
y se
ung a
Ġob jektif
Ġdiper lukan
ĠØ³ ÙĪÚł
Ġch ance
Ġle ave
Ġpeker jaan
ĠH ak
Ø§ÙĦ ÙĬÚł
comm unication
åĮ º
Ġbe am
çģ «
ĠÚ¤ ÙħØ§
å¤ Ł
k amah
z en
âĢ¦ .
ĠAfric a
lib atan
Ġag o
Ġgr ate
Ġ19 84
an o
ven ue
ĠÙĩ Ø§Ú½
est ing
ĠAn other
hid mat
Mean while
ĠJanu ari
ç® ¡
Ġtry ing
un aan
ard i
Ġprov en
èģ Ķ
ĠÙĦØ§ Ú¬ÙĬ
L ee
ig ration
Ġre form
ĠK L
åĪ ļ
å· ´
ĠÙĥ Ø§Ø¨
ĠCh ange
F IG
Ġspe ak
Ġmeng kaji
cont inu
effect ive
ail ed
Ġt al
ÙĦ Ùģ
Ġpl aces
Ġs quare
eng ar
av ity
ind ak
ÙĬÙĥ ÙĪØª
Ġb ottom
Ġass ay
Ø² ÙĬÙĥ
s ize
Ġex port
Ġn itrogen
Ġw eld
Ġsens itivity
Ġk uat
rup t
om ic
d ari
he lp
ĠÙ ¨
itor ing
Ġbers ifat
Ġw arga
n ership
ĠØ¬ ÙĬÚ¤ÙĪÙĨ
em atik
Ġcap able
ĠÚ¬ Ø±
j azah
Ġlarg est
ĠCont ent
åį Ĭ
ch mark
ag ers
A E
Ġex c
ç ¢
Ġm uka
ĠÙ ī
M IS
Ġt gk
k ed
Ġv ector
Ġdirect ors
ĠF ore
en omen
Ġpredict ed
Ġk amu
ters ebut
ĠHist ory
ĠÙ¡Ù©Ù ¨
Ġcent ury
ĠR ef
O W
Ġmem enuhi
ĠComm ission
ĠJ erman
Ġw ang
æ³ ¨
ĠUM NO
ĠC ode
ud i
ÙĬØ¯ ÙĪÚ¤
Ġut ara
amp ak
Ø³ÙĬ Ø³
ĠDar ul
Ġgl ucose
Ġte kanan
ay ers
Ġcell ulose
á ¹
ĠNas ional
Ġreg ul
ric tion
ise ase
æĢ ķ
Ġd aya
erc ayaan
ĠÙħ Ø´
Ġcons ult
Ġinflu encing
Ġown er
f ri
in line
b id
Ġvir tual
ar ity
or ong
Ġpeng aruh
ĠD ATA
a upun
Ġphenomen on
ĠSec ara
Ġs av
ĠSing h
et ik
Z h
Ġto ler
Ġshe ar
SH IP
ĠAB D
f ocus
as ional
Ġs ummary
ĠPer lis
E r
ĠØ§ ÙĪØ±
ĠT iO
ĠK ad
ĠÚ¤ ÙĪÚ¤
Ġn ode
éĢ ł
M ARY
Ġdah ulu
et ics
em ail
ĠE R
it ations
ÙĬØ± ÙĨ
Ġdi es
F r
K AN
ĠÙħÙĨ Ø¯
T ime
c ore
ĠStrateg y
ãĢĤ âĢĿ
ç ª
it led
ĠAccount s
Ġm and
Ġh ol
Ġequ ations
Eng lish
Ġ iron
ĠPr edict
Ġre ality
Ġw aqf
B E
ann a
Ġper hatian
Ġtour ists
k l
ĠL in
Ġco ating
Ġshop ping
S y
12 6
ĠS CI
A v
Ġse w
p and
it t
12 4
ĠT s
Ġbound ary
Ġl ives
å¥½ åĥı
Ġs elling
Ø³ ÙĥÙĨ
wh at
umb angan
Ø¯ÙĬ Ø«
Ġcomplet ion
Ġ id
ĠÙħÙħØ¨ ÙĨ
Ġcool ing
im icrobial
ĠF indings
aw arkan
Ġide al
Ġpes akit
Ġk ertas
................................................................ ................................
Ġk ursus
åĳ ½
t ir
Ġtent era
Ġcons idering
crib ed
c ik
Ġtrad isional
Ġag ricultural
ĠØ³ ØªØ§
ĠHot el
Ġj ur
ĠOg os
O O
Ġ Ð
am akan
Ġe c
19 86
ĠBar u
é¦ ĸ
8 00
ber ita
ĠSp ace
Ġl atest
at ically
Ġpem ikiran
Ġreturn s
ĠQ ual
ir ms
Ġsurv ival
ig ious
Ġdes criptive
Ġreg ulations
f ood
in cluding
dr is
Ġl ingu
Ġf raud
Ġnumer ous
it able
Ed s
ur unan
con cept
urik ulum
ĠD om
ĠØŃ ÙĬ
Ġad ults
ðĿĳĨ ðĿĳĨ
g rowth
Ġh arta
IS BN
es aikan
ĠC ross
Ġvis it
âĢ¦âĢ¦âĢ¦âĢ¦âĢ¦âĢ¦âĢ¦âĢ¦âĢ¦âĢ¦âĢ¦âĢ¦âĢ¦âĢ¦âĢ¦âĢ¦ âĢ¦âĢ¦âĢ¦âĢ¦
Ġterk enal
m u
and ung
Ġ1 30
çķ Ļ
ĠJ ulai
Ø±Ø§ Ùħ
C ross
industr y
Ġmin eral
å¼Ģ å§ĭ
ov ed
Ġdes ired
OL S
Ġf rame
ĠG DP
Ø° ÙĬ
:- ?
ar c
im er
ac ademic
On line
åĮ »
Ġperson ality
P art
Ġbal as
Ġconcern s
oth ers
è¿Ļ éĩĮ
ec ause
ĠP alm
at angan
ĠAnn ual
Ġ1 40
Ø¨ ÙĦ
åı ĸ
h ard
Ġradi ation
ub ric
ĠC ustomer
ord ers
Ġt ung
ĠMOH D
ÙĬÙĨ ÙĨ
ç¬ ĳ
Ġd ye
agn etic
ĠW alau
stant ial
I TI
Ġw ife
on ial
Ġdepend ing
Ġadequ ate
ĠR ash
Ġs cientific
istr ation
Ġdep artment
æĢİ ä¹Ī
Ġl aser
Th anks
N z
ĠB ur
ĠÙ Ĵ
Ġ **
ĠBah agian
Ġequ ity
Ġent repreneurial
Ġinterest ed
Ġb angsa
ON S
environment al
a ffect
Ġent repreneurs
æł ¹
ä¸ľ è¥¿
ĠOk tober
ci ous
ĠC ampus
ĠÙĦ ÙĪØ§Ø±
for ce
eber apa
Ġv an
pers on
comm od
Ġpen ulisan
ĠL o
iv ated
n etwork
Ġfor ces
ä½ł ä»¬
ÙĬÙĨ ØªØ§
Ġ6 00
l ook
M z
Ġtr ig
Ġhelp ing
Ġear nings
J anu
Ġfl at
ĠPhys ics
uan ya
ç Ĭ
k n
Ġlaw s
A mer
ÙĪÙĦ ÙĪ
Ġj u
ĠG old
Ġmel aksanakan
Ġther apy
ĠSen i
act s
eb r
organ ization
ot ics
ĠBer had
Ġtr ack
under standing
N ational
ĠÚ¤ÙĪÙĦØ§ ÙĪ
Ġ1 13
b ang
W orld
Ġak ibat
Ġcar b
em an
14 6
Ġp o
ç¬¬ ä¸Ģ
Ġfrequ ently
Ġent repreneurship
es uaian
ĠRe al
Ġapp oint
ĠIm prov
Ø§ÙĦÙĪ Ø¡ÙĬ
av en
Ġsh ap
ä¸Ģ äºĽ
Ġpresent ation
å¥½ çļĦ
Ġworld wide
M aster
w ould
the m
ä¸Ģ å®ļ
Ã ³
O z
k t
æ¶ Ī
ac ob
Ġtrans formation
Ġbelief s
ĠĠĠĠ Ċ
hub ung
et engah
ĠC ur
L ITERATURE
ak ili
ĠS G
å¤ ±
Ġ19 83
Ġsp end
ĠQ ur
ĠØ¯ Ú¤Ø±
Ġk m
con centration
AS A
ÙĦØ³ Ø§ÙĦÙħ
o ys
Ġa qu
Ġt inggal
ĠAcc ess
clus ive
IS TR
Ġk t
ĠØª ÙĪ
Ú¬ Ø§
pl f
æģ ¯
car bon
Ġto ld
Ġf ert
ĠS istem
ĠN abi
Ù Ĺ
artic ular
Ġbi odies
gr ade
p op
Ġpar as
ĠÚ¤ Ùħ
ĠS ampling
Ġe asier
Moh amad
ĠÙĤ Ø¯
é ¾
Ġt esis
* ,
s ot
Ar ticle
d ers
Ġh yd
ĠTr ad
osph ere
Ġmat ch
ĠPut ra
Ġh uge
Ġberm aksud
ĠBehavi our
Ø§Øª ÙĬÙĨ
st and
it o
ACH ELOR
r ik
Ùİ Ùİ
Ġpr a
M aj
ĠEr ror
L a
Ġsolv ing
an th
ĠM aterial
ĠØ³ ÙĬÚł
p ass
l anguage
uter a
ĠW estern
Ġbi asanya
Ġadv anced
Ġ10 2
Øª Ùĩ
12 1
li ament
ĠBas ic
ðĿĳģ ðĿĳģ
ĠT aman
Ġbuy ing
ĠD ari
it if
C ent
ĠC ond
Ġcon version
h ot
Ġs ukar
Ġne ural
èĢĮ ä¸Ķ
æĩ Ĥ
åı ·
IS I
Ø§Ø¯ ÙĨ
ĠT i
Ġmet abol
Ġlab our
ĠO ffic
K K
Ġb all
Ġm os
az il
ĠØ¹ Ùħ
é©¬ æĿ¥
Ġthe ories
Ġdrug s
ĠKin abalu
ar ant
Ø »
at ul
ĠM oney
ĠK omunikasi
sur face
ĠStruct ural
ĠQu ant
OM E
urs ing
l oc
ĠK E
kes anan
ĠS eg
Ġconf ig
Ġb ul
Ġc el
Ġn odes
Ġrem ove
k k
ĠN g
old s
PERP US
ph one
/ ?
Ġpel aksanaan
ĠF amily
ĠKu antan
Ġext ended
Ġab ad
ĠOff ice
ann els
Ġfulf il
ĠJ a
ivari ate
incre ase
ĠMah m
ol l
Ġar chitecture
ÙĦÙĬ Ùĥ
ĠT emperature
ĠCap ital
it as
ĠTUN KU
Ġcal culation
ĠAmer ica
Ġw ish
ĠW omen
pr edict
Ġl angkah
ĠK omp
Ġbiodies el
ĠM uz
Ø±ÙĬ ÙĤ
ðĿĲ¶ ðĿĲ¶
ç± »
Ġt emperatures
12 2
ro t
ens is
ĠI MP
Ġrun ning
th en
Ġdib ina
ĠP ath
tr ation
Ġd apatan
et ak
ĠÚ¤ÙĨØ¯ ÙĪØ¯ÙĪÙĤ
ĠI L
ĠÙħÙĦ Ø§ÙĦÙĪØ¡ÙĬ
Ġrespond ent
He alth
Ġpers pectives
Con ference
he tic
ĠSaud i
Ġmuz ik
ĠØ¨ ÙĪÙĦÙĨ
ĠT ak
Ġf o
AM E
Ġd eg
ĠB ag
Ġpend apatan
C u
ĠZ ulk
Ġinv ent
ENT S
ĠBi om
Ġhealth care
ĠKed ua
ä¸į åĪ°
ak wah
Ġre ached
ition ers
-- -
ab s
ill us
ĠR adi
Ġal iran
AH AN
ro c
ĠS ER
if ies
ĠK ey
Ġs ections
Ġpen ilaian
ter a
CI AL
Ġac knowledge
8 49
Ġbah aru
yt es
Ġas h
ĠCons umer
MIN AH
ar as
T AKAAN
Ġdiagn osis
M AT
perim ent
Ġbaga imana
men unjukkan
Ġd un
ĠS ulaiman
Ġcor responding
Ġmus im
H AR
acc ount
Ġacc um
ab entuk
Per formance
c ase
ĠJ ika
æŀ Ĺ
Al though
U G
ĠEn d
âĢĶ âĢĶ
ir c
Ġ10 7
ĠB N
!! !!
Ġact s
Ġins p
Ġfacilit ate
develop ed
Ġt ell
ak aran
eed s
Ġberg antung
å¦ Ī
Ġwith draw
der ly
ect ional
Ġapp lying
Ġph ases
Ġsupport ing
ØªØ§ Ø¨
ĠA ff
ud ara
æ ¹
Ġt ube
Ġfac ing
Ġt p
Ġsud ut
ot ed
Ġm l
á¸ ¥
Ġmeng urangkan
k ira
Ġass et
ov asi
d ev
ĠW al
Ġo ption
Ġg overn
åŁ İ
é ¸
Ġmen urut
Ber dasarkan
Ġem ission
10 80
Ġse vere
Ġag encies
Â ²
k ey
Ø³ ÙĪ
ong ly
Ġapp ar
ĠF urther
at uh
iplin ary
ĠAr ticle
Ġconstruct s
Ġringk as
d im
ĠMat hematics
ĠPer pustakaan
Ġint elligence
ĠB re
ĠH el
Ġs ometimes
Ġsek iranya
æ Ĵ
ïĢ «
Ġc yt
ĠØ ¡
if ference
èĳ Ĺ
edd ed
Ġpemb inaan
ĠV iet
Ġinnov ative
T P
Ġant arabangsa
ĠT ool
Ġcommit tee
Ġnorm ally
ĠÚ¬ Øª
ĠØªÙĬ Ú¬
çİ ĭ
Anal ysis
ĠM L
ĠG overnance
Ġsel ain
Ġ1 23
14 4
Ġb atu
t ah
Ġ19 70
ä¸Ģ ä¸ĭ
ĠCent ral
Sh ah
Ġja uh
åĲ ī
ib u
com merce
Ġl i
ĠZain al
Ġmak na
Ø±ÙĬ Ø§
ĠS osial
IND INGS
Ġmaks ud
Ġdi et
ĠBer dasarkan
19 87
Ġpublic ation
ĠB atu
ĠZ akaria
17 0
ĠPL AN
ĠN ext
ä¹ Ĳ
ok ing
ĠR uss
Ġcl ient
Ġauthor ity
å® ³
oc on
Ġst and
ĠMan ufacturing
sec ara
Ġwh ose
ĠB ad
ĠÚ¤ÙĨ Ø¯ÙĬ
Ġfam il
ĠSm art
serv ation
s dt
Ġs ains
re al
ĠT ax
row ave
Ġat aupun
ä¹ ¦
13 9
è® ®
ĠSP SS
éĤ£ ä¸ª
ä¹Ł ä¸į
ĠÙħÙĦØ§ ÙĬÙĪ
aw apan
Ġ1 28
Ġsup erv
ĠØª Ø§ÙĨÙĩ
ogene ous
__ _
d imensional
K nowledge
amb arkan
Ġs aiz
Ġt engah
Ġditer ima
ÙĦØ§ Ùĥ
Ġp ub
Ġindirect ly
N ING
emb ahan
14 5
ĠSUM MARY
ber k
b oth
ĠJ aya
Ġwhere by
ham dul
cer ning
Ġal ign
Ġlink ed
ĠJ akarta
l ines
Ġbro ught
Ġex amples
ak ap
Ġg ir
ĠØ¯ Ø³ÙĬ
19 85
B B
p un
in ated
Ġdem ographic
bah awa
Ø± Ø¯
ĠA y
t owards
Ġak tif
ĠÙĥ Ø§
ĠEnt repreneurship
elih ood
Ġex tr
Ġtrans ition
T an
Ġb attery
E vent
åħ ĥ
ant au
J ECT
ĠD ef
Wh ere
ĠSc ale
ĠOver all
Ġplay er
ig ue
ĠÙħ ÚĨ
pos s
Ġn ur
ath ir
A li
Ġpl ans
min at
Ġrecommend ations
Ġan imal
F akulti
ill a
ht ar
imb angan
Ġre k
èĩªå·± çļĦ
EVEL OP
e ach
ĠG as
it z
ĠÙĥ Ø§Ú¤
ard ing
fol io
eg a
Ġs n
ĠT uan
Ġdi adakan
ĠZn O
Ġmas jid
ĠK ementerian
Ġman ual
t ahun
J ust
c ing
ap ura
ĠUs er
å£ °
ĠK en
ĠØ¨ Ø§ÙĦ
Ġform at
ĠS am
ĠStr ess
j u
Ġp os
ĠÚ¬ ÙĬ
Ġreg ional
Ø± Ø³
Res ults
ðĿĳ Ģ
ĠE p
ud ian
Ġconduct ing
Ġt epat
c n
Ġm ethanol
Ġg ambar
ap plication
b ody
s yn
ub uhkan
ĠØ³Ø¬ Ø§Ø±Ùĩ
Ø§ÙĨÙĬ ØªØ§
ĠT al
Ġmagn etic
ul ing
Ġmeng etahui
K uala
Ø±ÙĬ ÙĥÙĨ
ĠAr chitecture
Ġmot ion
Ġk has
Ġbe coming
ĠMuh amad
ĠÙ¢ÙłÙ ¢
ĠAn y
Ġl ag
uc lear
Ġmemb olehkan
Ġkhus us
ĠM C
Ġjust ice
p us
Ġd ose
alik nya
ĠHe ad
i ers
Ġund ert
f irst
Ġkeb angsaan
ĠSt ar
ĠPe ople
F index
ĠF ederal
ĠPh ot
è «
ĠMe as
b aga
int ang
K eb
Ġtransport ation
ĠUnder standing
at ih
ĠJ an
Ġarg ued
åŀ ĭ
r ain
Ġpen uh
Ġrec ycl
our ney
Ġtechn ological
åį ¡
ess ions
Ġmed ic
è ¼
Ġ10 6
J Q
ĠB esar
ĠØ³ ÙĪ
ĠH ypothesis
Ø§Ø± Úł
character istics
ĠBi ology
ste in
es pecially
N UR
Ø´ ÙĨ
Ġradi o
ant ic
Ġpemb oleh
ustom ers
ØŃ Ø§ØµÙĬÙĦ
Ġdifficult ies
Ġstat istically
Ġwa it
ĠSo il
ĠB angladesh
Ġper ib
s ing
é Ń
Ġmin at
ĠPract ices
Ġinc ub
Ġt apak
ia w
ĠCor poration
Ġaccept able
d ue
Ġrain fall
F news
yah oo
Ġa id
ĠÙĪ Ø§ÙĨÙĬØªØ§
å¿ µ
Nur ul
Ġv itro
AL A
Ø± Ø§ÙĨ
con struct
Ġ10 4
it r
Ġcomb ustion
it amin
0 26
Ġpent adbiran
Ġseb againya
Ar ticles
FIG URE
ĠThe oretical
Ġn gan
ipp ed
ĠØ¨Ø± Øª
ay lor
ĠB U
J uly
Ġparticip ate
Ġco ordin
Ġis su
angk umi
ĠTherm al
ibr aries
ik ro
Ġen zym
e fficacy
S a
ĠCharacter istics
Ġr ating
23 2
éº ¼
al uan
N oor
åŃ© åŃĲ
g uru
B esides
Ġs ugar
ĠStrateg ic
ĠA verage
Ġprote ins
Ġgen etic
aster a
ĠW ong
red it
ĠTrans form
ĠM E
Ġn aik
ĠØ§ ÙĨØ¯
ĠW ITH
iz am
g in
Ġmod elling
ĠP EM
Ġopt ical
Ġj ump
ĠØ§ÙĬ Ùĥ
Ġdep ict
ĠRas ul
ĠK ul
Ġrest aur
ÙĬØ± Ø§ÙĨ
Janu ary
Ġfail ed
ĠØ¯ Ø§Ú¤Øª
Ġso on
Ġcre ative
ĠDa erah
Ġ ikan
z an
serv ices
ĠSim ulation
Ġsome one
N i
Ġdep an
ob ility
Ġt or
ĠC ambridge
Ġt itle
V D
Ġmay be
Ġactiv ated
pek tif
Ġro und
åį ´
Ġg am
ĠL at
ĠØ§ÙĦ Ø·
Ø¹ Ùħ
Ġcryst all
rel ations
çı ¾
ĠÙ Ģ
ĠB orneo
wik i
Ġb ola
j o
æĿ¥ çļĦ
é¦ Ļ
ĠC T
Ġsumm ar
oper asi
Ġmus ic
ä¾ Ľ
Ġmov ing
ĠIn form
respect ively
ost ic
Ġfin ally
Ġcover age
TI F
amp ing
v in
Ġany one
Ġsh ift
Ġestim ate
13 4
Ġc rop
Øª Ø±Ø§
Ġneg atif
er kesanan
L Y
ĠJ usteru
Ġw ireless
year s
è¾ ¾
Ġread y
ater al
Ġk ategori
s chool
ok us
al se
æĪĳ æĺ¯
åį ĥ
i ro
ab etic
Doc uments
ad o
Ġs yarat
ikut i
Ġeth ics
Ġt ab
Ġ 00
ro ke
Ġvol at
13 6
ÙĪØ± Øª
Ġinstitut ional
ç¦ ı
Ġd istingu
Ġlectur er
ĠH id
è° ģ
b ul
æ ¦
Ġmonth ly
Ġw et
N ov
Ġv ul
Ġstat ements
Ġfr action
Ġauthor ities
in asi
Ġrad ical
Ġperm ukaan
ĠTE CHN
Ø¨ ÙĥÙĨ
s in
s atisfaction
c ategory
il ib
ph ase
P G
Ġex act
Ġl if
Ġposs ibility
Stud ent
Ġ ions
ĠQu estions
ïĪł ïĭ
Ġcur riculum
ĠP S
ĠPers on
Ġs iri
ĠS uch
ÙĦ ÙĥÙĨ
ĠP ack
Ġexpect ations
D em
Ġt angan
19 1
ĠW iley
ĠP E
M j
Ġab und
Ġ1 14
ah w
st itu
wik ipedia
å¾ Ģ
ĠO p
Ġmemper oleh
Q ur
æİ Ĵ
Ġp ages
åį Ĺ
Ġcom ments
Ġs ave
Ġfocus ing
Ġspes ies
C B
ĠAd ministrative
Th us
ĠR out
110 8
P em
Ġwid th
ah aya
Ġb ilik
Ġcl osed
Ġdes cription
Ġbe bas
Ġwar na
Ġbl ue
aft ar
Ġdest ination
b in
ol ong
N ow
ĠØ¨ Ø±ÙĪ
N j
ĠØ¬Ø± ÙħØ§ÙĨ
r est
Ġemerg ing
Ġm inggu
Ġdik atakan
Ġcl oud
ĠB angi
L AH
ĠSm ith
S he
AD A
Ġacqu isition
ĠÙĪ Ùħ
une i
H S
Ø³ Ùħ
Ġpes erta
per i
M a
mer upakan
ĠP AS
str ength
eh yd
es ional
ĠC S
ĠT ext
ter i
n ama
ol lar
Ġs ports
IM AS
ç ¿
up aten
Ġst ored
Ġcharacter ization
ĠA G
ade qu
Al lah
atan ya
çº ¢
æ ©
ĠA man
ðĿĳ Ļ
ĠÙħ ÙĬÙĨ
ot ive
S pecial
ig ma
Ġcontribut es
ĠF ROM
Ġ ult
oc atal
ĠÙħ ÚłÙĨ
let in
c ence
Ġp eperiksaan
Ø¯ Ø©
iffer ences
Ġprogram mes
ðĿľ ĩ
ri age
Ġf aster
Ġad ult
ĠW alaupun
UL IT
Ġ1 16
Ù ©Ù
re q
ĠN ow
at ics
ap angan
ĠW u
" "
ĠF A
ĠØ¨ ÙĪØ±
P AN
Ġbook s
et ing
Ġpend apat
ĠProcess ing
Ġexp ensive
ans el
un uh
ĠØ±ÙĪÙħ Ùĩ
Ġmat ters
ĠÙĥÙĦ ÙĪØ§Ø±
r ies
im ation
ĠScient ific
Ġh ukum
Ġal pha
ĠØ³ ÙħÚ¤
Ġclaim ed
Ġindic ator
Des ign
Ġs ulf
Ġgrate ful
Ø¨ Ùĩ
Ġ- -
W ang
ĠK umar
ĠÙĩ Ø°Ø§
ĠK ampus
Ġmorph ology
Ø± ÙĤ
UK AN
eter mine
Ġpromot ion
Ġfamil ies
ĠR ad
ect ive
Ġst arch
å¤ļ å°ĳ
arm a
Ġdiss ert
ĠØ¹ ÙĦÙĬÙĩ
ĠW ind
ĠAfric an
ĠN evertheless
lect ed
ah ag
çī Į
Cop yright
ĠC er
P ert
ĠH asan
ĠS n
ĠØ§Ø¥ ÙĦ
employ ment
Ġdies el
cr imin
Ġar as
Ġval idation
th ree
ĠAl gorithm
L A
ĠS ed
op tion
Ġachiev ing
åĪ ĩ
ĠOn ly
ä½ İ
Ġre triev
aj aya
ĠEd ition
æ¼ Ķ
ĠT reatment
Ġsp atial
ump ul
ĠØ³Ùħ ÙĪØ§
Ġdem ands
æĢ »
O B
ĠP T
on ik
eng er
Ad d
p otential
r isk
ht m
romat ography
ĠC ronbach
Ġkej ayaan
ah u
t ext
s ample
ĠY un
h en
Sec ond
è¿Ļ äºĽ
åº ľ
å ¡
ç² ¾
Ġwat ak
ĠInd onesian
Ġpenyel idik
yl ene
ĠRespond ents
Ġpol ice
eng ue
ĠP ustaka
ĠØ³ÙĬØ³ ØªÙħ
ĠClass ification
w orth
Ġel ev
a er
uk akan
2 30
ĠP articip
c ure
Ø¹ ÙĬ
ĠØ³ØªÙĬ Ø§Ú¤
imp an
R S
ĠÙħÙĨ Ø¯Ø§Ú¤Øª
æħ ¢
Ġpel ajaran
ak uan
Ġt ugas
or an
ĠÚ¤ÙĨØ¯ÙĬ Ø¯ÙĬÙĤÙĨ
st ep
Ġco ast
Ġdik aji
2 20
Ġfulfill ment
ur ers
Ġk ol
d ate
x iv
Ass oci
ong si
åĬ ¡
ĠKep utusan
Ú½ ÙĤ
Ġ1 27
cited by
ĠMad ya
ĠA ge
æľ ª
ness es
: ">
Ġex ec
Ġint ake
ist ed
or ous
Ġdetail ed
ies el
N ATIONAL
Ġrepresent ation
Ġrang ing
ĠN ame
th rop
Ġt ill
Ġs edia
S ignature
or b
pen y
comp lete
Ġkap al
Ġtr ied
Ø§ÙĦ ÙĦ
ĠY oung
Ġn arr
et api
ĠH E
Ġag ency
Ġth reshold
Ġ ÙĬÙĨ
Ġimplement ing
Ġox id
ĠW illi
Ind ustr
Ġker jasama
å· ®
ĠClin ical
ol ak
Ġj ug
Ġ10 8
Ġp ump
åį ³
ce k
çĻ ¼
Ġliter acy
S ome
ĠR ajah
Ġrecogn ized
ĠEar th
ĠØ³Ùħ ÙĪÙĦØ§
Ġher itage
Ġp i
Ġmed icine
éĸ ĭ
Ġinter act
Ġprefer red
ĠAN OVA
Ġpl ak
ĠUr ban
ĠÚ¤Ø±Ø§ Úł
Ġp apers
Ġsitu ations
Ġto k
ĠS oci
adi ah
ad h
Ġdr iving
ĠPr ime
ell ed
O ver
ĠCar bon
P ost
Ġgen es
Z X
ĠAw ang
ĠØ± Ø§Ø¬
aka ian
w ang
Ġset up
ĠR akyat
man y
ĠT ahun
bah asa
Ġa kaun
Ġindic ating
im m
ĠVari ables
on ia
Ġsatisf ied
ethyl ene
and er
Ġon to
Ø±ÙĬ Ø©
arg aan
R A
Ġa queous
ĠR oh
Ġvisc osity
s aya
ĠMult iple
ç§ ĳ
å¸ ĥ
Ġposs ess
Ø§ ØªÙĬ
Ġco efficients
j an
Ġn y
tr ue
W E
Ġ18 0
Ġmemb ina
S ince
r int
Ġfr ag
Ġdr iver
link ing
åı ¦
è® ¸
Ġhad ith
ĠØ¨Ø± ÙĦØ§
ç¡ ®
ĠÚ¤ÙħØ§ ÙĬÙĨ
or ter
Ġpert umbuhan
ch i
ot ox
ĠK am
13 8
Ġol der
ym met
bl og
Ġpoll ut
N I
c ould
ĠØ³Ø¬ ÙĤ
Ġperm ainan
per m
Ġp le
Ġhe ating
ĠM uk
IC T
ĠYus off
countr ies
Ġfat ty
Ġcom ing
Ø® Ø±
l aw
duc ing
Ġs leep
pos ium
ĠSem inar
Port al
F F
c s
Ġm ilk
ilib rium
ert s
Ø¬ ÙĨ
S er
anc ang
Ġrem aja
ĠAs li
æĿ ¡
report ed
ä¹ĭ åīį
ry ing
ĠØ³ÙĨ Ø¯ÙĬØ±ÙĬ
et ry
ä¸ĸ çķĮ
ĠG ender
Ġp agi
M L
anding kan
p aper
ĠK an
ĠT WO
è½ ¬
ĠS UR
Ġh ypotheses
0 19
ĠL emb
ĠF ac
Ġintegr ity
ĠF ield
H am
Ġtour ist
ĠØ± ÙĪ
ĠØ¨Ø± Ø¯
Ġsp ent
ĠM echan
f amily
Ġc ited
ay ang
t api
al isis
ÙħÙĬ Ø©
ĠPr ice
Ġtim ur
elf are
15 5
Ġcaus ing
R T
Ġsens itive
ĠPer b
ĠI dris
ĠEurop e
ç¦ »
ind d
å¾ ·
Ġe gg
ĠØ§ Ø£
Ġcover ed
Ġdr ama
se in
apor kan
Ġkemud ahan
Ġmole cules
comm unity
Ġberb entuk
æ¯ į
Ġidentify ing
ib i
13 3
ert ed
ol i
uk m
Ġrem aining
äº ²
Ġr ujukan
Ġen am
organ ic
ĠTr ade
åħ ±
Ġmem ulakan
ĠP ati
Ġa plikasi
Ġst yles
vari ables
Ġkek uatan
f eed
et te
ĠS S
Abdul lah
og ical
ĠV ir
Ġpen ulis
ĠCour t
Ġ16 75
ĠOpt imization
ĠHal im
ud ge
ce h
M arket
ĠDec ision
Ġdissert ation
em ed
uar ter
ud ayaan
ä¸Ģ èµ·
ab ungan
Ind onesia
ebih i
ĠEF F
è¿ ŀ
vari ous
Ġtert inggi
anj i
d h
ĠPol y
a ight
fa at
ĠØ ¶
éĻ ¢
b itan
ĠØ ¢
æŁ ¥
Ġdisc overed
T echn
ÙĪÙĨ ØªÙĪ
ĠS ignificant
Ġinj ury
ĠØ§Ø¥ ÙĦØ³Ø§ÙĦÙħ
US D
B ACHELOR
Ġj awatan
Ġcult ures
Ġum ur
ĠConcept ual
Ġlay ers
U E
IM A
Ġhy per
Ġquant ity
re w
ĠZ akat
ay ing
Ġpel anggan
e fficiency
Ġc ukup
Ġum at
ØªÙĬ ÙĥÙĨ
Ġremov ed
Ġn anti
Ġcap t
Z n
Ġun less
B ank
Ġ1 21
it osan
ĠØŃ Ùħ
ĠFound ation
ĠSimilar ly
Ġl osses
Ġal ter
Ġproper ly
ES IS
ĠØ§ÙĦÙĤ Ø±
g ae
Ġassess ed
ÙĪØ± Ø¯
omp ok
Ġw arisan
pl ate
10 88
Ġprov ision
M AR
Ġst em
ĠA Z
ogen ous
W C
ĠS ul
is yen
ĠÙĥ ÙĦØ§
ĠØ¬ Ø§ÙĦÙĨ
x ii
re me
o C
e ISSN
Ġanal yse
Ġbenef icial
ind uced
ĠG re
æŃ ¥
ç¥ ¨
åº ķ
Sar jana
Ġel imin
ger akan
Ġdetermin ants
13 2
æİ ¨
Ġ19 82
As ia
M ost
Ġsub s
act ory
ĠĠĠĠĠĠĠĠĠĠĠĠĠĠĠĠ ĠĠ
Ġutil ization
æį ®
er ion
Ġac et
åĮ Ĺ
ic ated
ifest yle
Ø§Ø ·
O ther
Ġb ot
Ġwe ather
ĠRes pons
Ġh on
åģ ĩ
W eb
ak en
ĠØ§ÙĪÙĨ ÙĬ
d agangan
ĠD unia
ent i
ÙĪ Ûı
U p
ĠÚ¤ ÙĦ
ĠÙħÙĪ Ø³ÙĬÙħ
ĠE c
Ġpem impin
Ġbi od
ĠS aya
- .
Y ang
s il
R os
Ġre put
Ġem osi
ĠImp lementation
Ġre ka
pro blem
ÙĪÙĦ ÙĪÚ¬ÙĬ
L IC
vious ly
In f
................................................................ ................
her n
C iting
Ġanim als
ellig ent
ov al
ç¶ ĵ
EN E
Ġtyp ical
Ġext rem
ĠØ§Ø³ ÙĦØ§Ùħ
ĠF ree
Ġmah upun
ĠProf ile
åĢ ¼
Ġf un
ĠÚ¤ Ø§ÙĦÙĬÚł
organ izational
Ġcontinu ed
A V
è »
ĠS ustainability
ĠP acific
ĠProced ia
Ġe ff
UR L
Ġp okok
ĠS and
ĠC ong
ä¸Ģ çĽ´
ĠCont emporary
u ation
eng ku
H Y
Ġdec ided
17 4
ĠC ountr
ish ing
Ġs uka
Ġabs ence
Ġev olution
åľ° æĸ¹
ac he
ãĢĢ ãĢĢ
Ġmest i
ĠB ACK
j ak
Ġd arah
Ġsubject ed
å± ĭ
Ġse cre
ĠWork ing
Ġjob s
Ġsignal s
Sek olah
K et
Ġmac ro
Ġspec imen
y ou
Ġcamp aign
ĠM un
Ġturn over
Ġse a
ĠW aste
åıª æľī
ĠNew s
ĠCh art
aw ang
in st
åĪĨ äº«
plac ed
Ġexp ansion
ĠĠĠĠĠĠĠĠĠĠĠĠĠĠĠĠĠĠĠĠĠĠĠĠĠĠĠĠĠĠĠĠ ĠĠĠĠĠĠĠĠĠĠĠĠĠĠĠĠĠĠĠĠĠĠĠĠ
Ġnanof luid
7 00
ĠÚ¤Ø± Øª
E mail
Ġnumer ical
Ġ: -
ĠC I
ĠV iew
ĠTr ust
Ġs izes
Ġre actions
ĠO cc
ç Ĩ
Ġgr ade
ĠST AT
Ġpar allel
Ġdo ub
p o
å© ļ
al d
a uth
Ġd ur
Ûı Ø±Ø³ÙĬ
â İ
tern ative
ĠProp het
s ource
re present
Ġproport ion
Ø´ Ø±
ĠA K
u els
å± ķ
ĠP P
Ġorganis ational
iq h
ansel or
Ġprop ag
è± ¡
ĠÚ¤ÙĪÚ¤ ÙĪÙĦ
ðĿĲ ¼
Ġinterpret ation
le e
Ġche ap
14 7
Ġ1 22
ĠS K
ĠJ amal
Ġl ign
n ih
Ġbacter ial
Ġdis ediakan
> >
s atu
ĠVis ual
Ġf ill
Ġhand ling
ĠF uzzy
ĠS AW
Ġk il
Ġreg ulation
method s
Ġg amb
ĠCh allenges
ç» Ł
op ed
åĨ ³
Ġf ig
Ġcab aran
in ations
ĠRam li
Ġpr insip
Ġrob ot
Ġpart i
istr ict
ĠP opulation
ĠÙĥ Ø±ÙĬ
ĠSpr inger
ej ah
ĠKet ua
ĠStr ength
am y
em uan
Ġk aki
d iff
Ġpeng g
ick en
Ġtr ends
~~ ~~
æİ ī
Ù¡Ù ©Ù
K ar
Ġresid ents
Ġv ocabulary
ĠC OD
APPEND ICES
ĠØ§ÙĦØ¨ ÙĪÙħ
Mel ayu
ĠU KM
a el
Ġpop ulasi
am med
s uggest
t im
ingg alkan
ĠS UB
cond ition
Ø§Ùħ ÙĨ
Ġuncertain ty
ĠK ec
ran es
ĠØ¥ ÙĬØ±Ø§ÙĨ
al ikan
Ø¹ ÙĦ
ĠPublic ations
Ġm ere
Ġenvironment s
Ġl ol
ĠØªÙĬÚłÚ¬ ÙĬ
An other
S K
ĠR oad
Ġb t
å¼ Ł
ĠTer hadap
Ġext end
Ġo verview
Ġ1 24
çº ¿
Ùħ Ø©
Ġinhib ition
ĠĠĠĠĠĠĠĠĠĠĠĠĠĠĠĠ Ġ
åħ į
ØªØ§ Ùĩ
Ġsepar ate
sy en
b ud
ä» ¤
Ġmem as
å½ ¢
aj ari
Ġk rit
M ac
and i
Ġh oney
uas aan
ðĿĳł ðĿĳł
åĻ ¨
ĠTurk ey
ker ana
ĠØ³ÙĪÚł Ø§ÙĬ
Ġvehic les
GRO UND
all ed
ĠI M
Ġin jection
æ» ¡
hib ition
conduct ed
Ġsinc ere
å¯ ¼
Ġsimp ly
Ġf reedom
Citing Articles
ØªÙĪ Ø³
Ġre venue
Ġrob ust
Ġint ended
Ġhad apan
Ġras mi
ĠïĢ ½
es or
Ġpen et
Ġtr ip
ĠFor est
ĠPhil ipp
ch ase
ĠS yah
13 7
ag ar
ĠPer dana
Ġl uas
em ui
çĻ ¾
ual i
ä» ĭ
Ġsub stantial
ðĿĽ ¼
Ġmod en
pati ents
Ġr pm
Ġpre par
- (
AN I
Ġactiv ation
ĠÙĩ Ø°Ùĩ
EM BER
em u
Ġant enna
ĠSt ock
hamdul illah
ĠPer ceived
r r
Ġexp end
Ġdescrib es
Ġinstr uments
angg il
ĠH afiz
Conf ig
ex perience
æĿ ¿
ĠMETHOD S
Ġ ubah
Ġag ed
Ġt urun
ĠUS ING
; &#
çļĦ æĹ¶åĢĻ
medi ately
ĠÚ¤ÙĨ Øª
ĠR ah
Ġdec ades
ĠR aya
ed ahan
M OH
ia itu
ÙĪÚ¤ Ø§ØªÙĬÙĨ
åħ¶ ä»ĸ
Ġb ought
ĠInter nal
Ġcomplex ity
ĠØ¯ÙĬ Ø±ÙĬ
ĠM AS
Ġs ong
O leh
st ock
Ġsk or
20 2
ĠY es
åį °
m ade
Ġ ^
ahw inan
Ġpand uan
cept ance
Ġe f
Ġorganis ations
ester day
g ent
Ġ1 29
Ġpur ata
Con clusion
t ake
i os
il ation
ĠÙĥ Ø¬
Ġdik eluarkan
Ġre placement
ĠC ritical
ĠRes ponse
it ting
Ġexpert ise
æ¥¼ ä¸»
Ġg al
g ar
Ġw avel
ĠØª ÙĤ
d ependent
Ġsu ff
Ø§ Ø§
ast ro
ĠBehavi oral
if ikasi
uj uh
m aterial
rop ah
with out
åĩ Ĩ
âĪ ĳ
f actor
æķ Ī
Ġberas al
op l
el it
Ġw ants
ĠEng ine
cure ment
Ġ1 12
ĠH IV
è® ¾
ent ed
m ac
in ternational
un ivers
ĠAg ama
Pub lisher
Ġperform ing
ĠM ag
åħ ´
Ġm ang
S umber
us er
Ġc epat
Ġm a
Ġiniti atives
om es
è§ Ĩ
ÙĩØ§Ø¯ Ú¤
k rit
Ġhist orical
Ġcl ients
Ġmat lamat
Ġcam era
asis wa
ĠÙĥÚĨ ÙĬÙĦ
Ġet nik
Ġgr aduates
Ar ab
åĬ ŀ
urrent ly
Ġ2 289
ĠPen insular
ÙĪØ± ÙĥÙĨ
R ob
Ġd ark
ĠAn g
Ġin struction
Ġp lease
Ġkep t
un ung
sequ ent
ĠTechn ical
iv a
Ġ ï¿½ï¿½ï¿½ï¿½
Ġris iko
ĠH u
æľī äºº
ĠF aiz
Ġditer bitkan
Ø§Ø³ÙĬ Ùĩ
bar u
åĨ Ļ
em ukakan
ĠAm ir
es aian
Ø³ Ø³
ĠCre ative
sol ute
ÙĲ Ùĳ
t ions
ĠM olecular
ĠGerman y
ÙĪ Øµ
ĠTh ai
p an
ati os
advant ages
Fin ally
sh are
Ġenh ancing
b ahan
ĠPub lisher
Ġreview s
Ġf ather
til ah
role um
Ġr ig
k ah
15 3
Ġconstrain ts
uas ai
ĠÙĥØ§Ø¨ ÙĪÚ¤Ø§ØªÙĬÙĨ
Ġb onus
ĠD on
Ġind uced
åĿ ¡
¡ Ùł
ĠProgram me
or ge
ĠÙ¡Ù©Ù §
K em
ĠS L
ØªØ§ ÙĥÙĨ
U I
Ġf ear
ĠK umpulan
15 7
Ġchalleng ing
Ġis tilah
ĠCh ildren
EP R
Ġassum ed
ur ning
ĠKer ja
ens us
ZX JQ
enrich Source
Rev iew
YW dl
ä¸į çŁ¥éģĵ
enrich Id
ZXJQ YWdl
ZXJQYWdl Oz
rg req
æĶ¿ åºľ
el ess
Ġcomp uting
har u
Ġspec imens
ĠNas ir
cos ystem
Ġloc ations
Ġrepe ated
Ġmet a
Ġconsequ ences
ĠAnt arabangsa
V M
Ġked ai
Pend idikan
ĠR o
ĠF INDINGS
15 6
Pro cess
ĠØ£ Ùħ
ra q
Ġrecord s
Ġd ried
Ġsup erior
Ġex ceed
è´ §
ĠVari able
ĠÙĥ Ø§ÙĦÙĬ
ĠG al
r ared
h let
ĠKej uruteraan
è¯ Ń
é Į
ex clude
Ġprov ed
et uju
akt if
Ġlim itation
Ġb urn
ĠE L
Ġf elt
Ġder iv
Ġem as
ew a
ĠL oad
t itle
ay ai
ĠN orm
Ġben ar
Ch en
ĠM ans
22 2
Ġtrans action
Ġdom inant
ĠD egree
Ø±Ø§ Ø³ÙĬ
comp any
ĠPol ymer
ĠEn h
SI M
L im
Ġs ustain
ist iwa
V IS
p ublished
t inggi
F K
Ġd ental
Ġangg ota
ĠR h
ed s
ERIAL S
m us
Ġmer angkumi
Ġs pl
ðĿĳ ¦
am ber
â ī
Ġevery thing
t BU
Â·Â·Â·Â· Â·Â·Â·Â·
ĠTER HAD
am kan
es ity
ĠÙħØŃ ÙħØ¯
Ġdit etapkan
çľĭ çľĭ
int ahan
ind ahan
Ġhere by
ent era
s itu
è ¬
in come
Ġsl ope
14 3
ĠQuestion naire
ĠPeng enalan
æĸ ¼
N ext
D NA
Â º
Ġf re
ĠJ ord
Ġcirc um
Ġconstruct ed
Ġ ub
ĠT en
B as
ðĿĲµ ðĿĲµ
Ġm eth
Ġped ag
ro ad
A AN
ip ping
ĠH ouse
Ġh oriz
Ġsep enuh
Ġpre gn
eng ok
ĠAg riculture
ĠØ§ÙħÙĦ Ø¹
l oy
ĠSol id
group s
ÙĦØ¨ Ø§Ú¬Ø§ÙĬ
Gener al
è´ µ
f il
ol in
Ġï £
st ac
Ġinc ident
Ġdistr ict
consider ed
Ġsett ings
Ġed ge
Ġex am
S l
Ġn ombor
Ġgu ys
ĠÙĦØ§ Ú¤ÚłÙĨ
Ġ19 81
ID S
ðĿĲº ðĿĲº
Ġp ensyarah
Ġex ists
ah ar
prot ected
é¤ Ĳ
16 5
å² ģ
op en
Ġsol d
åĬ ©
Ġl aman
i ology
K ata
Ġal cohol
Ġk ulit
ĠØ§ÙĪ Ùĥ
Ex clude
Ġmun cul
ä» ½
Ġsub jek
ag al
igen ous
or r
Ġelectric ity
14 9
oh yd
è ĸ
Full Rec
At t
Ġobserv ations
Ġany thing
60 3
Ġ1 26
M o
C al
imp act
ĠPR ODUC
Ġm ati
Ġgu arant
ðĿĲ´ ðĿĲ´
Ġwe alth
ĠÙħÙħØ¨ ÙĪØ§Øª
çĭ Ĺ
æĤ ¨
24 0
il ic
imp lementation
éĿŀ å¸¸
ĠØ³ÙĬ Ø±ÙĬ
ĠÙĥ ÙĬÙĨÙĬ
Ġmeng el
åĳ ¨
Ġvert ical
t otal
ĠY u
ï¼ļ âĢľ
Ġsurround ing
ĠEng land
Ġscen ario
Ġh ij
AS T
19 81
it men
r ad
Ġprep are
bi ology
AR D
è¯ ģ
ĠÚ¬ ÙĦ
Øº Ø©
Ġad at
å¼ ķ
G I
h aps
Ġcor rosion
m ight
Ø¯ ÙĪØ§
Ġsh ares
ĠMak lumat
ĠJ al
çķ ¶
ar row
ur ies
Ġdis ebut
ĠAs h
act ers
ump uan
ĠØªØ± Ùĥ
exclude Event
ĠFebru ari
Ġint ellectual
If From
Exclude IfFrom
excludeEvent Config
ay ati
Ġgr an
ok s
Ġillustr ated
ïĬ »
Ø¬ ÙĬÙĨ
ĠKab upaten
author Id
ĠMas yarakat
Ġspect ra
ĠR aj
Ġdivers e
Ġear n
ant ina
ĠStrateg ies
Ġass embly
Ġfam ili
system s
Ġe ye
Ġag enda
Ġmeny er
Ġenh ancement
ĠM is
16 8
Ù¢ ÙłÙłÙ
m enc
auth id
f und
15 9
i us
ĠC C
Ġgl ob
ĠDetermin ation
ĠØ¹ ÙĦÙĬ
Ġfav our
ent y
Ġgener asi
ĠD ALAM
Ø§Ø± ÙĨ
Ġbehavi oral
Ġadop t
re le
Ġbl og
Ġkomp onen
MIS SION
Ġis i
Ġd ont
al nya
ĠU m
Ġequ ivalent
åĵª éĩĮ
Ġf ight
ah l
D iploma
éħ į
ben ef
m aterials
ĠMod ern
Y A
p articular
with in
IM P
Ġreg istered
Ġpun ya
Ġcol i
ä¸į éĶĻ
Ġopt ions
ig m
Ġdiff usion
Ø³ ÙĦ
ĠSY MB
ĠAn ak
afs ir
ĠM ov
mon th
ĠAut om
tr y
Ġsuggest ions
R NA
Ġtrans lation
ĠT ypes
c ross
9 78
ul ih
Ġresid ual
f ill
ĠD im
ĠRash id
ek t
ĠAdd itionally
ĠViet nam
P OS
Ġg ained
14 2
Ġfood s
å¾ ħ
akit angan
çº ¦
æ¨ £
00 6
Ġper me
Ġrapid ly
éĤ£ éĩĮ
Ġorgan ized
fer red
ĠMach ine
UTH OR
ĠT itle
ĠÙĥÙĪ ØªØ§
en z
ok a
c ut
int aan
S un
' '
ion ed
ĠÙ ł
èŃ ¦
Ġmor ning
sub ject
eal and
neg ative
M ETHOD
ĠÙ¢ÙłÙłÙ ¡
00 7
for cement
èĢĮ å·²
19 80
ĠïĢ Ń
ĠØ¯ Ø±Ø§
u ai
Ġfriend ly
19 84
EVELOP MENT
A f
0 17
mas alah
IR AN
Ġmort ality
ÙĩØ§ Ú¬ÙĬÙĨ
C urrency
Ġgr ad
uarter ly
ant y
Ġmel ebihi
è´ ¨
invest ig
Ġpeng eluaran
Ġflex ibility
ĠTrans port
Ġkomp uter
ĠF aktor
Ġ 000
ĠÙĥ Ùĩ
. %
ĠR ich
ĠPers onal
Ø± Ùħ
ĠW il
anal isis
Ġdiffic ulty
Ġopin ions
ĠØ¬ÙĨ ÙĬØ³
âĢ¦ ..
dig unakan
ĠAb idin
Ġk itab
ðĿĳĳ ðĿĳĳ
bre ak
ph alt
s ection
20 3
Ġp al
ip al
res ources
adem ia
Ġflex ible
éĢ ģ
H uman
Ġbar ang
ĠBr unei
I H
Ġcomplet ely
Ġk ayu
ĠH R
ĠÙħ Ø§Øª
è¡ £
èĦ ĳ
ĠO BJ
air man
Ġb odies
cond itions
ig i
ç» Ń
å¦Ĥ ä½ķ
Ġpromot ing
ĠPres ident
in et
iz an
Ġb an
è§ Ĥ
ĠSing apura
ais al
Ġsen ior
ĠDes cription
Ġpe j
Ø¨Úł Ø³Ø§
Ġcharacter ized
Ġfl oor
Ġs odium
Ġdatas et
Ġa uthent
Ġdef ine
Ġshe et
AK AN
Ġexplan ation
af ik
ĠCh an
åħ ĭ
å¹ ²
Ġplay ing
åĳ µ
ä¸ ĵ
Ġsex ual
Ġaggreg ate
Ġad oles
Ġl iver
Ġpict ure
K a
Ġke upayaan
ðĿĳĵ ðĿĳĵ
å¤ ľ
Ġmix ing
ST UD
Ġad apted
l ay
ĠØ§ Øª
Ġsym bol
inf luence
Ġt eg
Ġdec omp
Ġappear s
Ġterut ama
Ġobject s
Mal ay
utr ajaya
ĠB ak
c d
Ġlook s
ad r
el ajari
éħ Ĵ
reat if
ĠØ° ÙĦÙĥ
ĠA DM
Ġdo ct
Ġl abor
Ġl okasi
g s
Ú¤ Ø§
ĠE ropah
0 12
Ġj ourney
ref eid
ref stat
ðĿľ ķ
ĠIs a
sh own
ÂłÂł ÂłÂł
ĠAh med
is hes
ib ly
ĠØ§ÙĦÙĬ Øª
D IS
con tribut
Ġoper asi
G T
Ġberter usan
Ġsim pl
ag ues
Ġres earches
sel ing
ĠØ¬ Ùħ
Ġkemudian nya
Ġpers ons
TION S
ins i
ĠI z
ĠE s
ĠØªØ± ÙĩØ§Ø¯Ú¤
ĠAustral ian
orn ia
ĠØ¯ ÙĬÙĨ
show ed
ĠPublic ation
Ġjug ak
ĠÚ¤ Ø§Ø±Ø§
oun ced
ä¸ª äºº
ĠÚ¤ÙĪØ³ Øª
Ġexpl ains
ĠABD UL
Ġcomp arative
15 2
ĠG er
l at
Ġd os
è¶ £
Ġtrans actions
Ġc a
Ġman ip
ÙĪÚ¬ Ø±Ùĩ
Ġb umi
F ar
Ġkep ercayaan
ĠØ± Ø§Ùħ
å® ľ
æĪĳ ä¹Ł
æĪ ĺ
Ġch annels
Ġh ip
Ġcomp lain
æľī ä¸Ģ
Ġclos ely
ĠE NG
ĠPers ekutuan
Ġas ing
ent uan
14 8
Ġhad is
amb ang
Ġfr uits
tir af
Ġmem ainkan
adi um
Ġun able
ĠMus a
ĠÙħÙĨ ØªØ±ÙĬ
T D
roscop e
ÙĬ Ø·
adb ir
Ġbi as
Ġmin or
d y
Ġform ulation
Ġpre vention
as ian
f at
pemb elajaran
è¯ Ĩ
Ġpers epsi
ĠB etween
act ic
Ġmenj awab
ĠM os
im inal
og a
E s
Ġakhir nya
3 50
sik ologi
k eh
ĠHe at
0 10
Ġres ist
ĠØ¨ ÙĪÙĦØ§
U V
ON D
akaf ul
è· ĳ
i ak
ĠÙĥ Ø§Ø¯
Ġdik enal
Ġcontrol ling
Sel angor
un k
Ġ .....
ĠØ¯ Ùħ
ÙĦ Øª
ÙĪØ³ ÙĨ
Ġe at
Ġdid n
behavi our
ex tract
Ġs ungai
Ġemp ower
Ġre cept
ung al
AN C
Ġsens ors
Ġs amb
Ġket ingg
åĲ ¦
n m
ĠÙ¡Ù ¥
ØŃØ§ØµÙĬÙĦ ÙĥÙĨ
clud es
ĠD am
Ġwa iting
ÙĦÙĪØ± ÙĪÙĩÙĨ
engg ara
Ġt ropical
n as
Ġcop per
ograph ical
are a
Ġalb um
ahan an
ĠS imp
gl obal
Ġeng age
us ses
ĠØ± Ø§Ø³
Ġcontribut ions
G C
Ġinter val
b est
Ġun iform
Ġin cent
Ø ¼
Ġf asa
Ġmeny okong
Ġenc ounter
Ġspe aking
Ġmat hematical
fri end
ĠâĢ ŀ
associ ated
15 4
Ġproduc es
ä¹ ł
p opulation
M ax
ïī Ĥ
Ġhapp y
Ġcont ained
en ol
ĠB eg
ash ington
Ġmar ine
ĠÚ¤Ø± ØªÙĬ
Ġprofit ability
c ents
ĠAl pha
ace ae
ĠEth ics
Ġmeng ajar
Ġp y
ĠA ceh
Ġkep impinan
22 6
Ġsol at
Cross Ref
R L
äºĨ ä¸Ģ
Ġspec ified
udah kan
Ġoccurr ence
Ġdist urb
Ġbe kas
n lm
ĠK ap
0 30
Ġbar riers
acter ia
ĠIm m
ĠL ight
out ube
ĠÙ¡Ù ¢
Ġhappen ed
um ul
Ġne utral
utr itional
uls ion
Ġs an
Ġbo ost
Ġdry ing
ĠØ¨ Ùĩ
ogen esis
ĠL aboratory
ĠP A
Ġp ant
ĠØª ÚłÙĩ
è° ĥ
ĠM ED
Ġter akhir
us cript
Ġcr ime
ĠPers pective
Ġres olution
ĠÙĨØ§Ùħ ÙĪÙĨ
Ġdin yatakan
ĠWith out
ac char
ĠY e
ĠØ§ÙĦ Ø«
Ġberm ain
ĠÙģ ÙĪØ±
ĠCh i
B agi
rom os
ĠØª Ø§
Ġem issions
Ġbel ong
ĠP ot
Ġdib enarkan
ĠDes pite
s alam
Ġsik it
ĠDirect or
pro xy
ĠÙĥØ³ ÙĦÙĪØ±ÙĪÙĩÙĨ
m ember
Ġox idation
ç¤ ¾
ik tiraf
nc bi
Ġmeny umbang
Ġassign ment
Ġret ention
Ø±Ø§ Øª
ead y
Â »
tr ak
Ġcl ay
c ast
Ġsebenar nya
Ġadvert ising
h ingga
ä»· éĴ±
ĠTe ori
Ġmax im
In stitute
Ġv ibration
Ġr angka
pro blems
ðĿĳŁ ðĿĳŁ
Ġdoes n
Ġp ig
Ġsim ultane
Ġposit ions
ĠÙĪØ§ÙĦØ§ÙĪ Ú¤ÙĪÙĨ
Ġw oman
Ġs bb
ic ians
chang es
ĠØ¬ Ø§ÙĨ
0 18
su fficient
ĠW ood
ka it
ĠÙĪ Ø¬
d ij
Ġcomp aring
åĩº æĿ¥
Ġmod ification
Ġpar ad
åħ Ń
as id
Ġdep ression
Ġpe ace
app ed
Ġpeg awai
p i
Ġp ilot
f ar
Ġpeng hasilan
am ik
k urang
im ination
FER ENCE
Ġing red
Ġk unci
Ġbeg in
ä¸º ä»Ģä¹Ī
Ġart ificial
Ġoil s
Ġre cr
Ġatt end
n ecess
Ø¯ÙĬ Ø³ÙĬ
ĠEk onomi
ĠÙ¡Ù©Ù ¦
cre ative
Ġpelanc ongan
Ġ udara
Ġag riculture
Ġlet ter
Ġber pend
ocon ut
Ġmus cle
Ġantib i
ĠA st
Ġph il
Ġprior ity
Ġanal ytical
Ġim ej
Ġrep air
M ult
Ġj awapan
Ġreview ed
Ġt ar
ĠN ations
Ġc yl
V is
tr aining
ĠSp e
Ġt ip
Ġcon cerning
20 5
åĵ ¥
Ġserv er
Ġb ual
um ip
process ing
é» ŀ
9 67
Cont rol
B ack
Øª Øµ
GR AM
IM G
Ġn it
ad y
Ø¯ Ø¨ÙĬ
ĠPeng gunaan
os ion
O ur
æĪ ı
li yyah
Ø§Ø «
b ukan
ĠM ut
Ġmult ip
UL AN
ĠTe achers
00 9
ach ment
Ġre b
related Documents
ĠKes ihatan
Ġfeel ing
ism a
Ġmeny ertai
per iod
ĠProduct s
23 1
Ġbert indak
ĠâĢ Ķ
ĠQual itative
ok tor
ĠMult imedia
Ġres in
ĠInt elligence
ÙĪÚł ÙĥÙĬÙĨ
Ġhand le
ĠSt ep
UL TI
ut or
d b
Ġsh r
k ali
im aan
Ġsed erhana
Ġevent ually
ĠSYMB OLS
Pro ject
Ùĳ Ùİ
Ø¥ ÙĨ
Ġdiscuss ions
ujud an
id ers
Ġber ubah
Ġmod ulus
ÚłÙĥ Øª
æ· ±
Ġ16 0
v ance
ĠI l
Ġh yp
ĠD aud
ĠØªØ± ÙĥÙĨ
Ġrele ased
æ²Ĵ æľī
Ġpers oalan
ĠT owards
Ġprof iles
ment al
red irect
ĠB R
ĠÙĩ ÙĪ
Ġch ronic
Ġtext s
bu ilding
ah ah
b angan
le g
id elines
More over
ĠÙĪØ§ ÙħÙĦ
ilit ary
wid th
el baga
ØŃ Ø©
Ġpert anian
if ornia
com mit
Ġenter prises
T i
Ġall oy
Th en
Ġpract itioners
al atan
ĠMat hematical
Ġpemb entukan
ÙĪØ§Ø± ÙĥÙĨ
Ġad hes
ĠPer fect
Ġel derly
Ġsed iment
ha o
Ġc ampus
ĠM ich
Ġcol d
// //
ĠOr der
lamm atory
ĠB rown
s ia
å· ŀ
ĠD apatan
employ ees
ĠB il
ĠH uang
ÙĪØ±ÙĬ Ø§
P ayment
elah irkan
ĠNe ural
az a
Ġl es
ĠØ³ ÙħÙĨ
acc ur
é ±
ther n
Un der
ors hip
Ġdi oxide
ger ak
å¥ ĩ
ape ut
Ġm ol
ĠS W
ĠD in
Ġ13 5
ĠHam zah
IG INAL
Th at
Ġkes edaran
ĠBACK GROUND
Ġsp ot
19 0
________________________________ ________________________________
ac ara
UH AM
ĠSh af
Ġwrit e
ro b
Ġestablish ment
Y P
i ological
Ġexpl o
ðĿĳĹ ðĿĳĹ
ĠRasul ullah
Ġprocess ed
Ġdi w
Ġbe aut
Ġk imia
Ġdi re
Ú¬ ÙĪØ³
mark ah
éĤ£ äºĽ
ĠI lm
åķ ı
y u
om al
çĥ Ń
Ġs ays
ĠP enc
Ġpl asma
ĠPro ses
w ani
x iii
Ġr ational
Ġme ant
ch ildren
Ġbir th
usah awanan
ĠØ¨ÙĨ ØªÙĪÙĤ
R am
Ġpl us
Ġd ynamics
ĠØ¨ ÙĬÙĦ
ĠStat us
ĠMen engah
Ġfib ers
çº §
it em
Ø±ÙĬ ÙĦ
AT ED
L D
S en
Ġbehavi ors
C a
ĠØ³ Ú¤
Ġs on
Ġadd ing
ĠP oint
ĠH ab
F ore
M et
ĠØ¯ ÚĨ
ĠL ib
ÂłĠÂłÂłĠÂłÂłĠÂłÂłĠÂł ÂłĠÂłÂłĠÂłÂłĠÂłÂłĠÂł
il er
ĠC amp
Ġaddress ed
15 8
Ġpar ent
M u
Ġconsist ency
it us
engk ap
Ġent ry
ĠReg ional
ĠPemb elajaran
Ġhum ans
Ġnot hing
Ġm ist
S Y
Ġunderst ood
ÙĦÙĨ ÚĨ
ĠÚ¤ ÙĦØ¨Ø§Ú¬Ø§ÙĬ
Ø° ÙĦÙĥ
n ight
Ġrequ est
Ġhar vest
yst all
S k
èĤ ¡
ĠKl ang
B O
Ġc ant
sm all
uch ing
Ġmin it
ĠØ³ Ú¤ÙĨ
ç¾İ åĽ½
åı Ĥ
Ġelectro de
ĠB est
al is
ĠF er
anc ell
man ent
Ù Ľ
ail ing
In vest
op port
Ġterb esar
c ulture
Ġphot o
ĠAct ivity
Un ited
ungk inan
og l
eb ihan
15 1
IL D
19 83
Ġfour th
imp lement
ĠÚ¤Ø± ÙĨÙĩ
ï¿½ï¿½ï¿½ï¿½ï¿½ï¿½ï¿½ï¿½ ï¿½ï¿½ï¿½ï¿½ï¿½ï¿½ï¿½ï¿½
ob tained
ĠÙĥ Ø§Øª
ĠElectron ics
ib ah
çĽ´ æİ¥
Ø±ÙĪ Ø³ÙĬ
ĠØ¯ Ø§Ø±
ĠAw am
B T
p ool
ÙĤ Ø¯
Ġlab el
Ġv ac
ĠS ejarah
Ġh aiwan
ub b
ĠE M
g as
ĠR us
Ġt ambahan
ĠJ o
ĠïĢ ¨
Ġassign ed
ĠIm port
id al
ĠJ am
g ence
Ġprogram ming
D a
G roup
ĠB L
Ġoper ate
ĠF it
ak na
ĠØ§ Øµ
Per k
ĠPro jek
ast ers
Ø³ÙĬ Ø¯ÙĨ
if li
C s
ual itatif
Ġsem angat
Ġp ick
other apy
m is
ĠTer bang
æ¡ Ī
Ġper ubatan
Ġaccount s
Ġshare holders
ĠAr ch
Ġsitu asi
mut akhir
ip line
ãĢ ĳ
ĠC anselor
Ġnan o
Ġmew ujudkan
16 4
ÛıÙĬÙĨ Ø³ÙĬ
Ġt on
Ġstr aight
ĠC omb
Ġsurf aces
ä½¿ çĶ¨
R ahman
apt op
e ff
lin ed
Ġres idential
ĠLeg al
Ġt ep
Ġbi os
æĻ ®
B ahasa
J abatan
k omp
Ġis teri
16 6
ĠC ancer
prov ide
ĠS everal
Ġs iap
Ġopen ing
ĠRECOMMEND ATION
adequ ate
Ġy a
ion e
Ġinf lation
d rome
it ely
ÙĪ Ø¹
angk ap
ĠCh ar
ĠMed ium
ĠÙħÙĪ Ø²ÙĬÙĥ
ĠSh op
Ġview ed
ÙĪÚł ÙĬ
Ġsil ica
ol f
ĠÚ¤ ÙĪØª
Ġro ute
ãĢ Ĳ
ÙĬÙĩ ÙĤ
Ġreserv ed
c ern
Ġstr ains
s al
Ġl aporan
0 13
itud inal
ĠBr azil
K S
Ġcreat ivity
ed er
ĠV ision
EM A
F H
Ġreduc es
æ² »
ash i
ĠHar un
Ġv ot
Ġsem ester
Ġle m
Ġme at
ĠØ¨Ø±Ùħ ÙĪÙĦØ§
ĠCharacter ization
ĠF C
fin ance
Ġcandid ate
Ġext ensive
hl ak
ahag ikan
D O
O ut
ab olic
ĠP ent
åĪ° äºĨ
ĠS ir
ag ama
ĠS uk
Ġspirit ual
Ġfer mentation
ĠP ay
Ø§Ø± Ø©
Ġattempt s
ĠSel ection
ip e
m o
abil itation
ia c
Ġnew sp
ĠS R
ĠD OI
AR AN
BL EM
ĠE h
per c
ĠÙħ ÙħÙĨ
Ø³ ÙĦÙħ
ÙĪØ§ Úł
è¡ Ģ
om i
Ġul ama
Ġdesign ing
åĳ ³
Ġdalam an
Ġt umbuhan
Ġdi pl
qu al
Ġper ang
Ġsh if
è¿ ľ
14 1
Im p
ĠF inal
Ġemphas is
Ġpp m
ĠØ§Ø¨ ÙĨ
Ġim ag
as ia
Ġcontribut ing
Ġm alah
Ġthe me
20 4
ä½ł æĺ¯
ĠG ram
ason ic
Ġsubject ive
or atory
IZ ATION
Ġinc idence
Ġlap angan
pro duced
çĦ ¡
Ġmew akili
ĠØ¨ ÙĨÙĬ
ĠÙĥØ§Ú¤ ÙĦ
r ange
ĠF au
åħ ·
IN A
Ġta ught
Ġs ale
Ġsur ve
Ġtr av
ĠADM IN
ĠZ ealand
fort un
G ood
ĠK ES
ÙĪØ¯ ÙĪÙĥÙĨ
W HO
ĠB haru
unt ary
alan an
ĠKes an
Ġfem ales
ĠMOD EL
â Ĥ
ĠAz mi
Ġcomp ression
Ġcov ers
on o
er apan
ĠG el
Ġleg is
Ġmeng hadapi
go ogle
ÙħÚ¤ ÙĪØ§ÙĨ
Ġen ables
ĠØª ÙħÚ¤
Ġreinfor ced
AM TQ
comp anies
é± ¼
( .
f lik
Ġ( -
n ational
Ġpl anned
ĠTh ird
ez proxy
çļ ®
Ø¢ ÙĨ
ang nya
UMP UR
Ġs cr
17 6
og ue
ir y
ird aus
ĠØ¬ ÙĪÙĨ
ÙĦ ÙĨØ¯
ĠÙħÙĨ ÙĪØ±ÙĪØª
ark s
Ġvari ations
Ø§ÙĦ Ùģ
Ġser um
en angi
16 9
ĠG R
16 2
old ing
appro priate
ic ate
ĠN utrition
Ġv ii
RES ULTS
Ġkep uasan
uz z
Ġde ad
f ish
incre ased
dep th
Ġcor related
è§ Ĵ
ab el
ĠFore ign
Ġat tributed
ĠIn cre
ĠØ¯ Øª
çĶŁ æ´»
æķ ħ
Ġi x
St ep
Ġm ag
Ġsur gery
Ġac commod
or ough
Ø Ľ
ĠMult i
amp uan
rit e
UN G
ÙĪÙĩ ÙĥÙĨ
) /
Ġdifferent ial
ĠĠĠĠĠĠĠĠĠĠĠĠĠĠĠĠ ĠĠĠ
Ġn om
ell o
çĪ ¶
Ø¯ Ø§Ø±Ø§
Ġde aling
Ġdisc ourse
ĠG O
Ġperb incangan
Ġc hem
å¤ ĩ
ĠR od
lu ent
b urg
Ġdis aster
Ġk r
art ments
el ek
ur ities
ĠJ os
S abah
Ø§ÙĦ Ø¨
D av
l ibrary
: /
Ġmen ulis
Ġcal cium
Ch ina
Ġed ition
Ġs ementara
ip an
ðĿĲ ¾
Ġdi ikuti
Ùĥ Ø§Ùħ
Ġsal t
ĠPr imary
ell i
enomen a
st ar
Ġunder lying
ĠL ect
ĠGr aduate
ISTR ATION
ĠP AR
ĠCon crete
Ġpers amaan
Ġt ag
anj ian
ig u
D on
ĠØ³Øª ÙĦÙĩ
m ol
æĽ ¾
ĠC ultural
Ġprim arily
Ġper fect
ĠT imes
Ġprofessional s
âĢ ¯
aw alan
O pt
Ø® Ø¯Ùħ
S ME
Ø±ÙĬ ÙħØ§
çŃ Ķ
Ġtyp ically
ĠÚ¤ÙĦØ§ ÙĥÙĪÙĨ
ĠEx traction
ĠAg ency
Ġmah u
Ġl anguages
Ġhydro x
Ġx i
un it
ch ain
Ġintent ions
N ya
Ġpre lim
è¯ »
Ġc ari
act eri
Ġb enda
Ġtox ic
ĠK as
ĠL UMPUR
ej abat
Ġh ub
c am
ens ively
unct ions
ĠHuman ities
Ġdim ensi
T eknologi
do or
r uct
XX X
Ø± ÙĬÙĨ
ĠT or
Ġind ependence
c ur
Ġplay ed
ĠAr iff
Ø§ Ø±ÙĪ
w er
Ä °
ad anya
Ġwon der
EN TI
ĠÙ¡ Ùł
ĠØ¯ Ùĩ
M any
Ġs is
k ek
Ġappro ved
show s
B F
Ġpr incipal
ç» ľ
led ge
Ġim mediately
16 7
ĠMah athir
ĠDet ection
ÙĪÙħ ÙĨ
Ġn ucle
Ã ¤
ent h
æĢ ª
M icro
ĠDav id
ĠK o
Ġtarget ed
Ġkem atian
if ik
è¿Ļ æĺ¯
ĠMas jid
ĠS AR
ä¸į å¥½
Ġmat hematics
Ġ ).
ĠS us
20 6
cy cl
Ġforec ast
ont on
Ġsub stance
ĠÚ¬ ÙĪØ±ÙĪ
Ġstudy ing
Ġh lm
ros oft
Ġsepenuh nya
Ú¬ÙĪÙĨ Ø§
j ar
ĠE V
i op
âĪ Ĺ
bu atan
Ġcap ac
çħ§ çīĩ
B ab
ĠDo es
G reen
ÙĪØ± Ø©
ass essment
ĠNa ib
Ø±Ø§Ø³ Ø©
A pril
æŃ Į
aw ar
gener al
Ġst ar
110 9
Ġw arm
Ġk eter
par ameters
ç´ ł
ĠB a
ĠPre vious
åħ »
re y
P res
s ame
ain e
ĠÙĥ ØªÙĬ
åŃ ¸
Ġt anya
æĬ Ģ
Ġatt ached
d on
åĿ Ĳ
ĠL ingu
ĠEnter prise
Ġt ua
in stitut
uch i
Ġens uring
ĠM iddle
Ġwind ow
ĠK M
Ġj angka
Ġh orm
ĠØª Ø§ÙĬ
p sych
Ġs umbangan
Ġst er
é¦ ¬
er j
Ġ8 00
Click Search
Ġp akar
Bel iau
Ġsh ock
17 8
ch ron
low er
Ø§ÙĦ Ø¹
Ø± Ø¬
ail ure
G o
Ġperib adi
ðĿĳ Ķ
ĠØª ÚłÚ¬
I O
Ġs hell
ĠØ³ ÙĪÙħ
ĠInvest ment
ĠOs man
s ectional
èĻ ½
Ġf aculty
Ø¯ÙĬ ÙĤ
ĠProf essional
ĠïĢ «
ĠSup er
Ġdis charge
ĠP ad
ĠB ecause
Ġappear ance
Ø§ÙĨ ÙĪ
ain t
ĠL ocation
ekn ikal
Ġsynthe tic
ĠMalaysian s
ç¤ ¼
US AN
æĢİ æł·
Ġkek al
Ġhendak lah
18 6
ĠM ok
book s
cr ed
kes an
ĠF TIR
ä¸ª æľĪ
Ġjud g
Ġlip id
Â «
Ġpre ference
imens ions
ĠIS LAM
Ġâ ĨĴ
P usat
ĠCh ief
H o
ĠM aka
Ġgrow n
Ġinter pre
Ġsep ak
p ath
Ġp ep
ĠÙĥ ÙħØ¨
ac illus
ĠRe ading
ĠPRO JECT
Ġt imb
le m
Ġpe er
Ġmaintain ing
es h
Ġinst ant
æ© Ł
éĽ Ĩ
Ġinf o
Ġfor um
form ed
Ġthem es
Ġtrad isi
W ater
Ġt ank
en an
è¶ ³
om on
enar ai
Ġbers etuju
Ġst ret
Ġcl ub
ic ol
Ñ Ĥ
ul ia
ÙĬÚł Ùĥ
ap plications
ant o
0 11
åĭ ķ
or ption
erm a
Ġpolit ics
Ġre place
Ġfund ing
Ġf riction
ff ee
unt ukan
ov ascular
One ClickSearch
ĠM EL
B en
Ġhand s
Ġflu x
Pol icies
Ġn ine
ĠPat tern
O l
æĦŁ è§ī
g b
Ð ¾
ĠSel epas
ĠSCI ENCE
ĠÚ¤Ø±ÙĪ ÛıÙĬÙĨØ³ÙĬ
æĺŁ æľŁ
ĠJ awa
cer ol
ful l
ri or
ap lik
ĠLik ert
é¡¶ é¡¶
ip un
Ġregard ed
ĠTrans fer
Ġcont amin
Y R
K im
t ies
ĠWh y
Ġn ice
d s
ump ai
Ġb inding
ul ator
ollow ing
16 3
add y
um um
ĠR id
Ġcalcul ate
Ġl ak
åĸ Ŀ
F ood
Ġdown load
ag ent
Ġs aving
ĠW ilayah
ĠØ§ÙĬÙĨ Ø¯
Ġcap ture
Ġvary ing
Ġcommunic ate
Ġim plies
ĠĠĠĠĠĠĠĠĠĠĠĠĠĠĠĠ ĠĠĠĠ
åĸ Ħ
pir ation
ĠAud it
Ġdr ink
mas alahan
Ġn ampak
Ġben chmark
Ġmeng atakan
H ad
it iveness
Ġm ission
aim i
A UTHOR
bet ter
17 9
ph ot
ĠØªØ±ÙĥÙĨ ÙĦ
Ġcons ervation
P sych
Ġexpl ored
menj adi
Ġre act
èĭ ¦
é£ ŀ
0 25
P ros
ĠÚ¤ ÙĬÙĩÙĤ
ĠAc id
add ition
Ġ19 79
Ġmach ining
Ġterb ang
Ġlim its
è¯ ī
acc ording
g ression
ïĥ §
éĸ ĵ
ash ion
Ġphen olic
Ġcl ar
Environment al
id upan
Ġall oc
Ġmin ing
ä¸Ĭ çļĦ
ĠR oyal
t ures
è½ »
Wh ile
occ us
Ġreve al
ter aan
W ah
Ġaud ience
Ġcompet ence
ĠN UR
Ġst ir
u angan
Ġh air
Ġmen ilai
å¤§ çļĦ
Ù ĵ
ec omm
ks i
Ġm s
Ġper asaan
æ §
ĠN A
ĠN S
lim en
é ¬
Ø³Øª Ø±
( -
ĠH ospitality
Ġcor respond
orient ed
Ġto wn
ut ur
2 10
is bah
Ġro ut
ĠAp pl
ell ite
ĠA qu
ĠWh ere
Ġp up
17 7
Ġkep ekatan
åħ ļ
AD UAL
um ahan
Ġport folio
ot an
Ġas id
Ġprelim inary
åº §
c ustomer
Ġemerg ency
Ġnor ms
ĠS quare
Ġtind ak
N H
F orm
ĠH ind
ĠÚ¬ ÙĪÙĦ
ĠAk ta
Ġk ad
Ġtre es
ĠÙħ Øª
Ġ26 00
as tern
ĠTah ap
Ġcol on
18 5
Ġberk embang
ÚĨ ÙĤ
Ġcomp ar
Ùģ Ø³
B ro
Ġmotiv asi
D engan
el e
N R
Ġp adi
U l
ðĿĳ ľ
Ø±Ø¨ÙĬ Ø©
Ġquick ly
eg awai
Ġn g
p ared
al in
Ġl ib
uk ai
Ġw arr
ĠBr and
k andar
Cl ass
inj auan
è¿Ļ ç§į
l ak
Ġbi of
IN I
comp let
Ġc ities
ĠSing le
ĠRecommend ation
Ġc adangan
Joh n
l ocal
Ġel se
Ġtreat ments
ĠÙĪ ÙĬ
Ġdisc usses
ĠW all
Ø¹ ÙĬØ©
Ġf an
Ġr atios
um ur
Stud y
ĠT engku
ĠGr ant
Ġinhib it
effect s
ĠTh ank
Ø§ÙĨ Ø¯
ĠComm unications
Ġextrem ely
ĠÙ¡Ù ¦
ĠIdent ification
Ġbe gan
ĠS in
me asure
av ailable
Ġk od
Ġ19 78
ender aan
i en
Ġf illed
ĠÙħ Ø§Ø³ÙĬÙĩ
ure a
ĠI raq
ĠØ± ÙĬÚ¤
ĠSk ills
22 5
ist ence
s ch
L evel
S ol
Ġm ount
Ġh ur
AN S
Ġincreasing ly
Ġ13 1
w ak
organ isms
Ø³ÙĬ Ú¤
Ġtop ics
Ġsil ver
æ® µ
con tract
cek apan
ejah teraan
ce an
Ġinter active
ĠS uccess
oc hemistry
ek tif
Ġy esterday
inj aman
Ġt uh
éª Į
ĠS ector
duct or
ĠIs hak
ĠÙ¢ÙłÙłÙ ©
ÙĦ Úł
ĠÙĥÙĦÙĪØ§Ø± Ú¬
19 82
âĢ¦âĢ¦ .
ĠØªÙĬ ÙĦÙĬ
18 7
Ġgr id
Ġp ak
ch art
ĠPar liament
ĠB ern
Ġhous es
ĠAk hir
ĠSh ams
ĠT esis
S ciences
angan i
Dec ember
Ġbehaviour al
T idak
ĠÙĥØª ÙĪØ§
Ġswit ch
ĠF eed
ĠB O
ÙĦØ§ ÙĩÙĬØ±
Ġbehavi ours
Ġkes emua
F O
Ġbur den
Ġpurch asing
c f
ok es
Ġfert il
ä¸į åĲĮ
Ġsav ings
ĠE t
ĠCont oh
ÙĦ Ø±
ĠP ublished
t ax
O pen
Ġgreat ly
ĠMel alui
Ġt ro
enc our
k ing
ĠQ uarterly
Ġra ised
Ø§ÙĬ Ø±
as askan
ion g
Ġperson nel
w he
ĠIm am
TIC AL
________ ____
Ġacc eler
Ø§Ø ´
Ġe cosystem
Ġun s
Ġdeg rees
Ġin clusion
res ponse
ĠTe acher
Ġre ward
Ġp in
Ġpart ners
atur ated
at asi
ĠWe ight
19 5
00 8
Ġvari ed
d id
ĠO ri
AB IL
c aus
ĠEl s
r t
N P
ĠPol itical
ir al
au f
ĠR EL
LE T
Ġtermasuk lah
OS T
Ø§Ú¬Ø§ÙĬ ÙħØ§ÙĨ
Ġs isa
ç« Ł
Ġacc ident
ĠEx perience
Ġcategor ized
Ø§ ØªØ§ÙĥÙĨ
iss n
ØªÙĬ Ø³
Ġin her
ÙĦØ§ ÙĬ
p es
Ġd ollar
incre asing
Ġh ierarch
Ġm ales
app le
ĠCo efficient
Ġflow s
P RE
å® ĺ
Ġexpend iture
éļ ı
ay ed
h is
Ġst re
Ġhus band
Ġacqu ired
ĠM g
countr y
ĠØ¨ ÙĪÙĥÙĨ
k alan
th ose
har ap
ent ice
D E
amb a
face book
press ure
Ġcrit ic
Ġdesign s
ĠEmp irical
ĠModel ing
I OP
Ø· Ø§ÙĨ
ĠØ³ÙĦØ§ ÙħØ§
Ġpre ferences
Ġfa ult
çı Ń
åı ¤
angk utan
inf lu
Ġp u
g ical
æ¸ ¯
Ġber ita
åĨ Ľ
ĠPhilipp ines
Ġcomp at
Ġber minat
ĠIS O
18 8
ĠØ¨ Ø¹
Ġrece iving
ĠWh ite
Ġmaj lis
ĠSc hematic
ÛıØ±Ø³ÙĬ ØªÙĬ
G overnment
ur at
Ġseg ment
y y
Ġp ix
ĠF alsafah
m asa
ĠAn uar
Øµ ÙĬ
ĠDevelop ing
Ġpem ilihan
d ia
ĠCh ild
Ġpers embahan
Ġpack age
Ġ13 3
ç± ³
ip uti
ĠH ere
ĠB T
Ġvul ner
in er
Ġpor ous
ĠD iploma
ther mal
èĤ ī
ateg or
in ci
ver ter
r educ
ind ependent
unt ut
Gr aw
ĠNig erian
17 2
I bn
Ġ19 60
ane ous
Ac cepted
o ir
emerl ang
un te
åĪ Ļ
ĠØ³Ùĥ ÙĬØªØ±
Amer ican
Ġdec line
comm ons
Ġqu arter
ĠÚ¤ ÙħØ±
Ġexhib ited
Ġcryst al
Ø±Ø§ Ø¡
follow ing
çļĦ ä¸Ģ
ĠPol it
Ġs hel
Ġmen engah
Ġext ension
ĠK amal
anc arkan
y id
ĠMod elling
ĠI zz
ot esis
ĠØ¨Ø§ Úł
ĠMot ivation
ĠS ports
ĠÚ¤ÙĬ ÙĦÙĬÙĩÙĨ
J K
ER ING
ĠW at
ĠOR IGINAL
Ø§Ø ¶
âĪ Ĩ
angk awi
vent ions
ir ut
Ġm apping
Ġent itled
Ø ¿
ĠN ature
ðĿĲ¿ ðĿĲ¿
Ġchar acters
PL C
pract ices
ĠK or
h bar
ann er
ĠT engah
Ġl uck
Ùģ Ùĩ
Ġ ÙĪØ±
Ġdr ivers
and u
åĨ µ
te aching
u atkan
â Ĺı
æĹ ħ
H B
a its
ĠL inear
O ct
Y ear
Ø±ÙĪ Ùħ
ĠN ordin
dis tribution
ÙĪØ±ÙĬ Ø¯
Ġp int
ĠCan ada
Ġbu ffer
Ġs aud
Ġ19 76
ĠØ§ ØµÙĦ
ĠÙħ ÙĪØ§
Ġtem a
al at
l ers
Ġpas al
Ġseed s
ac ial
ĠS wit
Ġr ace
ĠDr ug
Ġte ams
ĠP O
Ġinform ed
Ġt anggungjawab
ĠR atio
amb ilan
Ġfarm ers
l ock
Ġmemb uktikan
Ġmaintain ed
Ġres on
en k
Ġb g
Ġap i
ØªÙĨ Ø¯
ĠS ong
Ġpel akon
ØŃ Ø«
pt ions
ĠV er
Ġr ib
ĠD M
ĠL aut
az im
Ġh utan
ĠTechn ique
ord s
Ġimp air
Ġregard s
Ø¨ ÙĩØ§
t iga
ĠØ¯ Ø¬
è¥¿ äºļ
Ġk n
Ġimp ak
ĠA P
Ġl ifestyle
az ine
M ak
æľ ¯
ka edah
Ġd ual
as c
rel imin
éĢ Ĥ
ir t
ĠSams ung
Ġn ative
Ġapplic able
w t
S ejarah
A ug
S u
17 3
Ġdar jah
ip er
K u
ĠÙħ Ø§ÙĥÙĨ
Ġown ers
Ġto t
18 9
ĠComp arative
Ġl ose
Ġhaz ard
Ġsp ending
prof it
ph ysical
ĠInt ention
Ġsup plied
iaw ai
m ata
ber b
Ġsel atan
ä» ĺ
ear ing
be fore
Ġmot if
significant ly
ek i
20 9
unc ak
Av ailable
Ġneg ot
Ġconfig uration
S ep
Neg eri
Ġcor ruption
Ġemb edded
D T
ĠIs land
ï½ŀ ï½ŀ
aid i
ĠBl ock
ig er
ĠBah ru
D el
k ec
Ġber per
éĢ Ł
å± Ģ
ĠÙĥ Ùĥ
Ġsc hem
Ġc ere
Us ing
ĠÙĥÙĪ Ø§ÙĦØ§
Ġl ock
KU ALA
Ġiniti ative
Ġd ekat
Ø§ÙĦ Ø©
Ġpop ulations
D irect
ĠP op
ĠB ET
ðĿĳ¥ ðĿĳ¥
Ġterb uka
ab b
Ġst ations
Ġstart s
Ġ ***
Ġd uty
Ġadv ance
Ġar ch
åĨ ·
N umber
ĠKar im
ç ·
ĠS ons
Ġrough ness
ĠAdv ances
èĬ Ĥ
F berita
ill ation
ĠØ§ Ùģ
Ġv iii
ÙĪÙĦÙĬ Ø³
unt ungan
ress ed
ĠDem ographic
ĠOBJ EC
ol ester
ĠØ§ÙĦØª Ø¹
Ġminim ize
St andard
ĠÚ¤ÙĪÙĦÙĬ ØªÙĬÙĥ
Ø§Ø ®
ĠSet iap
m id
ĠJ umlah
Ġansw ers
pl an
ĠPert ama
m echan
u q
ĠProt ection
ĠÙĥØ¨ Ú½ÙĤ
ÙĪÙĦØ§ ÙĬ
Ġs port
Ġinput s
Fin ancial
ï¿½ï¿½ï¿½ï¿½ ï¿½ï¿½ï¿½
IM B
Ġant ic
ĠHus sein
æĭ ©
Ġdemonstr ate
Ġre ct
ĠH ubungan
ĠAn ugerah
Ġg ar
ha ust
r action
inf o
ĠA in
el asan
Ġk h
Ġaud io
mel alui
åį ĩ
ĠBi otechnology
ÙĬÚł ÙĥØª
up ational
ĠØª ÙĪØ±ÙĪØª
Ġcolle agues
ĠT aylor
ĠØ³ÙĬÚ¤ ÙĤ
E th
Î ³
D isc
ĠØ§ ÙħÚ¤
è© ±
ĠØ§ÙĨØªØ§Ø±Ø§ Ø¨ÚłØ³Ø§
ĠPen yel
ac ulture
16 1
col Name
ĠÙ¢ÙłÙ ¡Ùł
Ġk l
EC U
Ø® Ø¯
urn i
Ø§ ÙĩØ§Ú¬ÙĬÙĨ
iv o
Ġp a
Ġb acaan
ah awan
s olution
Ġpemer intahan
ĠUn dang
ĠØ¯ ØªØ§
Ġkeb erkesanan
Ġdisplay ed
âĢ¦âĢ¦âĢ¦âĢ¦âĢ¦âĢ¦âĢ¦âĢ¦âĢ¦âĢ¦âĢ¦âĢ¦âĢ¦âĢ¦âĢ¦âĢ¦ âĢ¦âĢ¦âĢ¦âĢ¦âĢ¦âĢ¦âĢ¦âĢ¦
pub med
ĠH ill
Ġf urn
ĠH ousing
Ø§ÙĬ ÙĦ
G G
ÙħØ§ Øª
9 00
Ġal kal
b es
ĠB h
ĠAg ricultural
ĠP utrajaya
Ø¨ Ø¹
å¢ ĥ
Ġmel et
èĩ ´
Ġpower ful
gy pt
æ ¿
N F
d ist
ĠJ u
oth ing
ĠPart i
ĠR om
Ġrem ember
Ġsp aces
ĠGh ani
Ð µ
( (
h ist
Ú¤ Øª
Ter dapat
èĲ ½
ĠT as
Ġvis itors
Ġop p
techn ique
ĠV OL
oc occus
ĠIt em
ĠSyn thesis
Ġevalu ating
Ġfor get
dip er
Ġan j
lam e
pert ension
P ress
Ġqu ot
b c
Ġd ys
E qu
ĠEx change
k ata
Ġt anda
Is mail
D Q
Ġ15 5
L AB
Ġ ikut
ĠAr ts
Ġl or
ay aran
B ehavi
Ġgather ed
Ġel astic
ĠØ³ ÙĬÙĨ
æ ½
ĠS und
8 99
s ci
ĠC ASE
Ġterl alu
ĠP OL
éĿ ł
r il
Ġimm un
Ġcons isting
Ġkel ab
Ġfin ite
ĠB M
ĠF ull
Ġb a
m alaysia
journal s
17 1
akt iviti
IG HT
ĠLim ited
f requency
æŃ ¢
elect ro
çĶµ è¯Ŀ
ik in
ĠE q
ç§ °
H ill
Ġr at
Ġe yes
ĠØ¨ Ø§Ú¬Ø§ÙĬÙħØ§ÙĨ
H air
Ġfa ith
Ùħ Ø³
osit ive
le mb
é©¬æĿ¥ è¥¿äºļ
A ut
ĠComp anies
ĠÚ¤ Ø³Ø§
Ġnow adays
Ġe ISSN
Ġku ant
elbaga ian
å¾ ®
research ers
æ¦ Ĥ
ex pected
L ow
ĠP o
Ùİ ÙĴ
Un tuk
Ġw ild
Ġcontin ues
Ġberm akna
Ġt engok
c lic
Ġis h
e em
Ġst ick
enc ana
UN GAN
Ġpul ak
target URL
ĠD er
ĠPRO BLEM
æº Ĳ
Ġmin imal
è´ ´
Ġreve als
en ue
Ġket ara
P aper
link Type
ĠÙĥØ¯ ÙĪØ¯ÙĪÙĥÙĨ
ÙĪØ± ÙĪÙĩ
ĠTh omas
ĠPhil osophy
f indings
ĠP UB
Ä± r
Ġstruct ured
En t
Ġp ap
Ġob stac
ro y
re li
Ġhelp ful
cr aft
Ġsim ulated
Ġcrit erion
re comm
Min istry
Ġper gi
Ġsub sequent
ĠØ§ ÚĨ
s at
s pect
awatan kuasa
Y a
H an
ĠP ed
Ġcon j
Ġattract ive
w riting
ÙĥØª ÙĪØ±
ĠSym posium
O k
Ø§ÙĦ ØŃ
Ġalumin ium
n atural
Ù Ł
Ø¯ÙĬ Ùĥ
stud ent
Ġsp p
i atan
or us
AS ED
FORM ANCE
Ġcol lege
pro posed
all ow
ust ers
ĠÙħÙĨØ¬Ø§Ø¯ÙĬ ÙĥÙĨ
çĹ Ľ
ĠAd am
ÙĪ Ùģ
Ġdr iven
Ð ¸
Ġm obility
Ġun f
Ø± Ø¶
ĠSem en
ĠF re
Ġv oid
Ġdis cre
gal akkan
ĠRecommend ations
m ust
iz al
integr ation
Ġaccount ability
iz en
Ġex plicit
ibr arian
Al so
Ġconsist ed
iction ary
Ġsel es
éĩį è¦ģ
Ġmer ah
Ġsh oot
Ġp ec
ĠM B
ĠHand book
èĭ ¥
Y us
Ġel ection
category ID
Ġamong st
Ġdecre ases
up ta
A ustral
éģ ĩ
Ġsel alu
location ID
US TR
Ġhold ing
ĠC EO
ĠC ard
Ġb orrow
Ġrespons ibilities
Ġwant ed
ĠÙ¡Ù §
ĠØ³Ø¨ Ø§ÙĩØ§Ú¬ÙĬÙĨ
ĠRe ad
20 7
em ost
ĠR a
Ġb atch
Serv ice
ĠEx ecutive
W A
45 6
ĠS alah
edi at
Ġset uju
yd ay
18 3
ĠS ource
r n
itan ium
Ø§ ÙĪÙĦ
ĠB ig
p rom
Ġpl ane
ĠÚ¤Ø± ÙħÚ¤ÙĪØ§ÙĨ
) *
ir ian
ä¸Ģ çĤ¹
ĠS cre
Ġneg atively
ath an
S EC
ĠAN N
ðĿĲ »
ÙĪ ØªØ§
Ġmess ages
o es
r ang
Ġlat ar
Ùĩ Ø±
k ul
Ġisol ates
Ġmiss ing
l en
Ġper isian
Ġam ino
c it
ĠC ab
ĠØ ¤
19 6
Ġlingu istic
Ġr ing
ĠØ§ ÙħÚ¤Øª
Ġaud itors
' re
ĠSc heme
l ution
ol ine
am alan
Ġ13 2
Ġfat igue
Ġdit unjukkan
ĠAtt itude
al as
Ġk id
Ġp ore
IK AN
oss ible
ir able
lim ited
æĶ¯ æĮģ
Ġperl awanan
uk aran
ang ible
l ings
Ġreason able
n ation
relimin ary
Ġins ight
Ġs ac
Ġp ek
K H
Ġdep osition
O per
T a
Ġkaw an
em in
Ġ13 7
Ġf ee
ĠEF L
ÙĦÙĬÙĩ Øª
Ġpip e
Ġform ing
ĠÙħÙĦØ§ Ùĥ
Ġb unyi
kan kan
J une
P et
n af
ac ement
Ġfe as
ĠRECOMMEND ATIONS
åıĳ çİ°
ch arg
Ġdi ed
Ø±Ø§ ÙģÙĬ
sek olah
ĠØ³ ÙĪÙĥ
el asi
med ium
Ø§Ø±ÙĬ Ø§
ĠBi ological
S G
Ġelectro ly
ĠP otential
ĠCal ifornia
Øµ Ø±
Äģ n
Ġe fficacy
Ġmod es
Ø¨ Ø³
in y
ĠN ajib
Ġcom ment
Ġda un
m ix
ĠBah ar
par ency
Sing apore
35 6
ec ed
ĠL atif
Ġmeng ekalkan
ĠÚ¤Ø±ÙĬ Ø³ÙĬØ¯ÙĨ
ĠN ormal
ut il
Ġmenj aga
ii um
me asurement
Ġnam ed
å¤ «
å· ¦
E urop
T est
æľī äºĽ
ut ed
Ġmemb ranes
M AS
ĠInd ividual
r ia
Ġcomp ressive
Ġ î
ĠEx cell
inter est
ĠLim itation
K EL
ĠS at
ØªÙĪ Ø¯
Ġperiod s
Ġfound ation
18 4
ĠV alues
Ġme kan
imb ang
Ø¬ Ùħ
Ġcon stitu
Ġclaim s
éĥ½ ä¸į
æĺ ¾
ç® Ģ
ĠIn itial
ĠA I
ĠT akaful
Ġp pl
Ġperm ission
ä¾¿ å®ľ
l ih
Ġke f
Im age
Ġf ix
ĠÚ¤Ø± ÙĦØ§
Ġ13 9
èµ Ľ
Ġab ilities
st one
ĠCh eng
il id
Ġpati ence
Ġs ana
Ġf ly
å®¹ æĺĵ
ÙĪ ÙĪ
ĠZ am
OR E
Ø¬ ÙĪÚł
O f
ä¼ Ĺ
ĠÙĥØ¨Ú½ÙĤ Ø§ÙĨ
Ġsel amat
åı Į
Î ¼
ih ad
Ġmemb incangkan
T s
Ġman ifest
ĠR ights
Ġ19 72
Str ateg
ĠG a
ĠØ³ Ø§ÙĬ
S pec
Ġdim ana
ĠT yp
Ø³ ÙĪÚł
Ġcur ves
und red
è´ Ń
W ER
g reen
Ġcandid ates
Ġland scape
Ġtr acking
ĠCon sequently
Ġput ih
Ġuseful ness
ĠØ³ Ú¤ÙĬ
cy cle
ĠEx t
Ġp ool
Ġm elahirkan
Ġcy cl
comm on
Ġmenyel esaikan
L umpur
Ġsub sid
ĠÂłĠÂłĠÂłĠÂł ĠÂłĠÂłĠÂłĠÂł
ub lik
Ch inese
å¿ Ļ
yst s
H C
èĪ ¬
Ret rieved
ek onomi
ä¸Ģ æ¬¡
verse as
c u
Ġcontrol s
S ULIT
me ans
ol ia
IN C
Ġmin ute
Ġst esen
Ġall ocation
Ġlog ic
ĠÙ¡Ù ¤
èĪ ĩ
Ġpol ar
Ġv oice
ðĿĳļ ðĿĳļ
Ġincorpor ated
Ġenzym es
p H
at im
ðĿĽ½ ðĿĽ½
Ġa f
ĠP b
gr aduates
Ġsuperv ision
ir aan
30 4
æĹ¥ æľ¬
ĠØ¨Ø± Ø¬Ø§ÙĬ
aga imanapun
Ġbel oved
ĠArt ificial
ĠD E
Ġsay ing
Ġs ib
19 8
ĠOb jektif
ĠM EM
ĠN aj
ic it
Ġt ick
ĠL iter
ect ing
ev alu
ä¼ ¤
U TION
ĠØ§ÙĪÙĨÙĬ ÛıØ±Ø³ÙĬØªÙĬ
Ġpeng libatan
ĠM ara
ïĢ ¨
ĠGener ally
en ang
ï¼ī ï¼Į
éĢī æĭ©
ĠD iff
Ġl n
ab ur
Ġprof esional
s erta
Ġab use
Ġam mon
az i
Ġnutri ent
å° Ķ
ĠPr inciples
Ġprot otype
ĠØ¬Ø§ÙĨ ÙĪØ§Ø±ÙĬ
if er
ain tif
ex ample
umul ative
ĠÙĬ Ø¹
âĢĿ ï¼Į
33 3
radi ation
Ġdec ide
Ġr enewable
ĠAr s
19 4
ub ual
und i
Ġarr ay
ĠI B
ĠK EP
Ġberf ungsi
20 8
ĠB et
ĠEmer ging
ĠCons um
ĠÙĦØ§ ÙħØ§
iap kan
As ian
ç² ī
spec ies
OR Y
ĠK onsep
ent angan
24 9
Ġdis put
ĠN ad
Am ong
ot ional
un iversity
apeut ic
creative commons
ĠØ¨Ø§Úł ÙĪÙĨÙĨ
g ly
LEC TR
er ate
Ġprec ip
ĠRel ations
ĠPr int
ĠÙħÚł ÙħØ¨ÙĬÙĦ
ĠH ome
ens en
st age
Ġy ellow
f uture
ĠTechn iques
Ġb ulk
Ġwh om
t es
Ġrec ip
ah win
alan i
23 6
Ì Ĥ
any i
ĠL eb
èĻ½ çĦ¶
Ġs ort
ĠC OL
ECU TIVE
Ġhospital s
ow ard
Ġat hlet
H P
22 3
ah ari
C ESS
sp ot
Ġim per
Ġac ute
urs a
Ú ¾
ord ination
ĠØ§ÙĨ ÙĪÚ¬Ø±Ùĩ
Ġfe es
ÙĪØ§ Ùħ
ĠÙħ Ùĥ
éĥ½ æľī
ĠA A
ass im
F l
Ġdem i
Ġpro min
Ùģ Ø©
Ġpack aging
L L
af ul
eh older
ĠB E
ĠTECHN OLOGY
99 9
Ġstrength en
r im
25 5
ĠÙ¡Ù©Ù ¤
ĠØ¯ Ø¯
Ġgr ain
28 0
Ġsched ule
ĠOper ations
ĠProf it
ĠP AP
ÚĨ ÙĬÙĨ
Ġs essions
ag am
Ġadjust ment
Ġlearn ed
onal d
od a
erv ed
ard en
ad s
ĠØ¯ Ø§Ø¯
å¯ ¦
ell ular
Ġrepres enting
Ø¬ ÙĪ
ass ium
c lear
Ġar ahan
ĠIn nov
ĠGu ide
Ġstr ugg
Ġketingg ian
Ac ademic
Ġre ferences
ĠAp abila
Ġl u
METHOD OLOGY
Ġs am
s amples
ĠM ill
imb alan
Ġant aranya
è ĵ
l aku
effect iveness
ial s
Ġhard ware
D F
å¥ Ĺ
ef on
fortun ately
Ġor th
ĠOR GAN
' ll
Î ĩ
Ġplatform s
E ar
Ġdes ire
ew angan
èµ· æĿ¥
M r
ĠLast ly
Ġt emb
çł ´
åħ «
EN ALAN
22 4
Ġk ota
Ġatm osphere
ĠA j
Ġant imicrobial
Ø± ÙĪÙĨ
ĠS af
Ġrel ating
Ġrank ing
L apangan
KE Y
umer ical
Ob ject
Ġm ilik
Ġreflect ed
Ġ14 5
ÙĬØ· Ø§ÙĦÙĬØ§
app ear
v ens
ĠG ar
as in
ĠEls evier
Ġbr ands
Ġr ent
um ni
b ound
ĠT IT
ĠInstr ument
ĠInter view
Ġc urrency
Ġadvert is
ĠI de
Ġmemb eli
ĠPeng ajaran
s ah
ĠRespond en
ĠAn war
ant a
ren ch
2 11
Ġunder go
ÙĢÙĢ ÙĢ
ĠB ranch
19 3
23 5
Ġequ ilibrium
Ġjen ayah
Ġstat ic
ĠH A
Ġsec ure
H y
Ġnot ice
Ġcompr ises
ĠCONCLUSION S
Ġcontinu ously
ehyd e
çĿ ¡
w ing
Ġtransfer red
Ġmeng eluarkan
Ġ âĢĻ
ĠTr ends
Ġperat usan
ĠIntegr ated
ingg it
ĠT B
Ġnur ses
åıª è¦ģ
Ġar m
ĠSpec ific
Zh ang
ĠF unction
L et
lic t
Ġpol ymers
åı ³
ðĿĳĺ ðĿĳĺ
Ġ14 1
ja uh
dec re
f unctional
æ´ Ĺ
ä»Ĭ å¤©
Ġes ter
t ung
Ġprovid ers
IS H
en aran
ip her
H ence
ä¼ ¼
Ġche aper
Ġpart nership
Ġappear ed
d egree
Ġt issues
Ġv ess
P CR
ig hest
Ġreput ation
ĠJ enis
m emper
ĠMod els
any ol
AN K
ĠT P
çļĦ äºĭ
ĠD en
ĠD eb
Ar t
ĠF emale
æł ¡
C ap
åģ ľ
ĠPa ul
Login home
P at
d epend
Ġas li
Ġb es
od ed
ÙĥØ± Ø¬Ø§
ÙĬÚłÚ¬ Ø±ÙĬØ³
Ġto m
Ġterp aksa
Ġpriv acy
kr ip
Ġrandom ly
ĠS eh
Rep ort
ĠArab ia
m ach
cl osure
å° ½
19 78
ä»» ä½ķ
8 48
Ġoper ators
H ONS
ĠF AC
ĠBen ef
ĠIt ali
ĠØ§ÙĪ Ú¤
D IN
ers ey
ĠUn ion
P acific
éĺ ²
ĠØ± Ø¹
observ ed
S alam
æķ ¢
ĠM ale
SI TY
RE EN
Ġo t
ĠR est
und ing
Ġt aste
Stud ents
behavi or
Ġsynthe sized
Ġket ua
Ġoffic ers
din ary
ĠMust afa
eg u
Ġpr on
Ù¢ ÙłÙ
ĠP uan
ĠØ§ÙĪÙĨ ÙĬØª
ĠN OR
Sec ara
mak lumat
ĠS ignal
ĠAk ademik
k top
ĠD ynamic
å°± åı¯ä»¥
æĻ ¯
pend idikan
æĪĸ èĢħ
ĠA SS
ad apt
ĠW ashington
Ġmem pert
ïģ ¡
èĮ ¶
Ġsup plement
Ġpro lif
Ġfabric ation
Acknowledg ement
Ġfrequ ent
g est
ĠNetwork s
Ġwast es
ĠL ang
p in
Ø¬ Ø§Ø¨
æľī ä»Ģä¹Ī
struct ured
, .
te achers
if th
ÙĢÙĢÙĢÙĢ ÙĢÙĢÙĢÙĢ
ti ary
ĠS umber
Ġcommit ted
ĠÂµ m
Ġenter prise
Ġsus cept
un sur
em ony
Ġket idak
sp ace
ĠÙħÚł Ú¬
P ur
Ġcon vey
ĠIs kandar
åĹ İ
Ġad ministrative
l Ä±
or o
e ol
ĠTrans actions
ĠH ari
H ere
Ġt itik
çĶ ļ
perim en
techn iques
Ġw it
30 3
ul se
åĢ Ĵ
Ġ ......
ÙħÚ¤ ÙĪØ±
ĠAp art
Ġinf ections
Ġregard less
11 77
Ġind eed
Ġprom ising
19 2
p ihak
Ø¬ ÙĬÙĥ
Ġperk ahwinan
ĠâĪ Ī
ĠFour ier
D uring
Ġport ion
Ġby k
Ġind ices
çĽ® åīį
im prove
Ġstock s
ĠW ell
M art
ial a
ĠÙĬ ÙĤ
f doi
Ġarrang ement
ĠP es
FORM ATION
ĠØ§ ÚłÚ¬
av an
S ample
Ġtend ency
lish ers
Ġar ter
ĠPer ang
Ġassess ing
anc ongan
Ġvis ible
Ġfig ures
Ġlog am
Ġb ukti
oun s
ub ang
An t
ĠØ¥ ÙĬØ·Ø§ÙĦÙĬØ§
é» Ħ
ĠØ§ÙĦ Ø°ÙĬ
m atic
æĮ ī
Ġmen ang
ðĿ Ł
Ġre actor
23 3
ĠÚ¤ÙĬÙĨ ØªØ§
ik ap
ac qu
Ġst iff
Ġâī ¥
Îĩ Îĩ
ch lor
Ġter had
å¹ ¸
ĠSecond ary
ĠÚ¤ÙĨ ÚĨ
Ġmaj u
Ġmanager ial
Ø±Ø§ ÙĬ
ĠTH REE
Ġallow ing
ĠM T
ĠØ¬ Ø§ÙĪØªÙĨ
Ġev ident
Ġmur ah
ol er
Ġins an
od ologi
Ġtrig ger
op i
ÙĤ Ø©
aid ah
ĠF irdaus
Ġweb sites
prof essional
am ount
Ġt at
ĠTe am
ĠØ§ÙĬ Ø¨ÙĪ
ON E
ĠX u
v ae
yl l
ĠCong ress
Ġg aris
ĠS r
:// /
o j
Ġkek urangan
å¢ ŀ
ĠL aporan
Ø§Ø¯ Ø©
aj ikan
æĹ ı
Ġmeaning ful
ĠÙħÚł Ùĩ
Ġpart ner
un n
id emi
ap arkan
Ġappro val
Ġlay out
Ġissu ed
M ad
Ġexhib it
m ov
ĠF ilem
Ġdi etary
ĠÙ¡Ù £
Ġcarry ing
ing at
Ġter c
Ġsub sequently
ĠC AR
Ġber usaha
Stud ies
ĠØ³ÙĪØ§ ØªÙĪ
ind ungan
ÙĪØ±ÙĨ Ø§
ĠÙĪ Ø¹
ak inan
30 5
ra el
Ġfav or
Ġgen us
sim ilar
å ª
Ġread ers
Ġp antai
ĠÙ ©
Ġke had
RES EARCH
f ramework
?? ??
ĠTer ms
Ġw elfare
ĠE DM
Ġm ikro
ro g
el amatan
M er
ĠInd ependent
Ã ¨
Ġra ise
Ġdis placement
æĪĳ æĥ³
ç ¯
lar ation
22 9
At Publisher
View AtPublisher
ĠM ess
im ated
Ġnon linear
Ġtra its
sk y
ia an
ØªÙĬ ÙħØ¨Ø±
cont ext
ap ed
m ake
ĠE fficiency
ĠL ear
K D
in ah
SP SS
Wh y
AJ AH
Ġbond s
Ph one
Ġobserv e
22 1
ĠT entera
Ġf iller
b anyak
ad eh
ĠR umah
Ġ14 3
ri e
æĿ İ
Ġtoler ance
ĠEx pert
Ġge ometry
ĠUN IMAS
necess ary
ĠD isease
W M
c our
ind ah
Ġs ink
ĠSh a
ĠT om
Ġm ethyl
lic enses
Ġweld ing
u ce
ÙĬÙĦ ÙĨ
H I
i ol
Ġvers i
Ġmengikut i
Ġvill age
Ġper dagangan
ĠE very
ØªÙĪ Ø¨Ø±
S ection
Ġpro posal
ĠÚ¤Úł Ú¬ÙĪÙĨØ§
Ġlear ner
ĠProced ure
ĠL ev
000 1
AL U
æĺ¯ ä¸įæĺ¯
ĠT uhan
Ġmemb angunkan
A uthor
emp en
M ot
Ġsek s
ul uh
Ġrefer ring
3 60
ä¸į çĶ¨
Ġseb elah
ĠD EVELOPMENT
comp onents
Ûı ÙĬÙĦ
Ġperform ances
ç© ¶
anj aan
Ġspeak ers
ĠÙĥ Ø±ÙĬØªØ§
Ġro of
memb eri
ur uskan
om ers
ĠÚ¤ ÙĪÙĦ
Ph ys
ac id
ec es
' ve
uk is
Ġdis agree
Ġarg ument
employ ed
ĠA ffect
éĵ ¶
Ġne ur
f our
man ufacturing
Ø³ Ø§Ùħ
p y
qu ant
Ġin fer
s oftware
ĠF air
ĠPe kan
ç» Ī
ĠÙĨ ÙĪØ±
Ġrestaur ant
ĠB iod
ĠTechn ologies
Ġadsorb ent
Ġcho ices
Ġcharg ed
L R
ä¸º äºĨ
Ġep is
att le
Ġvictim s
Ġwilling ness
ÙĪØ§ ÙĪ
Ġj arak
Ġinf ected
Ġcon stitut
Ġfib res
ĠØ² ÙħØ§ÙĨ
0 15
Ġreg ister
Ġob lig
IV E
/ .
oun ger
T iO
Ġkal o
adi ent
åĿ ı
Ġmos qu
éĻ Ĳ
Ġt adi
ĠÙĥ ÙĪØ§Ø³
ugg estion
al angan
Ġsc ales
ĠS age
Ġseb aliknya
ĠØ§ÙĪ Ú¬ÙĪØ³
Ġre jected
Ġoffer ing
comp lex
Ġpotential ly
ÙħÚ¤ ÙĬÙĨ
ĠÙħÙĨ Ø±ÙĬÙħØ§
s umber
ĠS ession
eg er
Ġcor ak
ðĿľ Ĩ
on ym
èĤ ¯
amad un
ĠDi agram
19 7
pro ced
Ġcre ates
ĠSup ply
Ġdit ubuhkan
ĠP ap
ĠÙĪ Ùĩ
Ġd engue
Ø± Ùĥ
Ġins ights
Ġhuj an
aring an
S il
ĠØ¨ ÙĬØ¯
ĠComm on
Ġmult imedia
b iz
Ġdr ain
ens ic
rol l
ĠØªØ± Ø¯ÙĬØ±ÙĬ
t ailed
ĠS eterusnya
OGR AF
, -
Ġl ibraries
ĠÙħÚ½ Ø¨
ĠØ³ÙĬÚ¤ ØªÙĬÙħØ¨Ø±
umip utera
ĠN ote
form ing
Ġdem ocr
n or
Ġk akitangan
ä¾ Ŀ
ç ĵ
Ø³Øª Ø§ÙĨ
ĠĠĠĠĠĠĠĠĠĠĠĠĠĠĠĠ ĠĠĠĠĠĠ
ific ate
question naire
ĠØ§ ÙĬÚłÚ¬Ø±ÙĬØ³
g iven
Ġlo ans
Sar awak
ĠS ud
ĠP romot
ĠPsych ological
f act
ĠØ§ Ø±Ùĩ
ĠJord an
k on
og ether
Ġmeng ubah
Ġdit entukan
D et
18 2
ĠØ³Ø¨ Ø§Ú½ÙĤ
Ġn arrow
friend ly
Ġfeel ings
en akan
hest er
n one
ĠYah ya
ĠG C
h om
Q S
å± ħ
ĠS olar
ĠE MP
ĠØ³ ÙĩØ§
ĠD oc
Ġlarg ely
edah kan
oh en
Ġcomput ational
M aterials
N et
ex peri
Ġumum nya
ĠK awasan
Ġd anger
Ġencour aged
ack s
ĠÙ¡Ù©Ù ¥
ut nya
Ġar chitect
ogn itif
ĠØ¯ ØªØ±
ĠF ive
Ġst roke
ĠØ¨ ÙĬÙĨ
] [
ĠE ss
24 6
ĠS copus
Ġâ Ĺ
Ġpenyel esaian
iz ah
å§ Ĳ
ĠD istrict
ĠPener bit
åĽ ¢
Ġkem as
Ġmar riage
Ġl aluan
Ġco al
c ustomers
Ġnot es
pract ice
edd ing
ĠM Pa
Ġrecommend ation
ĠD O
l iterature
è» Ĭ
ĠR ek
ence g
T arikh
ul ic
Ġm igr
ide os
ura ikan
Ġlo op
Ġchemical s
is er
èĦ ļ
Q L
æĲ ŀ
ðĿĳĸðĿĳĸ ðĿĳĸðĿĳĸ
F M
åĽ½ å®¶
gi ene
ç» Ŀ
Ġnear ly
ĠK olej
ĠPres iden
Ú¬ Ø±
ĠEmploy ee
end ers
Ġmen entang
ĠX RD
Ġpan as
x v
Ġs aja
Ùĥ Ø§
Ġsepar ated
ej ak
ĠÙĢ ÙĢ
D an
ĠØ³ÙĦ ÙĪØ±ÙĪÙĩ
Ġf ol
ph ys
Ġmicro bial
ut ies
æĸ° åĬł
ĠOper ation
Ġguid eline
ðĿĳ ı
ĠIndustr i
è¿Ļ ä¹Ī
rist ian
Ġprof iciency
Ġkeb oleh
ĠØ¬ ÙĪØª
Ab u
ĠØ¯Ø³ÙĬ ÙħØ¨Ø±
Ġin ner
- âĢĺ
t ypes
ĠKhal id
ne um
Ġoper ator
Ġt ajuk
av irus
Ġserv es
è¡¨ ç¤º
ĠADMIN ISTRATION
Ġpur su
Ġber apa
Ġb id
Ġconf ident
b ur
Ġded icated
Ġapp s
ĠJohn son
im ately
å¹ ¿
Ġpro ceed
Ġ19 74
se y
ul ent
d etermine
ĠE SL
Ġinter aksi
ag h
Ġdevelop ments
J apan
Ùĥ Ø§ÙĦØ§
Ø§Øª Úł
uc apkan
âĢ¦âĢ¦âĢ¦ .
ĠL ED
ĠWah ab
Ġcont emporary
Ġadv erse
acc a
Ø±ÙĬ Ùģ
Ġd ent
sp eed
çł Ķ
æ¯ Ľ
ĠØ¹Ùħ ÙĪÙħ
Ġqu e
CON TENT
Ġc row
Ġident iti
I RE
h yd
Ġp ush
Ġat tain
ih ah
oo o
q ah
OL D
k p
PAN Y
Ġg i
âĪ ļ
ĠØ¬ ÙĪÙĦØ§ÙĬ
ĠPart ial
ĠL iqu
Ġch icken
Ġdefin itely
Ġmel iputi
å¦ ¹
ĠE lement
hel ial
ä¾ ĭ
h um
ĠGh azali
Øµ ÙĪØµ
å½ĵ çĦ¶
ĠM iss
25 6
Ġsal ary
ĠM ap
ĠØ¨ Ø§ØªÙĪ
Ġsul ph
ish ment
Ġbig ger
Ġs astera
Ġp iece
Ġind oor
æ¯ Ĵ
SI AN
ĠCh in
Ġ13 6
Ø± ØŃ
Ġdeliver ed
ĠS ukan
ĠÙħØ´ Ø§Ø±
am atkan
çª ģ
Ø£ÙĨ Ø³ÙĬ
ĠW a
ax is
Ġw ak
A w
ĠMar ine
particip ants
ed ing
ĠA lex
åħ ħ
ĠGener ation
ĠÙĥ ÙĪØ±
Ġs gt
mit t
Ġdib angunkan
ĠP i
Ġtox icity
ĠElect ro
Ġwavel ength
ĠB at
Ġal le
æ² Ļ
ç½ Ĺ
ĠEffect iveness
eg an
VIS OR
18 1
work ing
y ana
ĠF L
Ġberk uasa
dec ision
ĠÙħ ÙĪØ±ÙĬØ¯
Ġt and
Ġr aja
um my
ika itkan
ĠS ay
Ġdit ulis
Ġkes alahan
ĠF DI
åĲ ¸
s ign
Ġreflect s
Ġpass ive
Ġdef ects
Ġc able
ä»¥ åīį
Ġtr ained
Ġdeep est
ed ical
all ah
ĠLet ters
ter ms
re v
f ast
Ġf ram
un ing
ĠSep anyol
Ġrel ax
Ġr are
Ġm u
ous and
ĠENG INE
egrad able
Ġcomp ensation
Ġmen inggalkan
F E
Î ¸
pol y
o T
c atal
Ġsign s
AB S
Ġillustr ates
ĠØ¨Ø± Ø¨ÙĬ
Ġkec uali
J umlah
Ġt umpuan
ðĿĳĥ ðĿĳĥ
l ap
aplik asikan
ĠJ ames
AT ER
e um
ure us
T ah
ener ation
Ġs ila
ah ulu
ĠJ ones
s ian
ĠØŃÙħ ÙħØ¯
ĠR NA
Ġcomfort able
Ġpro ve
ĠAh li
O s
ĠĠĠĠ ĠĊ
im eter
Ġ19 75
Ġdraw n
ä¸Ģ åĢĭ
ĠAw areness
Ġinvent ory
omun iti
ĠY our
sp e
eb asan
f urther
ĠN H
c ayai
f aces
ðĿĳ ¢
ĠIlm u
UR AL
ĠAPP END
c over
ĠØ±Ø¹ ÙĬØª
ic ult
ĠMax imum
B h
con ventional
ĠØ§ÙĪÙĥ ØªÙĪØ¨Ø±
ç© ¿
ĠPro blems
yt ochemical
éĺ Ł
Ġmem udahkan
Ġperj alanan
elit ian
( %)
çŁ Ń
) ]
Ġ ï¼Į
as ion
B o
Ġle mah
w omen
Ġcollabor ative
Ø§Ú¤ ÙĪÙĨ
UHAM MAD
Ġbar rier
Ġsm oking
äºº å®¶
å© Ĩ
ĠO h
ĠSER V
l r
ul ihan
ĠØ§ Ø³ÙĬØ§
ĠM ater
ĠH z
end alikan
è£ ¡
ĠÙĤ Ø¯Ø±
ĠMet al
J A
str ong
I E
Ġg aji
Ġap e
Ġ13 4
é¢ Ħ
ĠÙĩ ÙĬØ¯ÙĪÚ¤
It em
çĪ ¸
ern and
ĠKad ir
Ġhabit at
0 27
âĢ¦âĢ¦ ..
ab a
sup ervisor
emb angkan
ä¹ ī
ĠG A
Ġelektr ik
Ġhad ir
ĠI b
In ternet
ĠIt aly
oc ytes
G en
ĠÙħÙĨ ÙĬÚłÚ¬
ĠÙĩ ÙĨ
ðĿĲ¹ ðĿĲ¹
pt y
yn thesis
Ġlog o
Ġst ories
çł ģ
Ġsc anning
da erah
str ess
Ġrem ote
orph ology
Ġ14 7
Ġattack s
Ġmotiv ated
ĠL ip
Ġr en
l ip
ĠC M
Ġdiss olved
c gi
arg ets
äº ®
Ø¯ Ø±ÙĬ
ATI VE
Ġestim ates
ev a
Ùģ Ø¹
ĠðĿĳ ¥
k awasan
T V
Ġactiv ely
æĦı æĢĿ
Ġperat uran
Ġfract ure
M em
Ġp n
ub es
Ġfit ness
P OR
ĠPl us
disc uss
ever y
Ġmend alam
Ø®Ø¯Ùħ ØªÙĨ
Ġmem enangi
Sh ar
Ġemot ions
p ack
ĠVari ous
Ġsuppl ier
reg ular
Ġv itamin
ILD ING
Ġl aptop
éĿ Ĵ
Ġdiper kenalkan
ĠIn v
Ġhoriz ontal
ðĿĳ ¤
26 6
m ium
l ayer
ĠUn iv
åľ Ł
æĬ ¤
IN TER
Ġloc ally
ro vers
25 9
ç¨ ®
Ġdik etahui
ÙĬ Ø±ÙĬ
Ġh aha
em ik
Ġn av
ĠPal est
Ġhim self
ĠMan aging
P ORT
Ġsequ ences
ro ve
A ku
im ages
Ġper gerakan
Ġdecre asing
Ġaccomp lish
Ġn a
ĠInvest igation
ĠØ§Ú¤ Ø±ÙĬÙĦ
ar at
Ġab normal
ĠØ§ÙĦØ¯ ÙĬÙĨ
Fore x
ĠKul liyyah
Ġhapp ens
Ø¹ ÙĪ
Øª ØŃ
ĠÙħ ÙĪÚłÙĥÙĬÙĨ
Ġ19 77
AMP US
ĠF IN
Ġc atch
Ġs akit
v ia
Ġs ukan
é ¼
Ø¶ Ø§
Ġart ikel
Ġhot els
ick el
efin ition
Ġdir inya
ĠØª ÙĪØ¬
m ener
æĸ°åĬł åĿ¡
ĠÙĨÙĪ ÛıÙĬ
t l
ĠPas ir
ĠØ¨Ø± ÙĨ
ĠP ass
ist ent
Ġnetwork ing
Ġab solute
ident ified
Ġ il
Econom ic
Ġincre ment
ĠT em
Ġconsider able
ĠA ward
Ġk ualitatif
Ġrecycl ing
ÙĪØª ÙħØ§
Ġfulfil ment
ĠÚ¤ÙĬÙĨØªØ§ Ø¯Ø¨ÙĬ
Ġs uk
Ġext reme
ĠProf esor
d ays
ÙĦ ÙĬÙĨ
å°± ä¼ļ
J ANA
Ġ17 5
r akan
ĠØ±Ø§Ø³ ÙħÙĬ
em at
Ġtem u
ĠP AH
ĠRob ert
Ġl ubric
ĠL ine
Ø§Ú¬ Ø§ÙĨ
ĠM erc
T her
ev aluation
Ġsud den
ĠM IC
ä¸į æĩĤ
Ġ14 9
ĠT ang
ib re
unj ung
Ġkeg unaan
ĠØ§Ú¬ Ø§Ùħ
ÙĦ ÙĪØ§
ĠV ice
Ġinter v
Ġun known
Ġaut o
Ġcheck ed
Sm ith
N Ps
ĠÙħÙħØ¨ Ø§ÙĪØ§
bah agian
24 5
Ġlign in
S ains
Ġsimilar ity
Ġseek ing
Ġkom itmen
Ġcon clude
s ref
è Ĩ
ym ph
ä¹Ł æľī
H a
ç ĩ
am ing
ch o
Ùĥ Ø±ÙĬ
ĠÙħØ³ Ø¬Ø¯
Kel antan
ut ang
26 0
E ven
ik i
ter ia
Ġsar jana
se a
Comp uter
Ġrec ording
p u
Ġill ness
ĠAM ONG
Ġb unga
ĠMaj or
Î »
Ġjournal s
Ġnam es
Ġk atanya
Ġpath way
Ġpelanc ong
ĠB S
us ers
ĠØ§Ø¨ Ø¯
Ġann ounced
st art
Ġr ancangan
L INE
å° ¼
åĲĦ ä½į
Ġpej abat
Ġlat ter
éĻ ©
ĠVal ley
ĠØ±ÙĬÚ¤ ÙĪØ¨
S ER
h ol
est inal
Ø« Ø±
Ġinform al
Ġsaw it
comp onent
K ES
u ad
ðĿĳĩ ðĿĳĩ
ampel an
w atch
Ġas phalt
ĠF az
Ġmeng awal
ĠTh er
Ġs uku
Ġregul atory
ab an
li ant
C ase
ĠHer itage
Ġbet a
Ġmic rowave
ous ehold
ar ai
Ġqual ification
Ġm ilitary
ind awi
ĠØ³ÙĦ Ø·Ø§ÙĨ
Ġunder graduate
ĠÎ ³
Ġfac ility
ĠS MS
ise ases
ĠKore an
ĠÙħØ´Ø§Ø± ÙĥØª
Ġlist ening
~~ ~
Prof essor
Ġkind s
Ġterk ini
H all
Ġp engan
Ġo verseas
ĠS es
usia an
ĠS EN
ĠMas alah
ïīģ ïĪł
Ġplant ation
] ]
Ġ15 3
G DP
ĠSc anning
ĠPress ure
s quare
imb ulkan
ĠE gypt
Ġwork er
Ġat om
ĠM it
Ġh ilang
y te
j am
ĠØŃ ÙĤ
Ġb os
up aya
cl in
d ifference
Ġc le
Ġlap isan
ĠSa ad
ĠY outh
Ġker jaya
Ġdef ect
Ġ:- ?
p ot
A ge
é¾ Ļ
A ir
ĠL ar
ÙĦÙĬ Ø§
ĠA W
Ġathlet es
Ġv aries
ÙĦ Ø¹
N ama
ĠÙĥÙħØ¨ Ø§ÙĦÙĬ
d ial
p romot
ĠCon centration
Ġcook ing
Ġbak al
as akan
Ġa z
ĠTh anks
ĠCh o
Ġsuppl iers
lemb agaan
Ġman faat
Ġf uels
Ġsens ing
Ġ18 23
å¯ Į
Ġfeed ing
ĠKhair ul
ĠMahm ud
ĠØ¨ÙĬØ§Ø³ Ø§Ú½
apat kan
2 12
Ġmarg in
ant aran
Ġdok umen
Ï ĥ
çŁ ³
strateg ies
ole ksi
war na
ud ahan
TR EPR
Ġmajor iti
Ġkehad iran
Ġconven ience
Ġmagn itude
ĠG E
IT M
Ù Ķ
Ġt ulisan
L aw
ĠÙĦ ÙħØ¨
ĠĠĠĠĠĠĠĠĠĠĠĠĠĠĠĠ ĠĠĠĠĠĠĠ
Ġstat istik
19 79
et akan
j ob
el iti
Ġparticip ated
op ro
under stand
d igital
Ġpre t
æĪĳ åĢĳ
ĠÙĥ ÙĨ
Ġ æĺ¯
Ġs ciences
é¡ »
ivid u
æł ĩ
N AMA
ĠØ£ ÙĬ
çµ ¦
Ġdisc ount
Ø§Ø ¥
ĠTurk ish
Ġl engkap
ĠPer ception
Ġm i
osp her
ĠØ§ÙĦÙĤØ± Ø¢ÙĨ
Ġ17 0
is ational
Ġper istiwa
Ġm uk
ĠK at
ĠW ill
ĠB it
gress ive
Ġmin i
b ic
Ġkel ompok
Ġg agal
Ġfor emost
ĠÙħ ÙħØ§
Ġo ste
Ġ7 00
19 70
Ġeconom ies
b us
ĠÙĨ ÙĬÙĪ
éĩĮ éĿ¢
Ġcatalyst s
ancell or
adem ics
ĠTurk i
Ġr apat
d am
Ġsk et
Ġle mak
B D
oh anan
Gl obal
ĠF lor
Ġefficient ly
Ġcompreh ension
ĠO P
Ġtr uth
requ irements
ĠSem ua
Ġper ancangan
ov en
ĠØ³ ÙĨÙĬ
omb ang
ĠM ix
ib li
Ġbert anggungjawab
andar in
Ġmel uas
Ġup grade
Ġcon vers
Ġl er
................................ ................
ØªÙĬ Ùĩ
ĠA uthors
Ġgener ating
AC TER
ĠS ee
Ġtr ib
ĠGe orge
on j
ĠH um
er als
Ġdil antik
Ġwhe el
Ø« ÙĦ
ew asa
ĠR ice
ï¼ İ
ok al
ĠØ§ÙĦØ¹ Ø±Ø¨ÙĬØ©
ĠÚ¤Ø± Ø®Ø¯ÙħØªÙĨ
ungguh nya
ĠPro posed
o S
and ang
ĠÚ¬ ÙĬÙĨ
ill ary
Ġc rypt
N OR
aver age
ĠFig ures
ed y
Ġcal on
éĽ »
A U
Ġsu ami
all s
ay ak
Ġber usia
ĠSTAT EMENT
ah aha
Ġmon etary
z uan
Ġj et
Ġamount s
zer land
Ġter ror
advant age
Ġcompet encies
ĠPeng arah
out put
Ø§Úł Øª
Ġphot ocatal
ĠM ALAY
ACT ORS
ĠEconom y
and angkan
âĢ ĸ
ĠÙħ ÙĪØ³
Ġsek al
Ġprint ed
ĠOut put
Ġb le
in novation
ĠA th
Ġter per
Ġwork shop
Ġcy cles
ĠL angkawi
iz i
Ġpharm ac
Ġassum ption
Ġpay ing
M g
Ġb ayar
Ġdi pert
ĠEffect ive
ĠPEN Y
ir ikan
Ġpsych ology
Ġlink s
CO VID
ĠTechn ol
Ġc akap
Ġfrequ encies
ĠF ish
Ġse aw
ĠAnd erson
ul aan
yar ak
J M
é¢ Ĩ
process es
Ġb at
ç» į
Ġexamin ing
Ġber gerak
ed a
Ø§Ø³ Ø±ÙĥÙĨ
ĠT witter
Øª Ú¤
eng ineering
Ġrang es
å¾ ĭ
st able
Ġdit emui
Ġgraph ene
M ust
Ġrangka ian
ĠJ ack
Ġeduc ators
ĠAssoci ate
q i
ĠR oz
S w
Ġsusp ension
Ġdis crimin
Ġ14 4
ĠJa afar
88 4
æīĢ æľī
ĠD ua
Ġâ Ħ
ĠÚ¤Ø±ÙĦØ§ ÙĪÙĨÙĨ
Ø¯ ÙĪ
Ġflav on
ĠCh ain
n ell
Ġmen ambah
Ġmengg ambarkan
ĠØ³ÙĦØ§ ÙĬÙĨ
Ġprepar ing
Ġax is
Ġviol ence
2 13
ĠPr entice
ĠS I
ĠS EL
ĠIm plications
ari at
Ġkel apa
prov ided
ENE UR
Ġr ah
ĠRep ublik
roscop ic
Ġchlor ide
Ġsa at
ĠPar ameters
Ġdefin itions
ĠP elajaran
ĠG IS
paid paid
Ġcho osing
ĠDep uty
j ud
Ġc odes
ĠStandard s
ĠÙħ Ø§Ø¬
Moh amed
ĠÚ¤ Ø§Ùĥ
é« Ķ
um es
pl us
Ġm igration
24 4
ĠÙĤØ¯ ØŃ
Ġl ig
ĠHard ware
ðĿĳĿ ðĿĳĿ
ĠÙĨÙĪÛıÙĬ ÙħØ¨Ø±
ä½ ³
ex press
ĠTIT LE
Ġthere by
ĠF ed
Ġmener angkan
P ak
ØŃ Øª
ĠÎ »
Ġmengan alisis
ĠÙħÙĨ ÙĪÙĨ
é¡ ¾
Ġf ans
Ø±ÙĪÚ¤ Ùĩ
Ġre verse
ĠSec ret
ĠZ ur
Ġemerg ed
T UK
ĠAr if
Ġnew ly
Ġbr idge
B est
ĠOn ce
ĠAff airs
Ġj angk
Ġhydro ph
trans fer
ĠØ± ÙĬÙĥ
Ġhid den
t ok
Ġspect roscopy
U ES
it am
Ġe ating
unt utan
Ġto uch
unic ipal
er ja
åİ Ĩ
ĠØ³ Ø³
Ġ16 5
ĠF isher
Ġw akaf
Ġseb agaimana
Ġte a
ä¹ĭ åĲİ
i ated
s pr
present ed
ĠINTER NATIONAL
Ġwork ed
ĠF luid
com fort
M ic
Us ers
ç¬¬ äºĮ
Ġunivers al
aw awi
ĠH on
24 7
tuk aran
Ú¬ Úł
ĠFil ip
D ER
Ġins ulin
in form
ĠB AH
åħ´ è¶£
ĠØ¨ÙĬØ§Ø³ Ø§
Ġinitial ly
ĠØ¨Ø±Ø§ ÙĬÙĥÙĪØª
Ġj angan
â ĨĴ
Ġpas angan
Ġim aging
Ġdisc over
sel ected
w aste
ugh ter
åĵ į
23 4
IT AL
olv ement
Ġt ail
seud o
ĠS ig
r ons
èĦ ¸
S AR
ag alan
ĠProv insi
el ar
ä¸į çĦ¶
Ġp ulau
Ġpl ast
Ġpe aks
olog ically
Ġm ild
ĠT M
Ġen forcement
Ġbag inda
ĠM ol
M ALAYSIA
ĠMoh ammed
ĠBe irut
Ġdib ahagikan
Ġ15 1
ĠFat wa
A sh
Ġcomp lement
Ġexpect ation
es ium
ĠP EL
ĠØ§ÙĬ ÙĦÙĬ
ig ion
Ġpemer hatian
s un
Ġsk ala
ot yp
Ġdom ains
c hem
per ceived
ĠÙĥ ÙĪØ±ÙĬØ§
object ive
Ġper buatan
Ġter tiary
N B
æľī æ²¡æľī
met al
Ġdi analisis
Ú½ ÙĪÙĦ
ĠT emp
ĠØ¹ ÙĦÙħ
Ġselect ing
ĠMOH AM
pro duce
develop ing
Ġkin etic
m iss
Ġdis order
ĠÙ ĳ
èĥ Į
Ġpro pose
En ergy
ÙĬÚł ÙĥÙĨ
Ġkon trak
Ġth orough
ĠMart in
uk uman
olester ol
ĠAz man
Ġmagn et
ex perimental
Ġacqu ire
ĠRel ated
Ġhum idity
ĠF irm
ĠN ar
aer obic
çİ ĩ
Ġperm intaan
hal ang
Z ain
s everal
Ġh undred
Ġle an
Ġdi abetic
Ġf ungi
Ġrot ation
åĪ Ŀ
er cul
Ġk ene
ĠK uching
ĠØ¨Ø±Ùħ Ø§Ø¡ÙĬÙĨ
pati ent
ÙĪØ§ Ø¯
Ġinvest ments
d ed
Ġstrong er
infor ced
æĦ ¿
Ġtelev ision
ĠPRODUC T
Øª Ø¨
Ġb ird
ap l
Ġd ust
Ġc lick
aid a
Ġmed ian
åģ ¥
ĠC OR
s ince
UJ UKAN
ĉčĠÂł ĉčĠÂł
ĠÙĩ ÙĬÙĦ
Ġrele vance
HAR GA
æŁ Ĳ
ro se
Ġper alatan
Ġker ap
Ġutil izing
Ġel abor
ek aan
peng etahuan
ĠD istance
n is
F s
ÙĬÙĨØª Ùĩ
for um
opt osis
Ġs asaran
ĠK andungan
Ġg ear
ĠOr al
é ²
Ġpoint ed
æ¥ ļ
inter view
Ġvacc ine
uc r
peng gunaan
Ġcop y
um al
22 8
å¾Ī å¥½
ĠT Q
ĠIn stagram
èį ¯
i arkan
Ġb is
Em ploy
or ic
Ġswit ching
H asil
2 14
Ġm il
ow der
op es
organ izations
T B
ĠB ody
iffer ential
ĠÚ¤ÙĬÙĨØªØ§Ø¯Ø¨ÙĬ Ø±Ø§ÙĨ
æĿ Ģ
ĠC up
Ġt ujuh
Ġus ual
Ġpass ed
perform ed
IS A
qu iry
M Y
s ent
Ġj adual
å° ĩ
Ġab stract
Ġkej adian
Ġs it
Ġingred ients
ĠHy brid
ĠM akanan
lih atkan
P lan
ĠMc Graw
Ġcomput ed
ĠÙĪ ÙħÙĨ
n k
adem i
Ġc oh
ys elf
ĠØ¨Ø§Ú¬Ø§ÙĬÙħØ§ÙĨ Ø§Ú¤ÙĪÙĨ
K ampung
Ġsub mit
Ġberpend apat
Ġn ull
22 7
P an
ç į
ey er
com mercial
NT s
" '
ĠR eka
poss ible
ç» Ħ
ĠØ¯ Ú¬
Ġperc aya
ic ian
el iling
def ined
M w
Ġr ising
d ar
Ġconven ient
Ġw ound
100 2
ĠC ited
23 8
40 4
ro gen
ĠSc hed
ĠP RE
AD EM
Ġstaff s
ĠC lim
K r
ĠMon itoring
ĠPro tein
Ġdivid end
Ġn ations
ĠCol l
ĠC AD
Ġsoil s
ek e
S eptember
x imate
Ġters endiri
r ance
J C
ĠV I
ĠBud get
yst al
æĪ ·
ot ypes
load s
B ahagian
Ġmar ried
ign ment
ĠReview s
Ġcomplic ated
r aya
ĠB ox
ag at
Ġbar angan
se g
Ġcluster ing
åĿ Ĺ
ĠT ab
aw n
b entuk
ust ic
og i
th y
Ġsimultane ously
est hetic
ÚłÚ¬ Ú¤
und angan
Ġcircum stances
Ġadv is
PP H
j enis
d ih
Ġm alaysia
car b
T itle
re fer
PER VISOR
î ł
b ell
er ang
U r
æıĲ ä¾Ľ
ĠØ¹ Ø§Ùħ
ĠÚ¤Ø± Ø¯Ø§ÙĨ
ĠBud aya
Ġcharg es
p enc
UC T
âĢ¢âĢ¢ âĢ¢âĢ¢
Ġanalyz ing
Res pond
ateg ories
ĠØŃ Ø§ØµÙĬÙĦ
Ġmeng uasai
40 5
ĠM agn
27 5
END AH
Ġp ond
Ġh arian
ï¼ģï¼ģ ï¼ģ
é¬ ¼
Ġs af
ĠBul letin
ew is
y i
ĠAccount ancy
Ġim mediate
iz z
S ila
pos ure
Ġmelet akkan
ĠØ¨Ø±ÙĦØ§ ÙĥÙĪ
L iu
Y e
ĠL ess
ĠN et
b ak
Ġbe ar
Ġset empat
æĸ Ń
Ġprem ium
Øª Ùģ
Ġlic ense
Ġhe ard
el uruhan
ĠÙħ ÙĬØªØ±
Ø´ ÙĬ
AD I
Ġintro duce
s us
IVER SITY
éķ ·
O x
pro b
ĠØ³ ÙĪØ¨
urn a
K R
Pr act
ĠM i
ol ation
Ġappreci ate
Ġstr ict
Ġpro of
ĠYus uf
Ġth r
ĠIn come
ym pt
Ġ `
us im
éĴ Ł
ðĿĳĢ ðĿĳĢ
ab ling
Ø§ÙĨ Ø³
ook ing
Ġser angan
Ġhydro lysis
D ar
ĠAct ion
Ġcamp uran
Ġinter personal
åĩ »
T imes
in clude
sk ills
ĠÙĤ Ø§ÙĦ
ĠâĪ ĳ
ost on
Ġphot os
ðĿĲ¸ ðĿĲ¸
z h
angg uan
Ġkef ahaman
he at
Ġgreat est
cr imination
23 9
ne e
Ch aracter
ber dasarkan
Ø±Ø¨ ÚłÙĨ
il st
R ed
æĦ Ľ
Ġresp ir
iver pool
Ġl anjut
AC C
In novation
ĠTok yo
c ule
at atkan
ĠØªØ±Ø§ ÙĪØªÙħØ§
Stat istic
ĠAp akah
ar akan
Ġdip anggil
Ġemphas ized
ä¹ ±
ĠÚ¤Úł Ú¬
ak unya
Ø¨ÙĬ Ø©
ĠØ¯ÙĬ ÙĪØ§ÙĨ
ish am
ĠÂµ g
Ġman uscript
âĢ¦âĢ¦âĢ¦ ..
æŃ ¦
ĠS ix
Ġ ille
Ġb rown
Ġbert ajuk
ĠAct ivities
W D
Ġfor ced
Ġev apor
Ġcoast al
Ġ ip
H as
ĠD h
Ġexcess ive
av eng
ens or
ĠØ§ÙĦ Ø®
ÙĪÙĨ ÙĦ
Ø¸ Ø±
Ġd ikaitkan
Ġsc an
Ġmut ual
27 0
Ġst eady
Ġleg it
Ġsal uran
Nov ember
Ġp ad
TIV ES
ĠOper ational
Ġreg istration
ĠM il
Ġk isah
ĠØ³ÙĬÚ¤ Ú½ÙĪÙĦ
it tle
ot rop
ĠPerk ara
ĠD ensity
ĠSt e
el an
Ġr um
Ġparticip ant
unc hed
27 4
link ed
ĠÙħÙĨ ÚłÙĩ
Ġisol ation
ĠCon n
ĠÙħ Ø£ÙĨØ³ÙĬ
Ġundert aken
ĠEx ample
Ì ĥ
ðĿĳ ĭ
60 4
Comm unication
P ower
Ġpot ensi
Ġf ed
Ġn one
Ġintr insic
Q uality
ĠEn cik
Ġpol is
F i
AS H
Ġle verage
ĠEx tract
Ø¹ ÙĨ
Ø§Ú½ ÙĬ
Ġkon flik
n orm
ĠS port
struct ural
ul ed
if era
Ġdep loy
Ġhar am
f ind
Ġpl ates
in str
ĠD aily
D ay
Ġ3 50
Ġb leh
ĠFr ance
Ġimp ed
ĠP U
ter ior
ifi ers
S B
il kan
ĠSya f
m ass
ĠT oday
ĠT EM
ĠI jazah
L o
amb ung
ÙĨ ÙĨ
ĠKe adaan
Ġro ots
ĠÙħÚłÙĨ Ø§Ø¡ÙĬ
ç» Ĩ
ag an
th al
Ġult imate
ä»ĭ ç»į
ĠK ek
ĠN R
cal cul
memb ers
j ata
æĩ ī
b ab
Ġt i
ick ness
ĠR oman
b p
ĠØ§ÙĬ Ø³
B al
st ation
Ġr he
P ahang
ĠÙħÙħØ¨ÙĨ ØªÙĪÙĤ
ak r
ict or
ĠC ognitive
ĠH arian
Ġmedi ating
ĠØ§ÙĬ Ø±ÙĪÚ¤Ùĩ
Ġsent ence
ĠAd a
em aran
umum kan
osph ate
Ø³ ÙĪÙĦ
Ġcomp osed
Ġo v
Ġmeny ampaikan
Ġsen ang
éĻ¤ äºĨ
AC E
26 8
Ġc ek
Ġ2 180
Q id
Ġke untungan
IL L
perk ara
ĠY ANG
ĠB and
Ġpromin ent
n ame
ĠInter face
L anguage
b our
eker ja
ĠENGINE ERING
cor relation
work ers
ĠR T
TREPR ENEUR
å¤§ æ¦Ĥ
l ate
æĭ ħ
I brahim
ĠJ r
Ġopen ed
Ġprim er
work s
ä¸¤ ä¸ª
W H
ĠUl tr
Ġc e
Ġ ),
A j
Ġg a
crib e
ĠTh ose
è® ĵ
éº »
ä¹ İ
Ġb ranch
Øª Ø±ÙĨ
Ġexp enses
ari um
li qu
ĠCon struct
ĠM ember
26 4
Ġpert andingan
æĿ ĥ
sur ance
parent Doc
parent Product
parent Qid
requ ired
Ġne uro
P al
Ġm asta
Ġus ia
ĠZ hao
Ġ13 8
Ġmen eg
Ġt ahan
inv olved
Ġterd ahulu
ĠEv olution
Ø¯ Ùĩ
vari able
ĠRaz ali
èĽ ĭ
Ġob esity
ĠØ±ÙĬÚ¤ÙĪØ¨ ÙĦÙĬÙĤ
Ġdr ag
ĠPan el
B ur
Moh ammad
aq asid
C G
ĠH om
Ġm ould
VE Y
ĠRout ledge
Un dang
Ġfl ight
Ġhard ness
need s
ĠF a
Ġde formation
Sup ervisor
rit ten
ĠPack age
Ġbl ends
od s
ĠÙĦØ§ ØªÙĬ
AMP IRAN
ab ad
doc ument
cap ital
Th rough
Ġtelev isyen
sem ua
ub ility
per lu
T ube
Ġf okus
onstr uk
sci enced
Ġ urusan
Ġs ab
un ting
w s
Ġtimb ul
Ġc ast
ĠCont inu
Ġex ecut
Ġcollect ing
IC S
ĠÚ¤ÙĨ Ø±Ø¨ÚłÙĨ
ĠMAT ERIALS
Ġmemb uka
Ġ15 9
çĽ¸ ä¿¡
Ø¶ Ø¹
control led
pr aisal
cript ions
ĠH Y
pemb angunan
rele vant
æľĢ è¿ĳ
Ġc oconut
Ġbas ically
Ġw estern
Ġk it
Ġis lam
è®¤ ä¸º
ĠAp pend
ĠÎ ´
ĠComp osite
. '
ĠØ¯Ø±Ø§ ÙħØ§
Ġre ply
25 2
Ñ Ģ
ĠP ejabat
Ġg ol
æĻ º
ÚĨ Ø§ÙĬ
c ite
Ġsc aff
ĠÙħØ§ÙĥÙĨ ÙĨ
il ed
ĠB erg
ok o
æ´ ²
Ġob vious
l arg
af az
ĠS ite
G ambar
Ġak hbar
H ol
n yataan
å®Į åħ¨
b ag
ut ama
ĠÙĦ Ø§ÙĦ
Ġserv ed
ĠInter action
Ġaud itor
Ġterj adi
M asa
ï¼ į
24 3
Ġtor que
Ġrepresent ative
ĠÚ¤Ø³Ø§ ÙĪØ§Øª
ar ation
Ġ15 7
LE H
Ġsever ity
ĠM U
Ġread iness
irc uit
Ġo le
Ġnot ion
Ġrank ed
ÙĨØ¯ Ùĩ
Ġ rom
Ġdis orders
P AGE
Ġs os
Ġz inc
Ġobtain ing
Ġmengenal pasti
er usi
Ġf inger
Ġle ak
@ @
ĠR ank
ä½ł è¦ģ
ĠAss embly
ĠL O
ĠR ules
m oney
ĠÙĥ ÙĪÙĦÙĬ
ES SION
30 9
ĠCo ast
Ġ }
Ġsw asta
ĠC it
ĠRep ublic
Ġconvert ed
labor ation
æ¹ ¾
T ak
h older
ĠØ³ Ø§ÚłØª
Ġch itosan
ful ness
IG H
ĠAd nan
ĠWe i
ĠØªÙĨ Ú¤Ø§
Ġadjust ed
Ġ2 40
Ġper manent
æĢ ģ
Ġsl ot
m etic
ĠII UM
Ġkel ebihan
b h
k hus
Ġf aham
el ian
ic ious
Ġimprov ements
ter dapat
osit ions
ĠMicro biology
Ġtok oh
Ġpet roleum
ĠBe fore
ĠÙĥ ÙĦÙĬ
éĢ ²
Ġrang ed
ĠM Y
Ġkew ujudan
dem onstr
24 8
æİ §
ðĿĲ· ðĿĲ·
Ġph r
Ġl ung
Ġpers pektif
ÙĥÙĬ Ø±Ø§
Ġfact s
Ø¨ÙĬ ØªÙĥÙĨ
read ing
Ġadoles cents
Ġupd ated
Ġk enderaan
ĠS olution
Ġm outh
ĠĠĠĠĠĠĠĠĠĠĠĠĠĠĠĠĠĠĠĠĠĠĠĠĠĠĠĠĠĠĠĠĠĠĠĠĠĠĠĠĠĠĠĠĠĠĠĠĠĠĠĠĠĠĠĠĠĠĠĠĠĠĠĠ ĠĠĠĠĠĠĠĠĠĠĠĠĠĠĠĠĠĠĠĠĠĠĠĠ
Ġc ahaya
ate ver
Ġkep ala
Ġadapt ive
d eb
og an
ĠG ames
N amun
ĠR ay
24 1
Ġdecomp osition
g ers
T op
2 18
âĤ ¬
ĠÚ¬ ÙĪÙĨ
Ġmen e
Ġload s
ĠRos li
ut ch
ĠØ³Ø±ÙĬ Úł
ĠSh ort
ent ian
ĠØª ÙĪÙĥ
Ġc ards
cont oh
ĠØ§Ø£ ÙĦÙħ
ÙĦØ§ ÙĬÙĨ
ĠØ¨Ø± Ø¬
yn olds
ine apple
Ġmes h
0 20
4 36
par ameter
Ġcons ent
ĠÙħØ§ÙĨ ÙĥØ§ÙĦØ§
Ġexam ines
pret ation
hehe he
ĠK ol
ĠW arisan
Ġmeng galakkan
Ġsecre t
ĠF uel
ØªÙĪ Úł
ĠUN IVERSITI
Ġhousehold s
Ù ĸ
scienced irect
Ù ķ
Ġk ut
ĠE LECTR
Ġb ole
Ġsub stances
Ø§Ø³ Ø±
Ġcell ular
Ġar us
conn ected
imb angkan
P ark
Ġhit am
isi atif
Ġpel aburan
improv ement
akt a
ĠKem ahiran
ĠB A
ĠR ot
ç» ´
ĠL C
Ġask ing
Ġdo or
ĠHuss in
Ġgu ess
Ġsatisf y
Kep ujian
aw areness
ĠØ³ ÙĪÙĥÙĨ
ohyd rate
M or
29 0
Ġt ek
Ġre placed
& _
Ġmedic inal
Ġent repreneur
em ar
Ġpun ca
å± ŀ
ĠD asar
æŀ ģ
ĠL ag
tBU z
Ġfamili ar
int ro
V an
ĠM eg
ĠFirst ly
ĠH arr
25 4
Ġreflect ion
ĠHad ith
ĠÚ¤Ø±ÙĬ ÚłÙĥØª
y k
Ġdic apai
ĠÚ¤Ø±ÙĪ Ø¨
Ġpend ek
Ġafford able
p n
D ep
T wo
n ed
Ø¹ Ø§
ĠRuss ia
ĠH ung
éĻ ħ
c ari
ĠB ol
c ks
ĠBu ilt
Ã¼ r
ĠAss oc
Ġcompet ency
p ay
Ġweight s
reh ensive
2 16
Ø³Ø§ ØªÙĪØ§ÙĨ
Ġp akaian
Ġprof its
amp aian
Ġdisc ipline
2 15
Ġcontext s
Ġad anya
Ġform ulated
ÙĪØ§ Ø¨
ĠÙ¡Ù ©
Ġy ounger
ĠEar ly
Ġdirect ions
ĠÙħØ¬ ÙĦÙĬØ³
ĠK ED
Ġt id
Ġm oi
ert aan
ĠØ¨ Ø§ÙĩÙĨ
ĠÙĪØ§ ØªÙĤ
ĠAnd roid
N K
form s
el come
ĠSp eed
ĠMain tenance
ĠO wn
Ġst af
and atangan
Ġgovern ments
Ġ row
as ive
Ġber kait
ĠMaj id
ĠCOM M
23 7
ed ur
ĠRe ceived
ĠD ir
Ø ¾
Ġexec ution
Ġpes awat
ĠCon tract
ĠW HO
h aha
åħ³ ç³»
Ġegg s
ĠTr a
ĠØ¨Ø± Ú¬
el eration
ĠØ§ Ø¢
ĠØ³ ÙĪÚ¤
en o
Ø§ÙĦ Ø«
ĠPro perty
Ġk orang
25 8
Ø³ ÙĪÙĨ
G F
Ø§Ø¡ÙĬÙĨ ÙĨ
Ġb orang
Ġ14 2
ĠÙĥ ÙĪØ¯
Ġx de
B ook
M edia
ÙĤ ÙĦ
Ġs ap
ENT AL
UN E
Ġpemer intah
ĠBU ILDING
åı ¥
ĠComp osition
apt ers
Ġm ir
åº ·
Ġk aya
ĠSem asa
Ġd ivision
25 3
pl ays
Ġch amber
In stitut
ÙĪÚ¬ Ø±Ø§ÙģÙĬ
Ġattribut e
Ġs or
Ġseg mentation
ig ate
AM IN
p on
Ġcer amic
Ø¯ Ø§ÙĬ
Ġdef ines
m ethyl
el et
ĠHuss ain
Market ing
Ġre active
Ġneighb our
ond ay
cl aim
Ġtel efon
çĶ »
Ä± ÅŁ
ign ed
Ġro uter
Ġcorrect ion
import ance
WAR DS
ĠMah kamah
é¸ ¡
linear ity
ph en
Ġhij au
è¦ģ æ±Ĥ
ĠN ama
Ġpen al
ĠT own
Ġspec ification
Ġrem ained
ĠPen ilaian
ĠSh are
Ġown ed
ðĿĳ §
Ġken yataan
et ap
Ġl ov
ĠInd ic
Int egr
ĠInf lu
aris ons
trad itional
ØªØ§ ÚłÙĨ
im s
part s
ĠS alm
IM IT
èį ī
ĠLim itations
Ġread er
Ġc uma
Ġbut ton
ĠÙħÚ½Ø¨ Ø¨ÙĥÙĨ
Over all
bu ild
ou ch
p ak
Ġgr aduan
ĠD AP
åĪ Ĺ
L ink
N as
I r
Ø¨Ø± ÙĪØ§Ø±ÙĬ
ĠÙħ Ø§ÙĦ
US A
ĠAz har
Ġmen awarkan
Ġseg era
Ġberl angsung
ĠPER FORMANCE
ĠØªØ±Ø¨ Ø³Ø±
ĠØ ¸
Ġtext ure
Ġtan aman
ĠT ox
od ont
88 8
ut m
Ġj antina
Ġb ending
ĠØ¨ Ø§Ø¡ÙĬÙĤ
ĠI k
26 5
ad v
Ġgrad ually
ab ases
Ġmemb enarkan
to x
ant ed
Ġpem ahaman
Ġphosph ate
Ġt ik
ĠØ± Ùħ
Ġsaud ara
T oc
ĠW riting
ij il
st atus
Ġ16 1
mod els
Ġf alsafah
ĠØ¯ ÙĥÙĦ
Ġfam ous
Ø§Ø±Ø§ ÙĬ
ĠK EL
Ġpemb uatan
ĠC ore
Ġdoub t
Ùı Ùĳ
ot echn
uc apan
Ġl ens
mur id
äºĨ è§£
Ã ±
Ġs g
for est
v ard
est ival
ĠÙ¢ÙłÙ¡Ù ¡
Ġpark ing
ĠØ³Ú¤ÙĨ Ø¬Úł
ej al
ĠKem udian
Ġin ovasi
F inal
G D
as ound
Ġc oding
Ġknow s
ä¸Ń çļĦ
UL ATION
consist ent
Ġschem es
( )
Ġtung gu
on avirus
Ġk anan
R U
Ġpul se
ĠStr aits
ig ating
Ġless ons
Ġberl akunya
Ġpor tr
ĠB an
amb ut
s ifat
Ġthought s
ĠØ³ ÙĪÙĦ
Ġlater al
Ġd yes
ĠØ³ Ø§ÙĦ
s ector
Ġpr icing
Cent re
ĠØ± ÙĤ
Ġan c
t g
ĠF lex
ad ik
ĠØ§ÙĦ ØŃ
Ġsecond s
Ġ[ [
Ġlah ir
ug asan
ĠB or
ual an
oid al
consum ption
O h
Ġdi hadapi
ok r
Ġ16 4
ogene ity
k ita
Ġw ider
et e
per centage
2 17
ap plied
Ġvalid ated
ĠÙĥ Ø§ÙĦ
C hemical
Ġaltern atives
Ġout er
Ġest ate
V IR
N E
ĠS EC
ĠS ources
Ġbab y
ĠÃ ½
ĠC ert
Ø¬ Ø§Øª
ĠH en
Ġ: ">
Sim ilar
Ġint ens
ĠCON FERENCE
Ġd adah
ĠI p
Ġp ull
Ġin tra
iq ah
meas ured
he x
vert ising
Ġclean ing
Ġm yself
perc ayaan
Ġ2 10
uk hari
al gorithm
Ġmach ines
çİ ¯
ob in
os isi
ĠSe a
ĠPers atuan
A verage
Ø±Ø§ Ø¦
ump u
Ġfir ma
we ek
26 3
ĠSemen anjung
pol ymer
Ġsel ari
ul ates
i ations
Ġre plic
ĠH air
ĠCountr ies
26 9
ĠIn struction
ĠØ§ÙĪ Ø³
Ġcorrect ly
h room
il ience
Ġrel ate
Ġinstruct ional
cell s
ĠQuant itative
ĠPati ents
27 7
ĠØªÙĬ ÙĥÙĨ
Ġreinfor cement
ĠMic rosoft
s wit
Ġless on
Ġj in
Ġutil ize
Ġse at
j en
om inant
ari os
Ġin sufficient
por at
sur vey
Ġv ideos
ÙĪØ§ Ø±Ø§
Ø¬ÙĪÙĤ ÙĥÙĨ
Ġs inter
ç»ĵ æŀľ
Ġad ik
ĠF E
Ġeng aged
ĠM ir
æĺ¯ ä¸Ģ
con centr
co in
Ġb esides
Ġh ang
Ùģ Ø§
Ġtak aful
st ill
å¹´ çļĦ
Ġguid ed
ov ic
ï´ ¿
ĠRe ference
ĠN at
determin ed
Ġdi peng
ĠN GO
ÙĪÙĥ ÙĬ
Ġkeh ilangan
ĠÙĪ Ø¨
ĠM ex
Ġdom in
Ġnutri ents
TI S
Ġp sikologi
ĠÙħÙħØ¨ Ø±ÙĬ
AND UNGAN
j adi
men ingkatkan
è¿Ļæł· çļĦ
ĠEmploy ees
M ED
Ġa head
commit ment
ĠN EW
Ġ19 67
AS AN
ĠØ§ÙĬ ÙĥÙĪÙĨ
pel bagai
ĠSt ation
Ġberl ainan
Ġabund ance
ob e
ĠØ® Ø§Øµ
Ġag ensi
UK M
ac ent
é Ĩ
ok uskan
r ific
A re
an usiaan
ot ton
Ġïĥ ·
ĠF adz
ĠH art
ĠØ¨ ÙĬØ±
LET TER
Ġw ire
pr ising
Ġinj uries
Ġadv ancement
it ual
Ġg abungan
ĠØ³ Ø§Ø¡ÙĬÙĨ
ĠØ¯ØªØ± Ø¨ÙĬØªÙĥÙĨ
ĠF OUR
Ġto oth
ĠSal es
ass es
Ġre ject
Ã Ĭ
pro per
Ġcont amination
ĠL ing
Ġd ram
Ġever yday
ĠD ent
os akan
Ġ17 9
Ġses etengah
ĠA er
ĠB ahan
ĠReg ion
ÙĪÙĨ Øª
K ing
al gae
ĠØª ÙĬÙĨ
Ġmark ers
it ic
æŀ ¶
ĠÃ ¶
H V
L AN
Ġpl at
é¡ º
ÙĪÙĨØªÙĪ Ùĩ
Ġex haust
å¥ ¶
R UJUKAN
ah at
ĠS oft
ĠP I
çĶ ³
ĠÙĤ ÙĪÙħ
control ler
ia z
bec ome
Ø¬ ÙĦ
Ġacc idents
Ġre ly
ain less
ĠAf r
Ġcar cin
ole cules
amp ions
imb ing
ĠÙģÙĬ Ø¨Ø±ÙĪØ§Ø±ÙĬ
ÙĨØª Úł
it ives
M ain
th anks
Ġt ap
Ġequ ally
ĠCon servation
p d
u y
ĠH RM
ĠØ´ ÙĬ
Ġm ine
Ġle x
hydro xy
Ġlar vae
ĠAb out
Ùħ ÙĦØ§
h ati
ĠLe ague
Ġg ate
ANT AN
s cre
Ġstat istic
Ġrestric ted
emb an
Ġs weet
Ġsurf act
ĠMan ual
ac et
Ġad her
again st
Ġdi am
Ġfl uct
ĠExcell ence
ç» §
Ġf alse
M arch
ĠØ§Ø¬ ÙĦ
Ë ļ
ĠR ain
oc ell
che ck
2 99
æ¨ ¡
Ġtw ice
Ġ æľī
Ġcl usters
ĠT our
Ġ16 3
Europ ean
ĠS IM
pat tern
ĠÙ¢ Ùł
CE PT
ro ck
ĠØ§ÙĦ ÙĪ
Ġdisc overy
ym orph
UN AN
Ø´ ÙĬÙĨ
vent ory
ÙĪÙĦØ§ ÙĥÙĨ
cor rect
neg eri
Â £
è¡ Ĺ
ĠRES ULT
è¿ İ
Ġimm une
Ġgram mar
ä» Ķ
ç½ ®
ABIL ITY
ĠPharm ac
St ate
25 7
TI ES
y al
ex traction
ĠTrad itional
Ø³Ùĥ ÙĪÙĦÙĩ
# #
organ isasi
ew ise
Ġb uk
ender ung
ĠØ¯ÙĥÙĦ ÙĪØ§Ø±ÙĥÙĨ
ĠRequ irements
c at
ĠComp lex
f iles
s um
Ù ŀ
P n
m or
maj or
ĠB ursa
ĠRespond ent
ĠT urn
å°ı æĹ¶
EN ER
Ġar ise
it ance
Ġencour aging
Ġmoder ating
product ive
Ú¬ÙĬÙĨ Ø¯Ø§
Ġpollut ants
ç§ Ł
éł Ń
ĠMeas uring
Ġoffic er
Ġbl end
ĠFr anc
ĠB IM
Ġlik elihood
m ill
is ure
ut s
ĠDi agn
IMP ULAN
eng ahan
ĠÚ¤Ø± ØªÙĪ
an kan
Ġk reatif
ĠLingu istics
b eg
ĠT aw
3 70
ĠF B
Ġj atuh
con cern
ĠSt eel
Ġsen arai
ĠZulk ifli
ÙĪÙĥ ÙĬØª
ØªÙĬ Ø³Ùĩ
ĠF ire
ĠAnd a
In i
N g
Ġ19 71
Ġac ara
Ġmenc adangkan
å»º è®®
Ġt ension
Ġaccum ulation
ĠAc ceptance
im ents
Ġst reet
u atu
Ġd akwah
ĠPol ice
ocomp osites
D in
ĠS ant
ĠSun nah
ÙĪØ¨ ÙĪÚłÙĨ
j e
30 6
Ġmark ed
Ġd uties
Ġb anc
ĠÙħ Ø±Ø§
30 8
ĠSens or
Ġprov ider
Ġrecogn ize
ĠTer baik
ĠR A
Ġdis posal
t ab
Ġk lu
Ġdiagn ostic
ĠP article
Ġconsum ed
ĠRec ent
Ġsil icon
Ġhur uf
ĠFor ce
ias aan
ĠØ³ ÙĬÙĥ
Ġmemb ership
Ġsal inan
invest ment
3 28
for ward
tribut es
ad ed
comb ination
G ender
Ġmeng adakan
angg ar
might y
ĠØ§ÙĦ Ø²
amb oo
Ġor ders
pro tein
I Q
ul ence
ĠIs rael
Ġvol untary
ercul osis
ĠØ¬ ÙĬ
ĠIt ems
OT H
Ġpener imaan
åĪ Ľ
Ġsusp ended
Ùģ ÙĤ
æĺ¯ åľ¨
ish ah
= .
Ġfabric ated
Ġconc urrently
ID IKAN
ic ide
ev ent
ind ungi
J UR
ĠW aqf
Ġ ï¿½ï¿½ï¿½ï¿½ï¿½
Ġco ffee
åĳĬ è¯ī
K o
ah li
ĠF O
Ġx ii
åł ´
ĠMok htar
Ġmod ules
z im
in ery
åĶ ®
! ï¿½
19 77
Ġs ms
Ġvolat ility
Ġt ends
ĠAd apt
ig us
oss il
R a
ĠM aking
Ġst uff
Ġberf ikir
Ġbl ended
Ġturb ine
Ġan at
elih ara
ĠØ§ ÚłÙĥ
EM B
ĠQ ue
Ġt argets
Ġob jek
ospher ic
y outube
ĠSurvey ing
Ġaj aran
è´ Ł
it arian
ĠBel anda
el ements
point s
ĠK om
Ġacet ate
and on
lu x
ĠAnal ytical
ĠV ideo
çī Ľ
ĠC V
ĠC AP
ĠE U
Ġsummar ized
Ġins ect
F IR
Ġop position
ĠSet elah
Ġle mb
man i
Ch ang
Ùħ Ùĩ
Ġhe aring
ĠØ³ ÙĤ
Ġlay ak
Ġsem ata
K in
ĠI ll
AN U
ĠWh ats
Ġak hlak
Ġdispers ion
Ġj gn
Ġincent ives
ĠV ill
had apan
æĸ¹ æ³ķ
ĠUt ama
Ġadapt ation
ĠJ us
ĠZh ou
Ġliqu idity
3 80
ĠØ³ Ø§Ø¨
ob i
ain ya
An n
engk el
ĠÙ ĭ
Ġcyl inder
45 5
at uran
ĠS oc
ĠF unctional
Ø§ÙĪÙĨ Ø¯Úł
24 2
å¤§ å¤§
B IL
d iss
éħ ±
Ġpredict ing
w ind
ak ses
Ġgr aduate
Ġ14 6
k umpulan
Ġm ice
ĠÙĦ Ùĩ
Ġad ministr
Ġdib awa
ĠØ¨Ø±Ø¨ÙĬ Ø°Ø§
us es
M AL
åıĳ çĶŁ
angk ok
ĠÙ¡Ù ¡
kal o
â Ĺ
Ġdist illed
æĸ¹ éĿ¢
3 000
T L
ĠØ± ÙĬÚł
sh aring
ĠPL A
ĠMich ael
è¯ ¾
ĠÙĦÙĬ ÙħØ§
G old
is lam
ĠTr avel
st on
Ġaccess ible
Anal isis
Ġdepict ed
s pecial
Ġper haps
Ġbers esuaian
eced ents
e or
ul aj
pre vious
ĠâĪ Ĩ
op s
ĠInter est
Ġaccess ibility
Ġblock s
ock et
class ification
elu arga
L ICATION
Account ing
ĠK ir
as as
n in
qu ake
t urn
J ika
Ġper hubungan
Ġban ana
p iece
ĠL EAR
ĠW i
éĢ ı
inter nal
Ġlog istics
om ial
ĠØ¨Ø±Ø§ Ø¯Ø§
Ġind igenous
ĠEx periment
Ġs aling
Ġemploy ers
ĠPort ug
Ġdim as
Ġhe x
Ġvol unte
u o
Ġb oss
Ġb aca
ÙĨÙĬ Ø©
ĠD own
Ġb order
Ġcard i
abric ation
ĠMuz ium
è ¸
Ġguarant ee
â ĺ
ĠØ³Ùĥ Ø§ÙĦÙĬ
Ġbond ing
Ġ ä½ł
ell itus
35 7
Ġm M
qu estions
Ġpredict or
Ġthreat s
Ú¤ ÙĬØ³
ĠC lean
Ġdirect or
Ġch romatography
bal ance
Ġcy ber
ĠÚ¤ÙĪÚ¤ÙĪÙĦ Ø³ÙĬ
ast ewater
Ġseb ulan
ĠI J
ENTI AL
Ġc uring
ep atan
Ġbin ary
ĠC P
ĠPer cent
ĠPend ekatan
s istem
ra ulic
ervis ors
cript s
r ib
èı ľ
ï¼Łï¼Ł ï¼Ł
I QU
ĠF arah
Ġrev ised
Ġset ahun
Ġmak ers
els on
Ġsyn drome
Ġsemp adan
ist a
ĠK it
Ġis other
ĠØ¯Ø¨ ÙĬÙĨØ§
19 76
high light
N ik
abung kan
ĠØ³ÙħÙĨ ØªØ§Ø±Ø§
ĠÚ¤Ø±Ø§ ÙĤ
at uhan
ih kan
ĠOn n
max imum
ĠKes impulan
ĠØŃ Ø§Ø¬
ĠSUR VEY
Ġpregn ancy
ĠØ¨Ø± Ø¨
Ġf ashion
Ġto ugh
E st
im at
ch annel
Ġautom otive
ĠSh ari
Ġposs ibly
Ġsc atter
AND AR
ĠØ¯ ÙĦ
Ġemerg ence
Ġ15 2
load ed
29 5
institut ions
d iri
Ġ16 7
anc hes
Ġ14 8
Ġimprov es
gener ation
Ġpublic ations
ĠSt age
ĠÙĥ Ø§ÙĬ
relationship s
F TIR
Ġhighlight s
an other
c ancer
Ġent ertain
ĠØªØ±Ø§ Ø¯ÙĬØ³ÙĬ
çĸ ĳ
acteri um
res i
28 2
åĪ »
Ġpredict ive
ĠAli as
Ġap art
ä»ĸ åĢĳ
l uk
èµ ļ
Ġcir cular
ad er
ÙĴ Ùİ
ĠÙĥÙĦ Ø¨
Ġaqu atic
- ,
èĤ ²
Ġcapt ured
Ġla unch
Method s
ĠÙĥØ± Ø¬Ø§ÙĬ
Ġco ag
P J
ĠP aris
ĠSur at
b uat
Ġber hubung
Ġkeb enaran
inter action
Ġtum or
kar ya
Ġke cekapan
ĠMat rix
ĠØ³ÙĬÚł Ø§Ú¤
U F
aks ikan
æĭ ¬
ĠBers atu
ĠMans or
26 7
F at
aku i
ar ound
i yah
ĠPro b
ĠÙĦ ÙĨ
ian i
ðĿĽ ¿
ĠLemb aga
ĠPar ameter
å® Ĺ
Ø¨ ÙĪÙĩÙĨ
Ú¬ Ø±Ø§Ùħ
Ġkeep ing
ĠØªÙĨØª Úł
ĠC z
Ġtr iang
ann ot
M emb
åĩº çİ°
Ġco ated
f o
ide a
amp ilan
ĠCon vention
Al hamdulillah
å¤§ åŃ¦
Ġus ahawan
amer an
ang ular
Ġper pustakaan
J un
Ġr h
33 5
An tara
PL S
åħ ©
Ġkeg iatan
Ġsurv ive
d ifferences
ret urn
Back ground
as pek
Ġ- --
ĠÙĪ ØŃ
ep ing
æĿ Ĳ
Ġpract iced
Ġinsp ection
P as
ĠEv alu
through out
Ġget s
Ġgly cerol
doc x
strateg y
individual s
ĠCh ong
Ì ģ
Ġgu y
c ult
Ġsp ons
Ġka un
æĸ¹ å¼ı
ĠT eknik
Ġphil osophy
æľī çĤ¹
Ġansw ered
æľį åĬ¡
art z
ĠCOM PANY
uk uhkan
Ġperb andingan
ed en
ÙĤ Øµ
ĠØ¨ ÙĥØ³
ĠÙĪ Øª
Ġt arikh
Ġdi electric
anj ir
Ġsl udge
æī ¹
O US
Ġas et
lead ership
Ġeconom ics
ĠÙħ ÙĬØ³
ĠØ¨Ø± ØªÙĪ
re ve
iv acy
Des pite
Ġ18 5
Ġro uting
ric es
28 5
Ġpack et
arm ac
Ġoptim ized
ĠIN FORMATION
Ġn isbah
Ġbuy er
ĠJ awatankuasa
Ø¬ Øª
3 40
Ġc art
ĠÙħ ÙĪÙĨÚĨ
respond en
STUD ENT
Ġprov isions
mod ified
Ġmov ements
ĠÙĪ Ø¥
b one
Ġt umb
ĠØ¨ÙĬØ¯ Úł
27 6
et heless
Ġconcentr ated
ĠÙĥØªÙĬ Ú¬
æ³ ¢
en angan
Ġus ability
Ø§ÙĦ Ø³
ĠK eh
emerl angan
ĠV ehic
pl ants
Ġspr ay
R em
è Ĺ
y uar
çĶµ èĦĳ
ĠÚ¤Ø±Ùħ Ø§Ø¡ÙĬÙĨÙĨ
âĪ Ĥ
kr ipt
Ġis land
D ev
s ignal
y cle
ĠR amad
ĠCont ext
Ġsell er
ĠPerk hidmatan
Ġins ert
C F
ĠØ¨ ÙĪÙĥÙĪ
on n
ĠP ara
op edia
Ġkem ampuan
urr ed
st ed
Ġdis el
iev e
K ementerian
ĠÙħÚł ØŃØ§ØµÙĬÙĦÙĥÙĨ
Ġaltern atif
å® ¤
imb ingan
Ġa yah
Ġ17 1
Ġstiff ness
L P
th us
ĠH yd
ear t
Ġberk ongsi
ĠS ent
ĠPr ivate
ÙĪ ÙĦÙĬÙĩ
iz ers
N etwork
50 1
ĠT S
Ġb ath
Ġinstall ed
ĠP AL
æĲ Ń
Ġtak ut
Ġadop ting
hat ikan
ĠForm ation
Ġsah am
Ġmen inggal
K alau
ĠØ§ÙĪÙĨ Ø¯Úł
ĠMot or
Ġ17 3
Ġbe aring
ÙĪØ± Ú¬
Ġre cre
pen yelidikan
X iv
Ġb row
37 4
Ø Ł
ĠJ ul
Ġre kod
ĠØªØ±Ø¨ Ø§Ø¡ÙĬÙĤ
l arge
ÙħØ¨ Úł
ĠJ in
ĠH ay
Ġni at
Ġwat ers
ĠAPPEND ICES
Ġb end
oc ational
ĠEN TREPRENEUR
dil akukan
Ġtot ally
Ġin cl
Ġset tle
ani el
Ġmorph ological
åħ °
m r
ĠK has
Ġr i
Ġre tain
Ġper tukaran
ðĿĳĲ ðĿĳĲ
ĠØ¨Ø±ÙĬ ØªÙĬØ³Ùĩ
è§ Ħ
5 30
Ġm angsa
ĠØª Ø§ÙħÙĨ
Ġdin amakan
ĠAd vant
Ġterper inci
B a
f b
c ara
h ighest
ard ed
ĠØ¥ ÙĨ
Ġconflic ts
Ú¬ ÙĪØ±ÙĬ
28 6
Ġcor relations
ro d
comp liance
I st
ĠÚ¤ ÙĪÙĥ
m obile
ĠPharm acy
ĠT aj
ĠDetermin ants
yuar at
Ġas ymmet
Ġequ ipped
ĠPerson ality
Ġis t
Ġspr ing
LE D
ĠÙ¢ÙłÙłÙ ¨
HARGA AN
ĠJ ersey
Ġdan a
27 9
Ġveget able
ĠF T
au er
èĢģ æĿ¿
ur istic
Ġdef ault
dom ain
Organ izational
è¦ º
Ġcar s
Con struction
Ġact ing
Ġa ureus
ĠÙĥ ÙĪØ±Úł
Ġmel ayu
Ġcons cious
ist ers
Pl ate
Ġres istant
C ost
W al
kem ahiran
ĠB entuk
WE EN
m echanical
for ex
Ġsinc er
Ġassist ed
Ġmeng amalkan
Ġret irement
Ġcompr ised
¢ äºĨ
Ġsem inar
åĽ ´
iv ering
Ġbig gest
ĠEd itor
Ø³Ø§ ØªÙĪ
ĠC d
ĠPRO F
ĠCON TR
å¿ ĺ
çģ µ
ĠT w
Ġmod ul
ĠA F
Ġk ids
ĠPUB LIC
ÂłÂł Ċ
******** ********
z aman
Ġ19 73
ros is
ÙĪÚł Ø³ÙĬ
Ùģ Ø±
Ind ia
ĠD oktor
ĠZ ul
re z
ĠØ³ ÙħØ§
j ad
N ig
h az
Ġkes ejahteraan
ĠA chiev
ĠH ij
ĠWilli am
yz ed
Ġp injaman
Ġw ajib
ov ol
ä¸ ĥ
ÚłÚ¬ Ø§ÙĨÙĪ
20 23
çĭ ¬
ĠX ia
Ġbe ban
ĠG an
Ð ½
Ø³ÙĬ Ø§ÙĬØ³
industr ial
Ġup take
Bl ack
Ġph ones
Ġ19 65
OGRAF IA
G Y
ĠC ourse
åį Ī
Ġkeb aikan
c ritical
Ġl ies
Ass oc
aksud kan
ic ochemical
the tic
ĠSt reet
ongs ian
ä»Ģ éº¼
Ġla unched
ank a
h ost
Ġport al
Ġw al
Ġatt achment
ïĢł ïĢł
k ind
Ġsur ah
just ed
is im
Ġhe aling
Program me
h ani
ĠÙ ĸ
Ġbas eline
market ing
Ġpl ots
Ġreg ime
Ġgel atin
ĠReport ing
est y
V AL
Ġo d
60 5
Ġimm obil
Ġn ya
ĠB us
Ø§Ø¬ ÙĬÙĨ
ĠN Y
Ġfl our
ĠJust ice
ect in
as ana
ĠØ±ÙĬÚł ÙĥØ³
ĠS CH
ĠMal ik
Ġmener uskan
Ġdeb ate
int ention
ÙĦÙĬ ÙĦ
ĠProt ocol
Ġpenet ration
p ent
Ġhe he
P ID
Ġ ï¼Ī
Ġber nama
ĠComput ational
row ing
æ ¤
Ġdis ampaikan
seb ab
Ġion ic
ĠFr iday
åı° æ¹¾
Ġnanofluid s
ÙĨ ØªÙĪ
ĠÙħ Ø±ÙĪ
in iti
in put
Ġn utritional
çĥ ¦
re ason
Ġsl ip
ĠC riteria
Ġn utrition
Ġcompet e
ĠS id
ug i
p enting
ĠT ambahan
app oint
Ġbag us
å¾Ĺ åĪ°
r az
Ġv ote
Ġtrans mit
wh y
ç¶ ²
ĠD aripada
D ari
ĠAriff in
m ond
ĠPers pectives
rom agnetic
ĠØ³ ÙĪØ¯
åĮħ æĭ¬
uk uh
mon itor
Ġrecr uit
ĠSUB MISSION
ĠÚ¤ÙĨØª ÙĬÚł
ĠCon clusions
afs iran
h ur
ĠJ en
Ġdraw ing
Ġm others
Ġantib acterial
set iap
æ¸ħ æ¥ļ
IS M
ĠR C
ĠØ³ØªÙĬ Ø³ÙĬÙĨ
c b
Ġcomp ly
æľ ¨
ĠCom mercial
Ġcontract ors
Gh azali
W AN
éĥ½ ä¼ļ
ac ellular
è© ²
æĭ ľ
K O
ĠSt aff
ç»Ļ æĪĳ
Ġins ignificant
Ġib n
ĠM alah
let t
Ġep oxy
Ġdif ahami
âĦ İ
Ġ16 9
çľ ģ
ĠT anjung
ðĿĳ£ ðĿĳ£
r ates
Ġmen urun
ulaj adi
ĠAct a
level s
ĠÙĥÙĬ Ø±Ø§
ĠØª ÙĪÙĨ
OGR AP
I l
ĠS amples
yp hen
ĠP iala
Ġl iv
% %
Ġprint ing
Ġ15 4
B rown
ĠOffic er
ab e
Ġp ept
ĠÃ §
Ġshap es
æ§ Ł
åı ²
Ġexpl oration
Ġtr ace
cont in
ĠPre vention
Any one
Ġber upaya
Ġcompar able
Ġprom pt
pol icy
Ġhe bat
Ġ19 50
30 7
éĹ ľ
p al
Ø® ÙĦ
M ur
ĠWilli ams
åİ ĭ
ĠWan ita
SI G
å¯ Ĩ
Ġsearch ing
Ġk au
ĠPer iod
ĠØª ÙħØ¨
Ġsol der
ĠIs u
ĠØªØ± ÚłÚ¬Ø§ÙĨÙĪ
ĠCommit ment
inf lammatory
ĠChang es
ÙĪØ± ÙĪØ³
ĠAl b
AN N
sh ort
ohon an
Ġs cient
ĠSD N
åĺ Ľ
isc o
Ġim plant
Ġtub uh
ĠV ery
Ġturn ed
27 3
Ġvent ure
ue z
av our
man usia
ÙĪÙħ ÙĥÙĨ
ïĪł ïĪł
ĠØ¨Ø± Ùĩ
Ġdeter ior
Ġext ensively
Ġ2 20
onom ic
Ġlet ak
ĠS OL
c ode
CR IP
æĥħ åĨµ
Ø¨ÙĩØ§ Ø³
Ġgir l
ĠP d
cor porate
L in
29 7
on an
å¾ ŀ
isk in
36 6
Ġfl o
åĽł çĤº
æİ¥ åıĹ
hib ited
kurang nya
æĪĳ å°±
i akan
ĠØ£ Ø³ØªØ±
F our
Ġarg ue
Ġc as
ans er
ĠØ§ÙĦ ÙĦÙĩ
Ġcomp act
Äģ r
ĠLat ihan
28 4
ĠÚ¤ Ø±ÙĬØ³
ĠM ary
ĠVir tual
Ġin duction
el ang
ut ter
Ġdipeng aruhi
Ġ ic
ĠT ri
d ir
ĠRich ard
Ġann ounc
C OD
ro us
ĠØ± Ø§
Ġ17 7
Ġpros edur
an am
Ġc up
Ġb ill
Ġimp ossible
Ġcall s
ĠT ropical
m j
R o
ENG AN
Ø¯Ø§ Úł
Ø¬ ÙĪÙĥÙĨ
ÙĪØ§ ÙĤ
Ġb orn
Ġpharm aceutical
ar o
ĠR AH
æĪĳ æľī
ir u
har apkan
s ources
Ġestab lishing
ĠWind ows
s cholar
æķ ĳ
le pas
Ġcontract or
A lam
Ġinter mediate
Ġsus ah
ĠAPP RO
ĠØ§ÙĬÙĥÙĪÙĨ ÙĪÙħÙĬ
f irm
3 20
2 19
é¥ Ń
et an
kript if
ĠJ as
ĠMeng ikut
ĠT A
Ġ19 69
Ap plied
Ġderiv atives
ĠØªÙħÚ¤ ØªÙĨ
ow ski
Ġj o
GE OGRAFIA
ĠL M
Ġempower ment
ĠS AM
Ġringkas nya
ĠGu idelines
æī ¿
ĠIN T
pers pective
Ġterp ilih
AN OVA
Ġbukan lah
Ġs ia
======== ========
ĠCond ition
ĠR ural
the ory
est one
end aki
è ¿½
uma at
em erg
ç§ ģ
PENG HARGAAN
NO V
Ġgir ls
Ġ15 6
Ġcar rier
Ġg ad
Ġ( .
Ġassum ptions
em ah
str uktur
U t
ĠØ¯ ÙĪÙĥ
so on
Ġit er
Ġmic roscope
Ġre wards
dem ographic
op ath
ĠYun us
ÂłĠÂłÂłĠÂł Âł
per cent
36 5
Ġinvestig ations
Ġsu ara
f ront
ð Ł
Ġa yam
Ø¨ Ø±ÙĬ
åħ¨ éĥ¨
c alled
ins p
ĠM P
Ġ %)
lim a
è¬ Ŀ
ĠMe asure
Ġper masalahan
att a
ĠØŃÙĬ Ø«
ĠM asa
ĠØ± ÙĨØ¯Ùĩ
Ġberj alan
ay angkan
comp uter
æĪĳ ä¸į
P ener
ĠInstitut ions
Ġreturn ed
Ġk ampus
ĠJ ava
IT A
Ġclos er
Ġcollect ions
angg u
Ø¬ Ø©
åħ §
Ġgen re
cor es
econom y
Ġcomput ers
ĠØ¯ Ø³Ø¨
Ġal ih
Ġexpand ed
Ġtak de
Z A
Ġwit ness
ĉĉĉĉ ĉ
19 75
Ġo ven
est ay
equ ality
ĠØ±Ø§Ùħ Ø§ÙĬ
æĸ° çļĦ
Ex pl
ä¸Ģ èĪ¬
eb ra
Ph il
Ġband width
Ġgamb aran
ĠP eter
Ġt araf
Ġk endiri
Ġmengel akkan
En d
Ġglob ally
ĠM ET
ĠR AM
ĠM M
Ġautom atically
è Ĵ
L ead
rint s
G a
Ġcoup le
j t
Ġmend orong
Ġmal aria
Ġwarr anty
t emp
ind akan
Ġemot ion
ĠAnti oxidant
Ġmeng ukur
Ġbeg ins
Ex perimental
ĠI OP
ort ion
ĠÙħ Ø¨
ĠG unung
Ġsej enis
ĠK os
Ġgr af
Ġb ina
ÂłĠÂł Âł
ĠR FID
Ġyield s
ĠIn stitution
ÙĬÙĨ ÚĨ
Ġcult ivation
R F
27 8
Ġtim ing
ĠM andarin
Ġpredict ors
Ġbin der
air y
Ġbert ambah
urr ence
Ġrecept or
Ġd ewasa
ĠAst ro
ans en
Ġkeh endak
pro duk
ĠÙĦ Ø§ÙĦÙĪ
Ġdik emukakan
r ence
Ġpret ty
ĠÙĩ Ø±
Ġantic ip
ulih araan
F AK
Ġn ursing
Ġ3 60
ĠY ong
40 8
ĠB ilangan
ah irkan
Ġtemp or
è´ ¢
umin ium
bank ing
ĠE mail
Ġdistingu ished
è« ĭ
Ġcr iminal
Qu estion
éĥ¨ åĪĨ
ĠÙĥØª ÙĬÚłÚ¬
Ġaj ar
Ġkeb udayaan
ĠØ¹ Ø±Ø¨
â Ķ
Ka edah
ĠS alam
um at
ĠT enggara
Ġsur gical
Ġsuc ceed
R ujukan
ol usi
Ġun employment
as al
Ġre h
ĠUnivers itas
Ġaffect ive
ĠPAH ANG
B ud
P ay
Ġm ud
Ġdic adangkan
mot ivation
Ġy es
m cm
ik ah
ĠY am
ĠØ§ÙħÙĦ ÙĨ
eb aran
æĪĳ åľ¨
i ating
Øµ ØŃ
ĠG ST
Ġke empat
il tration
ĠT am
l iter
aveng ing
Ġde als
ĠÙħÙħÚ¤ ÙĪ
en i
k it
ab it
ĠSel ected
ĠE astern
Ġmix tures
bl ock
ĠBu ild
ĠSal eh
Ġ ________________
ail a
Ġbel ia
Ġdimens ional
l g
Ġex ports
W alaupun
Ġm olar
Ġp airs
Ġinstruct ions
F requency
ĠØ¹ ÙĬÙħ
ens ed
éĢ Ģ
ĠAm alan
sh aped
Ġberk hidmat
Ġnecess arily
ĠSh uk
ĠÚĨ Ø±
ĠP ast
ĠÙĥÙħÙĪØ¯ÙĬÙĨ Ú½
ĠØ³ÙĩØ§ Ø¬
Ġbr ings
ĠCL ASS
ub ic
ĠØª Ø±ÙĪ
ĠTal ib
ĠØ³ ÚĨ
Ġ ice
ĠÙħ ÙĩØ§
ÙĬØ¯ÙĪÚ¤ ÙĨ
ĠAc cepted
Ġtrans mitted
ĠØ§ÙĪ Ø¯Ø§Ø±Ø§
ort ic
ark e
ĠSh arma
ĠP ilihan
Ġpr akt
Ġpengh argaan
Ġbal anced
Ġsebelum nya
Ø¯ÙĬ ÙĦ
olv ent
b orne
Ġt ambah
olog ist
Ġphenomen a
our cing
AR CH
æ¥ Ń
Ġinstr umen
ĠS AL
æīĭ æľº
ĠS uf
25 1
ĠØ§ Úł
Ġsp in
Ter engganu
Ġ9 00
ĠPL S
M ARA
b io
b iod
29 4
Ġs uggestion
ĠØ§ÙĦ Øº
Ø¨ÙĬ ÙĦ
Ġberk ualiti
ĠF rench
ĠK ang
28 8
b ps
Ġm illing
Ġt uk
ĠW ireless
æ¯ı å¤©
ĠØ³ÙĬÚłØ§Ú¤ ÙĪØ±Ø§
ĠØ§Ø®ÙĬØ± Ú½
ĠØ§Ø¥ ÙĦØ§
em pl
ä¼ ĺ
j emahan
33 7
ĠM end
34 6
ĉĉĉĉ ĉĊ
Ġ18 3
k ipun
ad anan
Ġprot ected
t ogether
ĠFund amental
ĠR endah
In form
Ġcommunic ations
ĠÙħÙĪÙĨÚĨ ÙĪÙĦ
çłĶ ç©¶
Ġdep artments
Ġcop ing
Ġn ic
Ġem pty
çĪ Ĩ
f ly
ut in
ĠØ¬ Ùĥ
ĠK ah
Øª ÙĩØ§
æµ ª
Ġbur uk
r atio
Ġk hal
Ġrec over
el ong
Ġdec ade
ĠRel igious
k ej
int on
Ġfil es
load ing
d at
og ens
ender ungan
x vi
Ġv ast
mm g
V ES
Associ ate
Ġpre v
ACKNOWLEDG MENT
omon as
R as
H ydro
f inal
ĠB ot
ĠCG PA
Ġl amp
Ġbl ess
ĠP OME
ĠÙħÙħÙĨ ÚłÙĬ
Ġent ity
SME s
vol ume
ĠT ables
ä¸ ¥
Ġopp osite
and angan
ĠSwit zerland
oxid ants
ç ¹
ĠAdd ress
Ġcoup led
Ġste am
d one
Ø² ÙĬÙĦ
Ġv arian
ĠBrit ain
ĠPer niagaan
ĠDi abetes
b aikan
Ġamb ient
ĠP ositive
an mar
c z
n u
Ġmat ematik
ĉĉ ĉĉĊ
estab lished
29 6
Ġradi us
Ġpeng ambilan
Ġdifferent iation
C V
ĠØ£Ø³ØªØ± Ø§ÙĦÙĬØ§
ÙħÚ¤ ÙĪÙĩ
Ġcompet itiveness
ĠD ah
F actors
reg ulation
çĶļ èĩ³
Ġm ant
follow ed
erah kan
Ġpro curement
FL U
ĠH adi
Ø¬Ø§Ø¨ Øª
Ġber umur
Ġmes in
æ ¾
ĠUs ed
aus es
ĠCent ury
å¸ Ń
ist or
m ati
Ġa I
ak ibatkan
å¿ħ é¡»
ĠC F
Ġkeseluruhan nya
bi om
ĠB oston
pol itical
Oct ober
ĠO IL
Ġad j
L ondon
f c
t ourism
Ġexpl aining
SI C
t q
an bul
ĠD EF
ĠSt ability
Ġass ume
G IS
ĠT u
Ġper untukan
é¦Ļ æ¸¯
ĠU RL
Ġmeng atasi
angk alan
Ġcontr ad
E H
d c
Ġsc ene
Ġt ong
med ical
ĠYa acob
Ġg ross
eb at
Ġg ases
Ġmen imbulkan
D D
ĠØ¨ ÙĦØ§
Ø£ ØµÙĦ
èİ ·
ul usan
è® ¨
Ġkem ajuan
ku ensi
ĠBER NAMA
çĬ ¶
Ġprolif eration
ĠT imbalan
aj ahan
ron ics
Ġla a
Ġf ederal
cont act
Ġkomp leks
Ġveget ables
ect ious
( ØĮ
ar ely
Ġch ip
Ġkey akinan
Ê ¿
Ġforec asting
ĠVal idity
sec urity
ĠGen etic
I a
Ġdos age
âĢĿ ãĢĤ
Ass essment
éĹ »
Ġconstant ly
ä»¥ ä¸º
ĠUN TUK
fe atures
Ġor dinary
of ten
ĠRep res
Ġdocument ed
ad min
Ġg one
Ġimp osed
Ġpend edahan
el le
Ġy er
ij i
Ġcontr ary
ĠÚĨ ÙĪØ±
P ages
b eberapa
3 19
ï »
Ġcompet itors
ĠVal idation
Ġdiper cayai
ĠG PS
Ġch ose
ĠAd sorption
æľº ä¼ļ
isc al
is ol
Ġr am
28 7
ag ents
ĠPar limen
T EM
H assan
Ġpe ers
âī ¤
Ġt ight
pur pose
26 1
Ġlight ing
Ġpener bitan
ĠDoc ument
Ø¯ÙĬ Ø¯
Ġpartial ly
Ġ2 25
ond a
prov ed
t able
Ġ- >
S outh
ber ry
Ġharm ful
D at
peng urusan
memb rane
or esis
ïģ ¢
Ġnan ot
Id ent
ĠR aw
anc hester
Ġdemonstr ates
Ġrek abentuk
Ġter g
ðĿĳ ī
Ø® ÙĬØ±
åĽł æŃ¤
ara ikan
ĠØ¯ÙĬ Ùħ
[ /
Ġoxid ative
L og
Ġt iba
UD A
Ġorganis ms
red uction
ĠN ak
f an
Ġp addy
im as
ess ential
Ġj d
trans port
ĠC art
ĠMan usia
æľĢ å¥½
æ¿ Ģ
33 6
eful ly
Ġep it
is d
35 5
ĠØ¹ ÙĪØ§Ùħ
éĤ£ è¾¹
Ġmah asiswa
Ġappoint ed
ĠComput ers
sequ ences
Ġprof ession
ïģ ±
ker jasama
EX ECUTIVE
id angan
id ance
Ġaccording ly
ap se
éĵ¶ è¡Į
P b
Ġpropag ation
o is
s ar
dem and
Ġg aps
ĠØ¯ Ø§ÙĪ
34 8
ĠPRO GRAM
ĠH P
Ñ ģ
Ø¯ÙĬ Ø§ÙĪ
ĠPro c
ĠØ§ Ú¤ÙĬ
Ġdim iliki
ĠØªÙĬÙĦÙĬ ÛıÙĬ
l agi
Ġen rol
å¦Ĥæŀľ ä½ł
ÙĤ Ø³Ø§
ĠPl ot
ĠØ³ ØªÙĪ
è² ·
Ġver ify
m agn
Ġïģ ¡
Ġh ole
op las
ĠS qu
ĠA CC
ĠT ES
æ´ ¾
der ived
b il
Ġt it
Ġfo am
ĠOcc upational
Ġh am
ĠJ oint
R aja
at usan
Ġer osion
Ġ uj
c ourse
17 57
ing in
ro lysis
Ġcomplic ations
Man akala
ĠØ¨Ø±Ø¯ Ø§Ø³Ø±ÙĥÙĨ
Ġproduct ive
Ġ angk
ak ers
Ġparad igm
Ġmemp elajari
éľ ²
S F
Ġon going
åĽ Ń
Is sue
Ġte eth
Ġle aving
ĠOr th
Ġ âĢ¦âĢ¦âĢ¦âĢ¦âĢ¦âĢ¦âĢ¦âĢ¦âĢ¦âĢ¦âĢ¦âĢ¦âĢ¦âĢ¦âĢ¦âĢ¦
ĠCont ents
s ustainable
emp adan
Ġmenj alani
ĠMus ic
ĠÙĥÙĩ ÙĬØ¯ÙĪÚ¤ÙĨ
Pro ceeding
S eterusnya
n l
ĠExpl oring
Ġwork force
Ġn uclear
åĪ ¥
ipl ines
Mel aka
Ġker as
æĽ´ å¤ļ
Ġmem or
Ġd uct
Ġnatural ly
Ġperm ulaan
AT U
Ġsu ffer
/ ,
Ġbro ker
Ġpeng uasaan
ĠT re
i ayaan
s imp
Ġag en
Seb agai
ĠØ¹Ø¨Ø¯ Ø§ÙĦ
æ¯ ķ
ĠP ID
ar se
Ġd uduk
ĠE vent
ĠH ypotheses
Ġappar ent
åĶ ±
E ast
ĠÚ¤ ÙħÙĬ
ĠC ast
ĠPro ceeding
ĠSya z
Ġker ing
ĠIn put
Ġmen cer
ĠØªØ±Ùĥ ÙĬØ§
B il
ĠL R
ç¾ ¤
ĠL IMIT
ipt aan
ĠI F
Ġber operasi
uc i
Ø±Øª Ø§ÙĬ
Ġalign ment
ĠÙĥØ§Ø¯ Ø£ÙĨ
ĠB P
ik atan
ÙĬØ³ Øª
æ¸¸ æĪı
ĠÚ¤ÙĨ Ø¬Úł
Ġmaks imum
Ġfl ash
ØŃ ÙĪ
Ġiniti ated
c ases
Ġabund ant
CO P
Ġcare fully
ĠSecond ly
Ġdib incangkan
èĤ¯ å®ļ
Ġdil ahirkan
Ġsom ew
m os
Ġ ilm
Ġto long
ĠÙĥØªÙĬÚłÚ¬ ÙĬÙĨ
ĠTool s
ul er
é¡ Į
d ensity
ĠSup ervisor
r ag
op oul
peng alaman
sc ore
åİŁ æĿ¥
ç ĳ
Úł Ø³Ø§
av ailability
sing le
Ġc emerlang
anc ies
Ġoccup ational
ĠMe eting
Ġintegr al
ul ut
ĠIn tr
ĠR OS
Ø¬ ÙĪØ§ÙĨ
Ġt unjuk
S everal
IT E
ber kaitan
D etermin
ĠB OD
Ġdevelop ers
Ġsurve ys
å¯ Ł
Ġreal ize
ĠMemb rane
35 9
ĠBank s
Ġweak nesses
F ebru
uc os
ur ch
ÙĨ Ú¬
Ġpen ubuhan
ill ance
Ġflex ural
Ġper ceive
ĠPub lishers
ĠR um
K ed
es c
ig e
ĠÙħ Ùĩ
Ø® Øµ
Ġc enderung
Ġtrans parency
onom ous
Ġinstall ation
Ġch ains
RE FID
ĠNov el
ac ious
ĠG i
J an
ÚłÚ¬ ÙĬÙĦ
Ġcert ification
Ġout break
Ġfat wa
ĠDav is
ĠR andom
Th ailand
Ġwall s
ĠD ur
ĠM iller
zz le
Y L
ahan kan
Ù¢ÙłÙ ¡Ù
åĪ Ĵ
ĠB HD
ĠÙĩ ÙĬØª
i aga
add ed
are as
è° Ī
ĠK ualiti
Ġseh ari
uk e
ĠM EN
Ġs ihat
Ġobstac les
Ġp iawai
IT S
ç¿ »
G EMA
et o
èģ Į
Ġvir al
Ġjump a
ump ulkan
ĠClim ate
èµĦ æĸĻ
Ġ urg
ĠÚ¤ Øª
ab u
åıª èĥ½
Ġpor osity
ukup i
ĠØ¬ Ø§Ùħ
olv es
ĠED UC
ĠD EC
Ġhuj ung
Ġberk ahwin
l ength
ĠEqu ipment
Ġphys iological
uh i
ĠM I
ĠCurrent ly
IF IC
Ġo ks
ĠEx amination
å «
å¤§ é©¬
ÙĬ Ø±Ø§
Ġut ility
S ah
Ã ¢
Ġemp ir
ĠElect ric
ÙĪÙĨ ÙĪÙĩ
UC TION
Ġsolv ed
ambah baikan
5 50
éĽ ª
a iri
AP S
ID E
ĠSet ia
ĠC ash
Ø§ÙĦÙħ ÙĬ
Ġconn ections
ÙĦØ§Ùĥ Úł
ĠS ap
Ġk asi
ĠSc ore
Â ´
ac cept
emb le
B io
Ġc hemistry
Ġval ve
g re
ĠØ³ Ø³Øª
é¡ ¹
åł ±
ĠShop ping
ĠÙĦ ÙĪÙĥ
ĠR F
Ø§ÙĨÚĨ ÚłÙĨ
Ġberh ampiran
uk ul
ex isting
meas ures
aintif ik
Aug ust
ĠØ± ÙĪØ³
g old
Ġt untutan
oh an
app y
Ġger akan
. /
Ġs ad
Ġper taining
Ġcor pus
äº§ åĵģ
S ig
Ġbeliev es
Ġtransl ated
33 4
ATI NG
Ġpener bangan
ut ers
oo oo
ĠCy ber
l igation
Ġw anna
Ġub at
ĠØ¯Ø§Ø¯ Ø§ÙĥÙĨ
Ġgr adient
ĠEm b
Ġv iability
Ġmat ching
ç´ §
Ġpet ang
Ġper umahan
at on
ay asan
ĠâĢ ķ
å°± å¥½
c riteria
Ġt eb
per g
ĠÙĦÙĬ Ú¬Ø§
Ġsesi apa
ĠS uz
Ġde emed
ĠÙĥØ§ ÙĥÙĬ
FullRec ord
33 90
Ġb ow
K ET
p ener
Ġd al
Ġmah kamah
R ay
Industr ial
ass um
ĠMal acca
Ġmat urity
Ġmengg antikan
Ġh ukuman
ĠÙĥ ÙĦØ³
ĠY an
pres ence
ĠF eb
az z
Ġcatal ytic
ang a
col lected
ro te
TI M
Ġw is
ĠFau zi
object ives
d ing
30 2
ĠBET WEEN
be an
Ġqual ities
k tr
ĠK A
Ġmen angani
ĠÙĨ Ø§Ø³ÙĬ
Ġencounter ed
M d
ĠK itab
ek alan
Ġstret ching
ÂłĠÂł ĠÂłĠÂł
LEC TION
Ġspl it
Ġmen u
Ġcontract s
Ġtransform ed
SU PERVISOR
ĠV ent
ok en
ĠCal cul
Ġille gal
ĠBl ue
Peng urusan
ÙħØ¨ Ùĩ
L M
Ġ19 5
ĠS equ
Ġag es
ĠElect ion
ĠAB C
å± Ĥ
I EEE
Î µ
prof ile
Ø§Ø¯ Úł
support ed
ul atory
ĠZ aman
lamm ation
do es
S UB
Ġlib eral
g ender
Ġmoment um
h ai
Ġbuy ers
ĠP os
ĠØ¬ Ø§ÙĪØ§
æ° ¸
erd ekaan
ĠP rior
ĠØ¨ ÚłÙĥ
Ġconver gence
Ġsc ored
Ġpur pos
Ġrem ark
å¼ Ħ
issert ation
ĠAp ple
R C
s yarat
ad ilan
ä½ł åı¯ä»¥
ĠF ollowing
op ing
Ġcomm od
Ġtop ik
Ġseg ments
Ġs emb
act ional
Ġexpl oratory
p read
è´ £
Ġp c
Ġwor st
ed es
30 1
34 9
Ġsemp urna
ĠÙĦ ÙĪÙħÚ¤
aph yl
ĠCl uster
0 50
ĠT arget
ĠD A
ÙĪÙħØ¨ ÙĪØ±
Ġt urning
w azah
Ġn af
Ġ15 8
Ġt y
ig an
ult ur
Ġmicro organisms
r h
Ġsh orter
su itable
Ġnas ihat
ĠAppend ix
Ad v
. ]
Ġr ak
ĠØ§ÙĬ ÙħÚ¤
kal angan
M ach
Ġsol uble
Ġz eol
ĠØŃ Ø§ÙĦ
Ġsuggest ing
amal at
ath i
ÙĪÙĩ Ø±
Ġmene kankan
ĠT ask
Ġ18 1
) ).
ĠN eed
ĠÙĥØ± Ø¬Ø§
ĠÙ¢ÙłÙ¡Ù ¤
ĠP AN
Ġmel ting
Ġimportant ly
h our
Ġvari ability
Ġed itor
f luid
Ġk urikulum
ä¹ Ŀ
Ì ħ
Ġv ivo
ic ill
ĠFil ter
Ġh ypothes
Ġsem icon
ĠAg ar
Ġdeath s
Cited FullRecord
ĠD ip
å¥¹ çļĦ
æģ ¶
ĠP y
Ġhe ar
Ú¬ Ø§ÙĨ
ul os
EC D
ediat ric
ĠN ursing
ĠM ont
Ġe h
Ġ4 50
to ols
ĠDat abase
Ġsy ariah
Ġ17 2
Ġsah abat
ĠOffic ial
et ua
Ûı ÙĬØ¯
lik ely
astic ity
pl anning
Ġout door
J a
stat istics
Ġinf rastr
Ø§ÙĦ Ø¯
pos ing
ĠRet urn
F emale
success ful
Ġinterpre ted
Ġaut onomy
Ùħ Ùī
ĠP reliminary
Ġz ones
ovol ta
Ġmer ely
ĠL ay
æĥ³ è¦ģ
Ġcent ers
Ġinform an
5 000
ĠD ub
pen yel
Ġautom atic
ĠØ¨ Ø§Ø¯ÙĨ
ĠMod ified
Ġdirect ed
ac co
ĠCon stitution
ïĭ İ
Î Ķ
ĠL E
Ġken af
ump ang
ĠÙ¢ÙłÙ¡Ù ¢
ĠG ame
Ġ19 0
Ø¨ ÙĪÙĩÙĥÙĨ
Ġelectroly te
le ft
Ġk riteria
Gener ally
Ġt ukar
Ġconver ter
Ġst ere
Ġincub ation
est a
oc o
Ġtung gal
ĠR oot
EC TS
Ġstrength s
Ġlot s
d istance
iv asi
ĠL atin
Ø§ÙĨ ÙĪÙĨ
ĠÙ¢ Ù¥
et ime
KEL AS
ĠA q
Ġoutput s
ĠM n
ÙħØ§ Ø¹
er ating
Ġelektr onik
Ġend s
ĠZh u
) ï¿½
Ġless er
b ila
Ġak al
Ġ16 2
G H
Ġsim bol
ear ly
Ġo vers
up on
Z Z
ïĥ ¨
ĠT amil
ĠF IVE
Ġrepe at
ag ation
Vari ables
t entang
7 50
ĠK ami
ĠYou Tube
ir th
Ġkep elbagaian
ĠÙĪ ÙĩÙĬ
Ġdil aporkan
K ej
ĠG reat
PS O
Ġretriev al
Ġbound aries
éŃ Ķ
Ġrespir atory
Ġsubstr ates
ort ex
ĠCon duct
TA IN
èĥ½ åĬĽ
Ä ĩ
ĠJ er
ter masuk
ĠT ujuan
ĠR eh
ĠIntegr ation
æī £
Ġint ensive
proses an
ne aling
ÙħÚ¤ÙĪØ± Ø§ÙĨ
O A
arm ing
ĠBi os
Ġb ands
ĠÙĥ ÙĦÙĨ
im etric
Ġmet abolic
Ġelimin ate
ag ihan
28 1
J P
k ins
f ive
ĠI bu
UAL ITY
reg n
åī §
itch en
29 8
Ġmes ej
en ch
Ġper f
Ġun treated
ĠAl ternative
ides pread
Ġr enal
ex amin
AR ACTER
ÂłĠÂł ÂłĠ
ĠUm um
ic le
è¿ ·
Ġslow ly
+ ,
Ġperj anjian
ĠÙ£ Ùł
g ency
76 2
roph ot
on z
id ine
aft aran
Ġterj emahan
Ġkom ers
isk inan
uc ing
ĠAp p
ĠAk tiviti
ĠB uku
ĠØ§ ÙĨÙĬ
Ġas pir
ĠIND USTR
Ġc avity
Ġf ever
ĠL am
Ġbe kalan
æĿ ±
s ay
or em
ĠP osition
eng lish
( ï¿½
S ES
ĠU UM
n ature
alleng e
Ġwalk ing
Ġp us
Ġend ed
tr ust
ĠFat imah
ĠB rief
ac ry
Ġdepend ence
ĠØ¹ ÙĨØ¯
gu yen
Ġet ika
ĠA id
Ġseri us
d ynamic
Ġdo ctor
id ual
Ġpurch ased
ĠÙħÙħ Ø±
Ġemb ry
ĠRequ irement
ĠØ§ ÙĦØ§
Ġge ographical
b idang
UN C
Ġex cluded
ä¸ ¾
Ø³ÙĬ Ùĥ
particular ly
Ġwor se
H is
Ġt ur
ĠÏ ĥ
w est
Ġmemas uki
ĠØ¨Ø± Ø£ØµÙĦ
è¿ĺ æ²¡
ç»§ ç»Ń
Ġpr ime
ed ge
l on
ab ove
Ġfor ex
æ¸ ©
Ġam ik
è½ ®
Ġtermin al
Ġker angka
ĠPem er
ch allenges
29 3
ĠHak im
W W
Ġf enomena
ĠRe ferences
ĠÙħÚ½ Ø±ØªØ§ÙĬ
m ates
ĠK assim
ØªØ§ Ø³ÙĬ
Ġpeng el
Ġ18 7
Ġinvestig ating
ĠS is
pt on
Ġstress ed
c ool
Ø±ÙĪ Ùģ
ĠAct ive
Ġall oys
Ġ20 3
ĠÙĥ ØªØ§Ø¨
Ap pro
Ap plication
ĠG iven
conf idence
whe ther
36 8
Ġutil ised
Ġp ens
Ġac ademics
ĠI PT
ĠJ awi
ĠCh airman
Ġc ater
Ab strak
Ġhab its
Ġenj in
Ġproport ional
åĳµ åĳµ
ĠC her
ester ification
Ġd B
Ġcrop s
w all
åį ļ
ĠL A
ys es
pr ice
out hern
ES CO
ĠÚ¤ÙħØ¨ Ø§Úł
ĠMov ement
Ġat oms
ĠÚ¤ Ø¬Ø§Ø¨Øª
å¸ ģ
W illi
Ġfin ished
Ġkem ungkinan
er it
ãĢĤãĢĤ ãĢĤãĢĤãĢĤ
Ø§ÙĬ Ø©
æīį èĥ½
Ġmic roscopy
Ġphen ol
çī¹ åĪ«
Ġadmin istered
Ġdistribut ions
W ORK
ĠRe action
Ġcl ot
amp ai
Ġhop ed
H ead
Ã¡ n
member ikan
Ï Ħ
Ø· Ø©
iling ual
Ġsolv ents
f oot
Ġcor rel
erc ise
av ed
ih i
prov ides
ĠB all
ĠSt d
33 9
is ations
ament als
ÙĦÙĬÙħ ÙĬÙĨ
Ġ16 8
opt im
V C
ad der
Inter Product
erd asan
Non InterProduct
ExcludeIfFrom NonInterProduct
ĠB angunan
k lu
åº Ń
ĠÙĥ ÙħÙĨ
ĠAfr ika
Ġfoot ball
S elf
ĠØªÙĬ ÙħØ¨
ĠParticip ants
Ġang in
ĠF ah
ÙĬØª ÙĦ
ĠSur gery
Ġd ens
ys acchar
ÚĨ ÙĪ
ĠKel u
ĠØ§ÙĦ Ø¬
Ġcent rif
ĠP egawai
ĠÙ ©Ù
Ġjual an
? âĢĿ
re action
ĠChrist ian
O X
LO W
Ġkel ihatan
80 21
ĠMat ematik
E p
ĠR un
li um
memb antu
Ġt eknikal
Ġter lebih
ĠØ± Ø§ÙĨÚĨÚłÙĨ
ĠØ¯Ø£ ÚłÚ¬Ú¤
he p
40 6
Ø¯ÙĬ Ø©
ĠMad am
sol id
Ġin adequate
ai h
har usnya
01 20
z iah
ĠÙĦ ÙĦÙħ
Ġme al
Ġsac rific
ĠP ihak
æĺ¯ åĲ¦
ĠÎ µ
IS E
Ġmole cule
Ġn orth
27 2
æ° £
æĺİ çĻ½
, %
f iz
li e
Ġparticip ating
Ġprotocol s
ĠIS BN
Ø¯ Ùī
Ġmot ivate
Ġdef end
L ampiran
Ġmean ings
Ġ( )
Ġl apan
ĠPlant ation
ĠE S
ĠF ilm
ĠK y
å® £
ES EM
dr iven
ïģ ¬
ocomp osite
Ġmen olak
3 16
RE AD
Ġattract ed
ĠImport ance
Ġeff luent
ĠSem ester
ĠG round
Ġrel ates
ax y
comp arison
ĠO C
çĮ «
Val ue
ic ular
Cor porate
Ġrun s
pr imary
Ġsupport ive
æµ İ
æĬķ èµĦ
ĠK H
Ġhy pertension
it ems
çľĭ äºĨ
Ø¶ ÙĬ
Ġw aves
Ġpeng ukuran
Ġïģ ¢
chang ed
ĠÙĥ ÙĪÙĦ
28 3
ĠKeb anyakan
ĠØ³Ú¤ÙĬ Ø³ÙĬØ§ÙĬØ³
ĠD un
Ġprecip itation
á¹ £
ĠB ert
ĠV ariance
ĠØªÙĬ ÙħÚ¤ÙĪÙĩ
Ġmov ed
Ġc u
ĠØª Ø±ÙĪØ³
hl uk
i am
ĠInd eed
AK IM
ĠÚ¬ Ø±ÙĬ
âĦ ¢
ic ago
al ur
Ġex ecutive
ä¸Ģ åĪĩ
ĠÚĨ ÙĪÙĨ
EW ORK
AM AN
Ø§Ø± ÙĬÙĨ
r ip
ĠØ¯ ÙĪÙĨ
ĠÙ¢ÙłÙ¡Ù £
Ġreg ulating
ĠPharm aceutical
Ġalumin um
L ong
Ġvir t
Sup port
ĠD as
ĠØ§ÙĦ ØªÙĬ
ïĤ §
Ġsup posed
ĠØ§ÙĦÙĦ ØºØ©
Ï ģ
ĠI q
Ġz on
Ġs outh
Ġ18 9
è¦ ĭ
peng ajaran
Ġbur ung
ĠØ§Ø® ÙĦ
ĠAH MAD
ĠMex ico
Ġspe aker
ĠB eberapa
ĠOrgan ic
Ú¬Ø§ ÙĪØ§ÙĬ
ĠD al
Ġreal ized
ÚłÙĥ Ú¤
Ġprec ision
str ate
continu ous
FullRec Page
ExcludeIfFrom FullRecPage
ch a
ĠÙĪ ÙĩÙĪ
ä¹Ł åı¯ä»¥
ĠC B
se x
Ġfact ory
Ġdim aksudkan
Ġin let
ĠÙħÙħØ¨ Ø§ÚĨ
ÙĪÙĥ ÙĪÚł
dij alankan
L iterature
en j
Ġpemboleh ubah
Ġther apeutic
ish a
ĠK ER
Ġprec urs
at iveness
C urrent
Ġke usahawanan
Ġro d
av ement
ĠÙħÙĨÙĪÙĨ Ø¬ÙĪÙĤÙĥÙĨ
ĠAl or
Ġlook ed
Ġselect ive
ĠÙħÙĪØ¯ Ø§
Ġs ides
Ġin oc
ment ioned
Ġmeny ebut
èĩª çĦ¶
ĠPent adbiran
ĠPet aling
ĠPerb andingan
ĠØ¨ÙĬÙĦ ÚłÙĨ
cr y
ung gu
Ġorder ed
Ġc ec
Ġpeny anyi
ÙĪÙĨ ÙĥÙĨ
Ġexact ly
ĠS of
Ġpeng angkutan
LE CT
eng ine
ĠØ¨Ø¹ Ø¶
aj ang
ĠÙħ ÙĬØ±
ker ajaan
ĠÚ¤Úł Ø§Ø±Ùĩ
ex pert
Ġpemb aca
ĠF ailure
str ongly
éĿ Ļ
ĠL iverpool
Ġad mitted
ĠY emen
ĠIN S
Ġkel emahan
ĠEx amin
3 11
ĠðĿĳ Ĳ
ĠPRO CESS
Ġsek urang
Ġter hasil
az e
ĠCl oud
T un
alu ed
Ġbay aran
educ ational
b uk
r educe
Ġr up
Ġclin ic
Ġdit awarkan
Ġkar bon
Ġprec ise
Ġtalk ing
h ospital
um ina
Ġpro long
ĠØ§ÚłÚ¬ ÙĪØªØ§
Ġb reat
åŁº æľ¬
Ã °
Ġintegr ate
opport unities
AJ AR
Ġmark er
Ġv ice
end or
Ġmem egang
ĠØ§ Ø§
Ġdec ent
ĠFor um
yst er
Ġ19 1
Ġt aburan
Ġsc al
36 7
Ø§Ø±ÙĬ Ø³
Ġlack ing
æ³¨ æĦı
Ġdr inking
Ġtre mend
Q J
c ard
Ġun ity
Ġhy giene
rel and
éĮ ¢
Ġquot ation
ÙĦØ§ÙĨ ØªÙĬÙĤ
åĢ Ł
ÙĬØª Ùĩ
ĠAl mighty
S IS
Ġpict ures
è ľ
ĠN ab
36 4
ĠM IS
Ġgel ombang
Ġmemper kenalkan
ðĿĲ¼ ðĿĲ¼
em ahkan
th ly
och astic
r umah
in in
ag ang
ĠÙĦØ§ÙĦ ÙĪØ§ÙĨ
ĠÙħ ÙĪÙĨ
az hab
ĠMod e
ĠCons ult
ĠR oss
omp son
ïĥ ¦
ĠISLAM IC
Ġair craft
os cop
Ġpast e
éĢĻ åĢĭ
AM EWORK
struct ures
ĠÙģ ÙĤ
ðĿĳħðĿĳħ ðĿĳħðĿĳħ
Ġye ast
Ġak ses
Ø§Ùĥ ÙĬØª
ðĿĳ¡ðĿĳ¡ ðĿĳ¡ðĿĳ¡
li ers
ĠAuthor ity
ĠLiqu id
Ġdib andingkan
ĠÙħ Ø§ÙĬ
R P
bi ological
Ġampl itude
av ily
Ġsym met
Un it
B rit
ĠÙ¢ÙłÙłÙ §
ĠÙ¢ÙłÙ¡Ù ¦
Ġmem inta
Ġcor por
âĸ ł
Ġmak lum
ĠOBJEC TIVES
33 8
' -
I lm
ar um
å¿ Ĺ
Ġcal ibration
L ife
reg ion
Ġf ossil
el anjaan
Ġinf rared
perim ents
è Ĺı
EC TION
ĠÙħÙĨ ÙĨØªÚł
Ġsep aruh
Ġdib entuk
Ġen rich
éĺ ³
Muh amad
P ulau
Ġtrans f
Ġsens ory
Econom ics
ex tr
ØªØ§ ÙĩÙĨ
Ġwind ows
Ġ16 6
ik kan
ÙħÚ¤ ÙĬØ±
if a
ÙĪÙĩ Ø§ÙĨÙĨ
un o
Ġkeg agalan
ä»¥ åıĬ
Ġhe d
ĠÙ¢ÙłÙ¢ Ùł
ĠIn stant
ĠØ¨ ÙĦØ§ÙĥÚł
Ġexcell ence
Ġsekal igus
EN ESS
è¡ ¥
b ond
ĠØª Ûı
ph ones
Ġoper ated
ĠF ocus
emp has
Ġg angguan
Ġcons ensus
Ġcardi ovascular
ç» ĥ
ĠK ur
op sis
ur acy
ĠS ad
Ġp atch
Ġm aps
äºº æ°ĳ
ĠC ategory
Ġperme ability
Ġt angg
own ed
diff icult
ĠØ¨ ÙĪÙĥÙĬØª
Ġsep at
èĻ ĳ
KE TING
c amp
26 2
ĠÙ¢ÙłÙ¡Ù ¨
ĠWork s
Ġmemper lihatkan
ul as
st atic
ĠØªØ± Øª
K hal
Ġhold s
ent uh
Ġpeng arah
éĽ ¨
ĠCz ech
aj ak
Ġdoct ors
3 99
Ġun w
ĠR ock
ĠL iga
æĢ Ģ
çĽ Ĭ
A min
N an
Ġap optosis
ĠTO WARDS
S ee
15 00
Ġhus k
ĠCon tribution
seb elum
ile t
ENC Y
Be fore
tah ap
st ore
ÙĬÙĨØª Úł
çĨ Ł
r ine
ĠS ementara
Ġl isan
Ġrev olution
ä¸Ģ å¤©
Ġhab a
66 6
ĠØ¯Ø§ ØªÙĪÙĤ
es ian
ĠEst imation
Ġasal nya
b f
Ġ3 000
ah ul
ĠR enewable
pre c
lah ir
ĠØ³ ÙħØ¨ÙĬÙĦ
ĠMes ir
ev idence
Ġsoci eties
re ference
äº ī
ĠÚ¤Ø±ÙĪ Ú¬Ø±Ø§Ùħ
æģ Ĳ
Ġdrop ped
Ġl ymph
Per ceived
Ġj awab
Ġrout ine
arm on
reg arding
Ev aluation
tBUz oz
ĠÙĤ Ùħ
H L
? .
ĠT eh
peng aruh
ÙħÙĬ Ø§
Ú¬ Ø³
Ġwithdraw al
Ø· ÙĦØ§
å¨ ģ
Ġoccurr ing
ĠEnt repreneurial
od ynamic
å½ ķ
ĠØªØ±Ø§ Ø®ÙĬØ±
uls ory
onj ol
id isc
c ak
Ġdi amalkan
is ikan
ĠB oy
Ġre vers
u w
Ø§ÙĪ Ø³
Ġgr and
Ġst ores
Ġphys ically
Ġis yarat
al ina
Ġgener ator
br and
Ġconstitu ents
% ;
ĠBl ood
Ġtum our
ĠØ¨ Ø§Ùĥ
Ġbr ight
Ù ĺ
ĠE A
Ġj iwa
V OL
ÙĬ ÙĬ
rel igious
ç½ ª
over ning
m ir
th ird
Ùģ ÙĪØ±
ĠAg ree
Ġge omet
per ingkat
Ġt ugasan
Ġd aging
ĠØ¨ ÙĨØ¯
6 50
m n
UM AN
0 24
Ġgather ing
ĠT ensile
ĠØ§ØŃÙĦ Ø¯ÙĬØ«
Ø§ÙĦÙĬ ÙĤ
EF F
ĠI g
çģ ¯
ĠØªØ¹ Ø§
æĪĳä»¬ çļĦ
Ã³ n
ĠÙħÙħØ¨ Ø±ÙĬÙĥÙĨ
Âº C
ĠOpt ical
S atu
ĠÙĨ ÙĪÙħØ¨ÙĪØ±
Ġtal ent
ystall ine
oc yan
W S
H ard
å½± åĵį
Ġch at
t imes
ac ana
Ġinflu ential
res istance
ĠWork shop
Ġlegis lation
ĠU mar
ĠØªÙĬÙĦÙĬÛıÙĬ Ø´ÙĬÙĨ
Ġsu asana
ĠUt usan
3 75
Ġdi letak
Ġcon sequently
Ġec ological
Ġs isi
om in
ĠD ifferences
disc iplinary
é ŀ
per ception
åİ» äºĨ
meny ebabkan
Ġ ucapan
ÙĦ ØŃ
ĠK anak
Ġseri ously
ĠRec ognition
us a
Ġk ac
T X
èĲ ¥
Ġe co
ÙĦÙĬ Øª
Ġsmart phone
Ġconstrain t
ĠA ku
ĠB lu
Ø§ÙĦ ÙĬØ©
Ġperb elanjaan
ĠO S
E very
ut ation
ĠØ§Ø¥ÙĦØ³Ø§ÙĦÙħ ÙĬØ©
ct oral
ĠÙħ Ø§Ùĩ
ov ers
æī¾ åĪ°
ĠLEAR NING
ĠDom estic
ex periment
Ùī ÙĨ
ol o
d est
or iginal
arah kan
l oss
ĠØ¨ ÙĪØ§
ass isted
G L
tain s
ĠAg ro
Ġkeb olehan
ĠØ±ÙĬÚłÙĥØ³ Ú½
Ġb read
Ġcover ing
Ġl ingk
ĠÙħÚł ÙĬÙĥÙĪØª
Ġw ing
Ġhe ated
mon itoring
prop ylene
Ġvolat ile
38 9
ĠPalest in
K am
y on
ÙĪØ³ ØªØ±ÙĬ
Ġdet ector
Ġult imately
ĠRe ynolds
ç»Ļ ä½ł
Ġfall s
d ivid
col lect
27 1
ĠRE PORT
Ġpr ayers
N az
Ø±Ø§ Ø¯
Ġl upa
AR AH
ĠÚ¤ÙħØ¨Ø§Úł ÙĪÙĨÙĨ
Ġvac uum
ĠÙĩ ÙĬØ¯
B oth
Ġpay ments
con crete
oul der
Kh air
= "
le b
ĠD ig
ĠMEL AKA
ĠÙħÙĨ ÙĬÚłÙĥØª
r ina
is yah
Ġdis advantages
Ú¬ÙĨ ØªÙĬÙĥÙĨ
ĠÛıÙĬ Ø¯ÙĬØ§ÙĪ
ĠT urb
D ue
ĠI BS
Fin ance
u askan
Med ical
çŃī çŃī
ĠC am
rol ogy
Ùħ Ø¹
Ġlat ent
K al
Ġker osakan
hid up
èı ¯
ĠN J
end ar
Ġpi eces
åĨ ²
ut ting
W est
ĠC ook
Ġmin erals
ĠÙħÚ½ Ø§ØªØ§ÙĥÙĨ
Ġcel ebr
add ress
Ġmet aph
Muslim s
ig ar
ĠØ¯Ø³Ø¨ Ø¨ÙĥÙĨ
Øº Ø±ÙĬ
ĠØ± ÙĨ
Ġco operative
Ġgr avity
Ġ erg
ÙĦ ÙĪÙĥÙĨ
oc l
Ġdipl oma
y M
In s
Ġperl indungan
ĠK g
ĠH aj
Ġdib uka
ĠSen ior
æľ Ŀ
é© ¾
ï ¹
ĠL ic
; ;
az on
ay y
Ġmah al
Ġf ell
Ġdis okong
t empat
aw aran
Ġmass ive
Ġker nel
ij ing
Ġautom ated
ot ik
Ġl amin
éª Ĺ
ash a
Ù¡Ù ¨
ĠM aha
Ġter uk
ush ing
Ġappoint ment
ph al
Ġaccur ately
ä¸» è¦ģ
Ġwater mark
aka unan
ĠÙ¢ÙłÙ¡Ù ¥
" ï¿½
di agn
ĠSt art
Ġd ek
ĠØ¨ Ú¬ÙĬÙĨØ¯Ø§
Ø±Ø§ ÚłÙĨ
39 5
Joh or
Ġorient ed
ðĿľ Į
consum ers
æľī çļĦ
ti ers
åħ¶ ä¸Ń
Ġlet ters
ĠL ai
ĠÚĨ ÙĪÙĨØªÙĪÙĩ
ot ensi
Ġsk rg
O ff
Ġmin uman
xy gen
eld a
indic ated
ĠInform atics
ach ate
Sel epas
A ud
v ar
36 9
Ġeks perimen
Ġreh abilitation
Ġt een
ĠWil son
ĠØ¹ Ø§ÙĦÙħ
yl ogen
Ø¯ ÙĦ
æĭ Ľ
ĠSH AH
å¦Ī å¦Ī
Ø¬ Ø±ÙĨ
ĠDES CRIP
Ġbr anches
é ĨĴ
ic inal
Ġvi able
Ġar bit
ĠÎ ¸
d isease
Ġâ ĸ
Ġaccess ed
Method ology
ÙĪÙĦ Ø©
Ġ2 13
ik ar
Ġcent res
andid ate
f uel
ĠG il
ĠRadi o
Ch an
ĠPur pose
is ang
Ø¨ ÙĤ
atuh i
Ġland fill
orph ological
os ures
ĠU til
ĠOrgan isation
K umar
è· ³
H er
ĠJ ur
second ary
in tr
èĽ ®
ĠR ange
ol id
ik r
asp x
ĠM organ
ĠT ar
ish nan
ĠClass room
Ġbe ams
aut om
ĠPart y
P red
Ġpur sue
ag raph
ĠPer ubatan
Cont ent
in at
ĠC ir
ĠÙĥ ÙĬÙĦ
ĠÙĪØ¬ ÙĪØ¯
ĠÚ¤ÙĨ Ø¬
Vari able
Ġp estic
uk h
ÙĦÙĬ Úł
ĠGroup s
ĠC E
Ġbi ji
åĬ ¿
Ġvalid ate
Ġker usi
MOH D
Ġcomplex es
Ġmosqu ito
Ġl an
B V
sh all
Ġdik enakan
W ong
åıĳ å±ķ
eb ar
Ġpe el
Ġsat ellite
Ġdetermin es
M U
ĠSh am
DIS CUSSION
3 17
ri o
ĠØ³ Ø±
Ġnot iced
ll l
liqu id
ĠH il
Ġap akah
ĠÚ¤ÙĬ Ø§ÙĦØ§
op y
oc a
Ġap plies
Ġconsist ently
ĠEx p
Ø³ÙĬ Ø©
pel uang
access ed
æķħ äºĭ
Ġ) (
Ø§ÙĪ ÙĬ
orm ati
ĠÚĨ Ø§Ø±Ø§
mod ern
ÙĨ Ø±
åĩ ı
Ġmos que
Ùĥ ÙĬØª
ĠG RO
ah agi
CONTENT S
ian ces
Ġdial ek
Ġ15 00
us ually
Per ak
Ġmarg inal
ĠØªÚłÚ¬ Ø§Ø±Ø§
3 45
ĠDisc uss
ĠØ§Ùĩ ÙĦÙĦ
Ġpred ominant
bet ul
Ġdistr ess
Ġsp her
Ø§Ø± ÙĥÙĨ
Ġrestric tions
f okuskan
Stat istical
VIR ON
ĠF iber
Ġh ospitality
Ġdij ual
Ġincub ated
39 0
Ġbeaut y
ĠTun ku
ĠH S
he z
ĠC ount
ore a
âĢ İ
3 15
erv ing
With draw
it ime
ĠL ack
å®ī åħ¨
ses uatu
L ab
con taining
Ġem ulsion
Ġappro xim
âĢ¦ ...
ĠH ang
37 9
E t
Ġim plication
Ġ19 57
çĶ ²
Ġcollect ive
ĠØªØ±Ø§ÙĪØªÙħØ§ Ú½
er os
du ino
emp urn
38 5
ĠHe avy
ac it
Ġtem plate
R az
back ground
Ġpeng umpulan
ater nal
ĠC MS
ĠWithdraw al
Ġmov es
M ale
Ġre aching
Ġpercent ages
Ġdatas ets
u ros
ut ub
Úł ÙĪØ±
univers iti
Ġgel aran
g han
Ú¤ÙĬ ÙĦÙĬÙĩ
ĠJ amil
cons umer
ĠÙħÙħ ÙĪÙĦØ§ÙĥÙĨ
ĠSTUD IES
and al
Ġan ugerah
Ġï ĭ
ĠØ¯ØªÙĪ Ø¨ÙĪÙĩÙĥÙĨ
ĠC os
ous es
éĻ į
Ġper p
int ent
D ef
99 0
oph istic
ĠA u
Ùħ ÙĬÙĨ
ĠÏ Ħ
og lu
An ugerah
Ġg ains
ab aran
Associ ation
t ar
ĠS aw
Ġag ing
è¿Ľ è¡Į
Ġmuz ium
ovolta ic
Ġpul p
yd ney
min ation
UL Y
Ġro s
34 4
ĠIn surance
Ġt ingkat
is ahkan
Ġv ar
ether lands
Ġ .......
æĪĳ è¦ģ
Ġstak eholder
Ġse eks
mean ing
r ial
ĠØ¨ Ø§Ú¤
Ġadv oc
Ph D
W u
l inda
Ġf ellow
OM A
Ġik lan
Ġconsequ ence
Ġp ew
ĠP ang
Ġdi ukur
ïĤ ¶
vis ual
all i
Ġinvest or
Î ´
Ġalloc ated
he ter
ĠØ§ ÙĤ
M ark
Ġp ingg
ĠÚ¤Ø±ÙĪ Ø¯
ĠM s
ĠT ag
ĠSeb elum
err or
ĠM ath
comp ounds
Ġcertain ly
Ø¡ Ø³
Ġfarm ing
unci ation
AL TH
ĠP antai
P articip
åİŁ åĽł
T ext
Ġp ic
ÙĥØ§ÙĨ ÙĤ
ĠD u
estr ian
C ustomer
uj ang
ÙĪØª Ø±
Ġr inggit
Bu ilding
ĠLect urer
h im
ĠÚ¤Ø± Ø§ÙĨÙĨ
Ġx iii
Ġent ities
24 191
ak ir
An g
Ġup gr
Ġload ings
ĠÙĪÙĤ Ø¯
Ġcon clusions
G raph
Equ ation
ï¿½ï¿½ï¿½ï¿½ï¿½ï¿½ï¿½ï¿½ ï¿½
Ġs ambil
Ġclass ical
19 74
Ġact ors
34 3
Ġh ayat
using an
ðĿĳĴ ðĿĳĴ
Ø¹ Ø¨
Ġultr asonic
Ġdis iplin
labor ative
d rop
ðĿĳ Ĥ
ĠReport s
ĠS yr
ĠJ ud
rom eter
anc ar
Ġmov ie
ĠImprov ement
ĠCountr y
ĠFilip ina
Ġco ordination
atch ing
Ġmanufact urers
ĠK alau
3 26
A IM
Ġun ik
AM B
r af
et ed
ol ytic
ĠJal il
0 40
am ics
ĠW id
ron tiers
ĠÙ¡Ù©Ù £
ĠT ABLE
ĠÙĥ ÙĬØ³
duc es
Ä į
ĠZ ar
ïĭ ĭ
ĠN umerical
Ġcontext ual
port ion
ĠChe ck
idisc iplinary
Z one
Ġc inta
çļĦ åĲĹ
ĠPut eri
Ġverb al
ĠMin imum
Ġsatisf actory
as ant
Ġin organic
Ġgre y
Ġel ig
Ġrece iver
åĮ» çĶŁ
ĠTQ M
h anya
Ġh or
ĠSek iranya
iz ik
ĠFor ec
ÙĪ ÙĬÙĦ
Ġdim in
prov iding
Ġg aining
Ġ20 5
ĠØ¹ ÙĤÙĬ
Pen y
ĠR i
ĠN MR
æĬ ±
ĠB andung
Acc ess
g overnance
al ir
ĠD ick
çļĦ åľ°æĸ¹
Ġqual ified
Ġpro poses
ĠZ aki
Ġint ers
air an
å¸ «
Ġtrad ition
ĠT etapi
Ġ2 11
F ree
ĠSched ule
ams ung
ab ak
b ase
Sing h
in ion
aph a
t aking
Ġass urance
ØªÙħ Ø¹
èī ¯
oc oa
äº ¬
ĠK oh
Ġgener ations
Ġcred its
oun seling
Ġcomm and
ZXJQYWdlOz I
3 30
ni ah
elect ronic
ch in
ĠPer ubahan
Ġvari eties
ĠCy cle
Sun nah
' d
ĠMAT LAB
ĠPar as
åºĶè¯¥ æĺ¯
eth nic
ĠSp ain
ĠAm ount
Ø§ÙĬ Ø§ÙĦÙĩ
35 4
Ġsign ed
Ġg on
Ġwh atever
ÙĪÙĨ Ø§ÙĦ
ANU ARY
Ġstr at
Ġfa edah
Ġpromot es
ĠOp port
46 5
Ġengine ers
æĳ Ħ
s ociety
Ġgr ass
Us er
Ġd og
Ġh at
ĠØ³ ÙĪØ³ÙĬ
Ġpast ikan
Pr ice
M n
Ġmetabol ism
ĠN izam
Ġfollow ers
compet itive
åĨ °
Ġeng ines
ank ton
ĠÙĪ Ø³
Ġl ihat
Ġ2 15
Maj lis
i ar
ĠØªØ± Ú¤
ĠÙĥØ§ÙĨ ÙĤ
vens ional
Ġclass ifier
3 14
ØŃÙĬ ØŃ
ĠCol or
F ilem
çĻ »
ĠÚĨ Ùĩ
Ġp neum
ĠAc qu
Ġofficial s
net t
ĠJ adi
ĠN ep
ĠÙĥ ÙĪØ§
trans form
Ġmeth ane
Ġk empen
60 8
AN AL
Ġv ascular
A Q
ag amaan
ĠØ³ÙĪÙħ Ø¨Ø±
on ella
ĠM ental
60 9
Ġamb il
J ADUAL
r ace
Ġoptim ize
eg o
ĠÚĨ ÙĨ
im antan
ĠFr ancis
ðĿĳĻ ðĿĳĻ
Ġelev ated
ĠG upta
åĽŀ æĿ¥
éĶ Ģ
TM ENT
. âĢĻ
eng ers
ĠR S
sw er
w ave
en am
hes ion
Pemb angunan
Ġmak mal
in ent
SI T
if olia
å® ¿
çī Ļ
OT E
k op
Ġk am
Ġs ya
rom etry
J ob
p ens
IT T
ĠAm p
Ġber warna
Ġmed ication
ĠGr and
ĠPerk embangan
ap es
ĠD id
âĪ ŀ
Å ¡
et ika
ÙĪØªÙĬ Ùĩ
em angnya
Ġscen arios
ÙĤ Ø§
Ġelectro des
is en
Ġt ang
33 2
Ġemploy er
Ġcitizens hip
Ġdi ubah
Ġsh ip
Ġ19 3
Last ly
ĠC all
ĠPENY EL
f lex
Ġt ons
ĠInt elligent
B s
Ġpenj agaan
Ġk ognitif
éŁ ©
k ota
ĠSoci o
c ause
ot ong
comm unic
ĠðĿĳ ¡
al ong
Acc essed
ĠPract ical
Ġbreak down
J alan
ĠOrgan izations
Ġpix el
éĢļ å¸¸
Ġpen urunan
ĠFR AMEWORK
Ġkid ney
Ġsem ulajadi
pl atform
ĠHind u
K T
Ġpup ils
b adan
m uch
ĠM ind
id el
ĠÚ¤Ú½ Ø§Ú½ÙĬ
-------------------------------- --------------------------------
ater a
Ùİ ÙĲ
ĠPert anian
ÙĥÙĪ ØªÙĪØ§ÙĨ
t ech
ĠÙĩ ÙĪØ¨ÙĪÚłÙĨ
éĵ ģ
Ġemploy ing
ĠØ§ÙĦ Ø°
Ġwrit ers
equ al
Ġprior it
Ġsp an
ç½ĳ åıĭ
r c
ÙĬÚ¤ ØªØ§
ä¸ ¦
åŃ¦ çĶŁ
Ġb ind
ĠM onday
ä»¥ åĲİ
atisf ied
ïĥ ª
N ilai
AT OR
ĠMod ule
Ad a
Ġf ifth
Ġinter ference
Ġdis abilities
blog spot
end i
Ġsol ubility
ä»ĸä»¬ çļĦ
ĠØª ÙĪØ±
çĶ· äºº
ĠC el
Ġmeny iapkan
éĺ µ
Pel ajar
E ach
ĠI bid
å¸Ĥ åľº
l ot
Ø§Øª Ùĩ
UD DIN
ĠÙĥØ¬ ÙĪÙĩØ§ÙĨÙĨ
A y
ĠL oss
Ġliter atures
PRE PAR
Ġnarr ative
Ġnewsp apers
ĠR og
suggest ed
0 22
ĠØª Ø§Ø±ÙĬ
åĪĨ éĴŁ
æĻļ ä¸Ĭ
ĠØ§ÙĬÙĨØ¯ ÙĪØ³ØªØ±ÙĬ
Ġef ektif
èĸ ª
æĢ ¥
) =
Ġfac es
Ġ17 6
Ġwor ry
baik i
Ø§ Ø£ÙĦ
ĠÙĬ Øª
un s
ĠD ental
ĠÙĨ ÙĬÚ¤
S iO
am ili
ĠÙĪÙĤ ØªÙĪ
opl astic
Ġwak il
Ġmenyel uruh
Ġro l
Ġmus hroom
Ġc ad
eh endaki
ĠComp onent
Ø¨ÙĬ Øª
Ġpeng arang
38 6
æĪĲ åĬŁ
Ġberper anan
d ic
äº ĳ
ĠG all
ĠÙģ ÙĬÙĦ
Ġatt ended
ĠØªÙĬÙĨ Ø¯ÙĤ
ĠAn gel
ind e
ĠCh lor
ç« ł
/ (
Ġket urunan
B et
Ø± Úł
ĠØ¯Ø¨ Ø±ÙĬÙĥÙĨ
ĠÚ¤Ø± ÙĦÙĬÙħÙĬÙĨ
ĠDem and
Ġdetect ing
ĠAd option
ĠRem oval
other wise
Con cept
ĠØ³Ø±Ø§ ÚłÙĨ
S ya
e at
Ġexpl oring
Ġr ivers
Ġgo ogle
ipher al
v as
Ġsett lement
VIRON MENT
ĠIn stitusi
44 4
Pen yelidikan
ĠK ita
ĠT iada
uc l
Ġdat abases
Ġ2 80
18 00
t ings
ĠP ages
ĠD iv
ĠL ou
Ø§Ùħ Ø§ÙĥÙĨ
ĠØ¯ÙĬ Ø«
bud aya
Ġknow ing
ety l
Ġappro pr
Ġc kp
R ah
ĠÚ¤ Ú¬Ø§ÙĪØ§ÙĬ
on ential
èĤ ¤
å½ĵ æĹ¶
Ġmend engar
pp m
et us
Ġse jauh
az y
Ġch ances
mechan ism
ind ahkan
ĠSout hern
Ġbanc ian
H us
had iri
Ġt injauan
ang le
Ġh amba
Ġdiletak kan
Ġprot on
cap acity
Ġk oleksi
Ġter rit
sim ulation
j arah
Ġdanger ous
ĠS on
Ġr itual
ĠEx ternal
ĠÙ¢ Ù¤
r andom
ĠP uncak
pr ior
ĠIp oh
S ON
att ice
Ġin isiatif
orr h
Ġf ung
ĠG ross
ĠEF B
ĠK ristian
3 10
Ġnas ional
L AMPIRAN
ÙĪØªÙĪ Ø³ÙĨ
ĠPl ay
Ġlong itudinal
inc or
æ¢ ¦
Ġs ch
Ġs oy
Ġju ice
Ġl ane
urs day
ĠÙ¢ÙłÙłÙ ¦
Ġcompr ising
Ġcontrad ict
Ġenh ances
ĠS ak
account ing
ĠÙħÙĦØ§Ùĥ ÙĪÙĥÙĨ
ç ¸
Ġk iri
val ent
oxid ation
t urut
nal s
Ġpass ing
Ġrep et
ak rif
t io
å° Ħ
Ġtrad ers
éĢĤ åĲĪ
ĠØ§Ø¥ ÙĦÙĨ
Ġadhes ion
ĠL ean
benef its
Ġlist en
Ġt v
ĠR apid
æĳ ©
ĠS her
Ġyour self
Ġb atik
æĸ¹ ä¾¿
employ ee
ĠHydro gen
Comp arison
K edah
Ġnewsp aper
Y E
ĠCR C
Ġmel aporkan
uf ti
Ġdecl ared
ÙĨ ÙĬØ³
Ùĩ Ø¯
Ġtre ating
ĠSpec ies
æĹł æ³ķ
R ich
Ġpress ures
Ø³Ø± Øª
Ġmen untut
det ection
Ġres ort
pr ivate
ĠÙ¢ÙłÙ¡Ù §
. [
L and
ib ers
D egree
ĠÙĩ ÙħÚ¤ÙĬØ±
ĠP SO
å ³
S es
ich ia
ident ify
Ġdes irable
Ġcomp l
38 4
s it
ef t
ĠW ay
ĠÚ¬ ÙĨ
ĠS ampel
Ġinhibit ory
E I
F amily
ous ands
ĠFr ank
è¯ Ħ
Ġvulner able
ot ion
ĠÙģÙĬ Ùĩ
Ġentire ly
Ġvot ers
ĠP B
ĠSur ah
Ġp ill
åĨ ł
h uh
z eki
ĠR usia
ĠUp per
ĠÚ¤ÚłÚ¬ÙĪÙĨØ§ Ø§ÙĨ
ĠHar vard
Ġmeet ings
ĠØ¨ Ø¹Ø¯
ĠP N
Ġpl acement
Ġing at
Ġe ast
ast i
s oci
erv ical
è®¾ è®¡
meng enai
ĠSer dang
ĠØ¨ÙĪØ± ÙĪÚł
el ement
Ġcomp rom
P earson
ĠTer m
ĠM AD
ĠS ign
ä¼ļ æľī
Ġsepat utnya
F actor
ÙĦØ§Ùĥ ÙĪÙĥÙĨ
C N
Ġlog istic
r ans
ap is
å¥³ äºº
et in
C AR
Ġl amb
AS EAN
Ġar omatic
Ġcaus al
Or ang
ĠU mm
ex ternal
Ġa ug
ba um
enn y
Ġc ukai
v ival
ĠSh i
ĠLe ast
Ġintro ducing
record ed
Ġdefin isi
Ac ademy
Ġkor elasi
ĠS ex
Ġentertain ment
fa atkan
Ġmest ilah
E k
ĠF ad
Az iz
ĠS amar
Ġamb igu
Ġind uce
ĠJos eph
Ġp g
at at
Ġpe at
Ġan aerobic
In g
ĠÚ¤Ø±Ø³ ÙĥÙĪØªÙĪØ§ÙĨ
IS IS
ĠTrans formation
K amar
ĠS IGN
ĠP adang
Ġcon str
tribut ions
ĠÙħØ±ÙĪ Ø¬ÙĪÙĤ
f s
37 7
ĠB angkok
Ġy akin
are z
Ġpint u
clin ical
ĠÚ¬ÙĪÙĨ ÙĪÚł
ĠÙĥ Ø±Ø§
ia e
Ġ17 8
Ġcoordin ate
Ġmin ister
et i
ĠShar if
Ġinnov ations
ĠØ¨ ÙĪÙĦ
ĠØ¬ ÙĪÙĩØ±
Ġwh ilst
Ġk ak
ĠâĢ İ
otox icity
mas ter
est eem
ïī ª
M OD
å°± è¦ģ
ĠØ§ÙĦØ¹ Ø§Ùħ
Ø±ÙĪ ÙĦ
es ahan
ed nes
ĠS TA
utri ent
ĠBenef its
Ġx yl
cl er
Ġper intah
Ġrec all
ï¼Ł âĢĿ
pre pared
Ġo sc
li en
35 8
ĠAss essing
Ġintegr ating
sek ut
asing an
Ġarg ues
aik um
Ġn uk
ĠG Hz
Ġbah kan
Ġfertil izer
Ø§ÙĦ ÙĬÙĨ
ĠEth ical
Ġresist ivity
ategor ikan
ecomm unication
èĥ½ å¤Ł
ĠEc ology
ie zo
Ġbio active
åĳ Ģ
Ġpep ejal
ØªÙĨ ØªÙĪ
ĠL anka
ĠP rec
Ġdimas ukkan
Ġreserv oir
ĠSO CIAL
Ġpost ed
Ġir radiation
perk hidmatan
Ù¡Ù ©
Ġc antik
Ġexpress ions
AL I
ĠðĿľ ĩ
ĠPer m
System s
Ġal ert
hib it
Ġal asan
Ġtr uly
ĠAs as
ch ild
way at
Ġev id
Ġi Phone
Ġenter ed
Rel ationship
ĠStat istic
d imensions
le ading
ric ks
d ehyde
rec ogn
Ġfluid s
ap ia
at ile
ĠB ond
Ġon t
J u
mult iple
ad ir
ek ah
ÙĦÙĬ ØªÙĬ
Ġpur ification
ĠBook s
ocol ate
Ġl azim
Ġharvest ing
çĶ³ è¯·
Ġcred ibility
ĠH eart
Ġwhen ever
Ġenc omp
berb anding
Ġh i
ĠSh in
imp anan
ĠK ewangan
ĠÚ¤ÙĨØª Ø§ÙĬ
E le
ĠB art
39 4
ass in
Ġdit ambah
æĪĳ è§īå¾Ĺ
ĠÙĦ Úł
Ġrestaur ants
ĠÙĥÙĦÙĨ ØªÙĨ
lic ation
low ing
ĠW ord
ĠSer emban
Ġabsorb ance
ĠØº Ø±ÙĬ
ĠS or
ordin ates
x vii
UL UAN
public ations
ç®Ģ åįķ
S am
Ġguid ing
ÙĦØ§ ÙħØª
ism ic
Ġl ift
Ġpert engahan
Ġload ed
Ú¬ Ùĩ
Ġspecific ations
Ù ļ
Ġt ulang
3 25
Ġmed iation
aj an
Ġro se
ores cence
ĠÙĩ Ø§
Ġden otes
Do ctor
ĠPredict ion
40 9
ĠR oom
Ġinstruct ors
v ir
ĠC adangan
ĠØ£ Ø¨ÙĪ
ĠCan adian
T ok
ind ividu
Ġsen jata
Ġprevent ing
ĠS AF
akt i
untuk kan
æł¹ æľ¬
ĠENTREPRENEUR SHIP
Ġdel ivering
ĠDev iation
Ġ ä¸į
ç ĺ
K umpulan
te am
æĸ ½
ĠH erb
Ġmanufact urer
Ġsh ot
ĠS int
ÙĦÙĨÚĨ Ø±ÙĥÙĨ
Ġc ite
ĠS g
ĠH op
Ġ19 63
Ġmin ority
Organ ization
l angkah
Ġlaw an
Ġpem ilik
Ġm om
ĠRos lan
ed ari
N orm
m eth
Ġf ro
s ew
ex pect
Ġbro ken
T U
æ³ °
Ġr ated
Ġsk it
D B
W P
Ġr enew
l umb
åĥ ¹
éļ Ĩ
è³ ĩ
reat iviti
æķ ¸
inc ang
Ġmenc ukupi
och ond
ĠC reat
Ġpro gression
w ich
æīĵ ç®Ĺ
techn ical
Ġmicro graph
G ar
Ùģ Ø¸
å°± ç®Ĺ
inf ection
C urrently
Ġdis impan
anj utan
P ut
Ġ2 60
air ed
Ġso ught
k ap
ik l
ĠPati ent
N atural
Ġ20 7
ĠK adar
ä¼ ĳ
d un
ĠFe atures
ĠL ewis
ĠPort al
ØŃ ÙĨ
ÙĬÙĨØªØ§ ÙĩÙĨ
G M
Ġbro ther
opol ymer
Ġpro be
ä¸Ģå®ļ è¦ģ
ian o
ĠÚ¤ÙĨ Ø±Ø¨ÙĬ
ĠØ¨ Ø¯
ĠØ¨ÙĨ ÚĨÙĬÙĨ
D ES
ĠD ependent
ĠÙħ ÙĬÙĥ
: .
gener ated
Ind ex
cred it
éĩ İ
ĠComm ons
4 80
ar Xiv
Ġb intang
Ġhe avily
Ø§Ú¤ ÙĨ
Ġbl h
Ġpath ways
ĠWhats App
az ing
IP L
C over
ĠR ight
Ġr arely
On ly
otox ic
Ġch olesterol
Ġbers ih
ak eholders
w ent
ĠØ¯ Ø§Ø³Ø±
Ġ19 7
ĠÚ¤ Ùĩ
ĠW AN
Ġk nee
Ø® Øª
ÙħÙĨ Øª
æĺ¯ ä»Ģä¹Ī
æĻ® éĢļ
IN S
nam ely
b t
ĠG ua
æĹ §
and akan
ðĿľ ĥ
æĪĲ ä¸º
OF A
Str uct
Ġcit izen
34 7
è½ ¯
ĠOpt im
ĠR I
anj aran
Ġsol ely
B inti
Ġinter ior
elah iran
Re ceive
Ġaddress ing
ycl ing
Ġun tung
Ġcor n
Ġdom inated
ĠHar apan
omb ak
Effect s
èĢģ å¸Ī
M az
Ġmeng es
æĿ¥ è¯´
ud ang
Ġinter ventions
ĠF irms
Ġdi uji
ich i
Ġmas k
as arkan
ĠE uro
ENDAH ULUAN
3 13
od al
ĠST EM
Ġthank ful
appro aches
Col lege
ĠSCO PE
esting ly
Ġr n
ĠB aj
Ġme h
W L
Ùĩ ÙĬÙħ
39 7
Ġassoci ations
çĬ ¯
Ġsh arp
Ġ19 2
Ġdij elaskan
Ġammon ia
olog ic
b andar
Ġ2 30
kod kan
Ġqu adr
need ed
38 7
Public ation
0 21
chron ous
ĠPolit ics
M UHAMMAD
Ġl ang
A IDS
Ġpot assium
Ġang les
Ġmeng uruskan
ĠMED IA
ag onal
K ampus
b ad
çªģ çĦ¶
M echanical
Ġher bal
f old
y our
ĠT IM
ĠL an
ĠRed uction
col lection
ĠD ial
ĠC iri
ag g
T emperature
ĠJoh ari
3 18
it in
Ġk as
ĠQ UES
è¿ĺ è¦ģ
ĠÙħ ÙĪØ±
ĠV i
ĠÙħÙĤ ÙĬÙħ
Ġfeas ible
$ $
Ġent ering
Ġreason ing
D V
min al
Ġfunctional ity
atur day
Now adays
k ini
Ġf isher
Ġ17 4
ĠEss ential
35 2
ISI ON
ĠÙĦÙĪÙħÚ¤ ÙĪØ±
s angat
Ġb ol
Ġ19 68
ĠO ld
av oid
Ġ uk
AB C
48 9
Ġmonitor ed
ednes day
m oh
Ġwatch ing
ĠFed eration
un ter
ĠØ¨ Ø§ÙĬ
Ġint elligent
Ġnan op
OUR S
Ø¬ ÙĪØª
Ġsej umlah
ç¼ º
Ġber akhir
ual aikum
Ġconsum ing
ĠØ§Ø± Ø³
ÙĦ Øµ
und a
Ġmaj alah
ustr ation
st aff
bl ack
Ġalkal ine
Ġch apters
60 6
ĠL ength
f unctions
ost ing
ĠAtt itudes
å² Ľ
ĠCh oi
åģ ·
comp osition
Ġethnic ity
ï» ¿
ĠEn viron
Cor relation
ĠVari ation
ac o
Ġn eck
Ġdig una
ĠÙħÙħØ¨ÙĨ ØªÙĪ
s qu
ĠÙ Į
ĠOn g
it ahu
j gn
hel sea
Ġsej uk
Ġtumb uh
Ġberp otensi
Ġl act
Ġt rop
Ġstress es
Ø¦ ÙĦÙĩ
feed ing
Ġw ax
ĠÙħ ÙĬØª
Ġax ial
ĠH i
ĠCon ventional
EN TION
ïĥ ¥
åı¦ å¤ĸ
Ġkon krit
Ġb uka
ĠTransport ation
ĠH PLC
ĠNor az
Ġtw enty
um ental
Ġind eks
ĠG REEN
TI CS
ĠInt ellectual
ert ian
ĠÙĥÚ¤ ÙĪØªÙĪØ³ÙĨ
ATION SHIP
em ak
ðĿĽ ¾
Ġpemb ayaran
inter aksi
G P
as ek
Ġv ibr
ĠInf rared
ĠH af
car ried
S pr
and y
ĠH old
Ġstrugg le
sem asa
s afety
Ġflow er
W il
ĠR en
ĠU d
ĠAg ain
H F
ĠM ission
Ġk asar
Ġres olve
ĠØ¬ ÙĪÙĩÙĨ
ĠSpec ifically
Ġstrength ening
Ġremov ing
ĠL ot
B ay
ĠE ur
ĠBeg itu
B in
39 6
th s
ĠÙħ Øµ
Ġt itanium
N ak
T oday
0 23
ro f
Ġv en
R N
af ikan
Ġget ah
ĠShe ikh
è®° å¾Ĺ
Ket ua
ĠMerc iful
è ŀ
m illion
Ġan throp
ĠS PM
Ġout let
ĠPEM B
15 28
mark s
Ġfunction ing
Ġso le
ran i
å·¦ åı³
ĠUs age
ĠSab ri
s ampling
ĠØªØ± ÙĨ
Ġmemb unuh
umer ous
Ġ Úł
FR P
ĠHD B
ĠT EST
ĠCom merce
Ġan a
ĠPer ceptions
igh ter
Ġinsp ired
ĠVol tage
ĠImprov ing
ur uan
ĠD ynamics
re pt
Ġwear ing
f irms
50 6
Ġconsider ations
ĠStrateg i
ex change
m t
ĠT ong
ïĬ ¿
ĠI oT
Ġdi pers
40 7
er ator
Ġep id
èª į
Øµ ÙĪØ±
b ed
art ers
olog ists
Ġend ot
X RD
ag reement
ĠB eta
æľī åħ´è¶£
ĠAS TM
est ari
Ġse harusnya
Ø§Ú¤ Ø£ÙĬ
ÙĬ Ø¹
Ġresid ues
ç½ĳ ç»ľ
R EL
s n
w aan
Ġsi apa
Ġheter ogeneous
Ġn erv
46 4
en za
Ġst ok
Ùħ ÙĪØ§
emp atkan
ĠCh annel
Ġincorpor ating
Ġmenc ipta
Ġm ulai
Ġus d
Ġadd itives
Ġmult ic
é¡¶é¡¶ é¡¶é¡¶
S cientific
p one
45 4
èģĶ ç»ľ
Ġdeposit s
ĠManager ial
re p
ĠTh inking
ĠAl umni
Ġt ables
in ternet
Ġbl ind
Ġlu aran
Ġek strak
ÛıÙĬ ØªÙĬ
reci ation
ĠShar ifah
ĠWith in
Ġtemp oral
em on
ĠAd akah
sekut if
ic ul
ĠV ersion
Ġregular ly
A uthors
ĠSTR ATE
Ø·ÙĦØ§ ØŃ
K on
P ad
Ġmeng akibatkan
ĠEx amples
ĠB EL
ag matic
ĠE T
ĠÙĪ ÙĬÙĦ
g reat
ut uskan
ĠÚ¤ÙħØ± ÙĬÙĨØªØ§ÙĩÙĨ
Ġber bagai
Ġdis h
UT URE
am etric
ĠN urs
35 3
sel ection
Ġtext ile
ÙĬÚłÚ¬ ÙĬ
ĠIst anbul
âĢ¦âĢ¦ ...
adb and
å¦Ĥ æŃ¤
âĢĻ âĢĻ
m d
ĠÙħ Ø«
ĠL uc
dr ug
K eh
Austral ia
è¼ ĥ
Ġg est
Ġapp eal
k am
Ġtrad er
co al
UST OM
ĠMc C
Ġber nilai
å°ı å¼Ł
Â·Â·Â·Â·Â·Â·Â·Â· Â·Â·Â·Â·Â·Â·Â·Â·
ura ian
Ġantibi otic
Ġm ature
os c
Ġn ob
ĠB C
æĿ ¾
ĠF o
ĠMechan ism
g am
éģ ¸
achiev e
ĠT iga
Ġmeng anggap
angk in
Ġb oy
ĠÚ¤Ø± ÙĦ
45 7
Ġcharg ing
ĠF ulf
è® Ĭ
ĠK ertas
ÙħØ¨ ÚłÙĨ
N evertheless
ĠAn ten
I UM
Ġsk illed
w on
un ca
ĠAc ademia
Ġcontain er
b enar
ĠB ell
Keb angsaan
method ology
M W
Ġat ten
Ø±ÙĬ Ø¯
industr ian
a ing
co efficient
Ġd oses
Ind ian
Ġw idespread
Ġberk em
sup ply
ĠAR CH
ä»¥ ä¸Ĭ
ç¡ ¬
Ġ20 9
to ol
ĠUs ers
Ġsel aras
recomm end
Ph ysical
Ġsent ences
Ġkelu aran
IN K
Ġstr ing
B andar
h aving
r ated
ĠL ike
ĠØ¨ÙĩØ§ Ø±ÙĪ
ill o
so alan
atan i
Ġeng aging
id ging
u ing
Ġman ually
min imum
ĠÙĪØ§ÙĦ Øª
ĠSpect roscopy
M obile
ĠM F
P i
ĠS B
aw ay
æĽ ²
Ġment ah
ĠAud iting
Ġtrial s
D im
ĠR ub
amer kan
[...]
