{"<s>":0,"<pad>":1,"</s>":2,"<|endoftext|>":3,"!":4,"\"":5,"#":6,"$":7,"%":8,"&":9,"'":10,"(":11,")":12,"*":13,"+":14,",":15,"-":16,".":17,"/":18,"0":19,"1":20,"2":21,"3":22,"4":23,"5":24,"6":25,"7":26,"8":27,"9":28,":":29,";":30,"<":31,"=":32,">":33,"?":34,"@":35,"A":36,"B":37,"C":38,"D":39,"E":40,"F":41,"G":42,"H":43,"I":44,"J":45,"K":46,"L":47,"M":48,"N":49,"O":50,"P":51,"Q":52,"R":53,"S":54,"T":55,"U":56,"V":57,"W":58,"X":59,"Y":60,"Z":61,"[":62,"\\":63,"]":64,"^":65,"_":66,"`":67,"a":68,"b":69,"c":70,"d":71,"e":72,"f":73,"g":74,"h":75,"i":76,"j":77,"k":78,"l":79,"m":80,"n":81,"o":82,"p":83,"q":84,"r":85,"s":86,"t":87,"u":88,"v":89,"w":90,"x":91,"y":92,"z":93,"{":94,"|":95,"}":96,"~":97,"¡":98,"¢":99,"£":100,"¤":101,"¥":102,"¦":103,"§":104,"¨":105,"©":106,"ª":107,"«":108,"¬":109,"®":110,"¯":111,"°":112,"±":113,"²":114,"³":115,"´":116,"µ":117,"¶":118,"·":119,"¸":120,"¹":121,"º":122,"»":123,"¼":124,"½":125,"¾":126,"¿":127,"À":128,"Á":129,"Â":130,"Ã":131,"Ä":132,"Å":133,"Æ":134,"Ç":135,"È":136,"É":137,"Ê":138,"Ë":139,"Ì":140,"Í":141,"Î":142,"Ï":143,"Ð":144,"Ñ":145,"Ò":146,"Ó":147,"Ô":148,"Õ":149,"Ö":150,"×":151,"Ø":152,"Ù":153,"Ú":154,"Û":155,"Ü":156,"Ý":157,"Þ":158,"ß":159,"à":160,"á":161,"â":162,"ã":163,"ä":164,"å":165,"æ":166,"ç":167,"è":168,"é":169,"ê":170,"ë":171,"ì":172,"í":173,"î":174,"ï":175,"ð":176,"ñ":177,"ò":178,"ó":179,"ô":180,"õ":181,"ö":182,"÷":183,"ø":184,"ù":185,"ú":186,"û":187,"ü":188,"ý":189,"þ":190,"ÿ":191,"Ā":192,"ā":193,"Ă":194,"ă":195,"Ą":196,"ą":197,"Ć":198,"ć":199,"Ĉ":200,"ĉ":201,"Ċ":202,"ċ":203,"Č":204,"č":205,"Ď":206,"ď":207,"Đ":208,"đ":209,"Ē":210,"ē":211,"Ĕ":212,"ĕ":213,"Ė":214,"ė":215,"Ę":216,"ę":217,"Ě":218,"ě":219,"Ĝ":220,"ĝ":221,"Ğ":222,"ğ":223,"Ġ":224,"ġ":225,"Ģ":226,"ģ":227,"Ĥ":228,"ĥ":229,"Ħ":230,"ħ":231,"Ĩ":232,"ĩ":233,"Ī":234,"ī":235,"Ĭ":236,"ĭ":237,"Į":238,"į":239,"İ":240,"ı":241,"Ĳ":242,"ĳ":243,"Ĵ":244,"ĵ":245,"Ķ":246,"ķ":247,"ĸ":248,"Ĺ":249,"ĺ":250,"Ļ":251,"ļ":252,"Ľ":253,"ľ":254,"Ŀ":255,"ŀ":256,"Ł":257,"ł":258,"Ń":259,"an":260,"Ġt":261,"in":262,"er":263,"..":264,"en":265,"on":266,"at":267,"al":268,"he":269,"es":270,"ar":271,"Ġs":272,"or":273,"Ġp":274,"Ġthe":275,"it":276,"ĠĠ":277,"Ġd":278,"Ġo":279,"is":280,"ed":281,"Ġm":282,"as":283,"Ø§":284,"ĠĊ":285,"....":286,"Ġb":287,"ion":288,"Ġc":289,"and":290,"Ġof":291,"ic":292,"ing":293,"Ġa":294,"re":295,"Ġin":296,"ro":297,"ÙĬ":298,"Ġf":299,"ent":300,"Ġw":301,"Ġand":302,"el":303,"ct":304,"ĠØ":305,"le":306,"ÙĪ":307,"am":308,"us":309,"ur":310,"un":311,"ĠS":312,"ÙĨ":313,"Ġto":314,"ah":315,"em":316,"et":317,"Ġ(":318,"ĠA":319,"ĠM":320,"ang":321,"ation":322,"il":323,"ĠT":324,"ĠĠĠĠ":325,"ÙĦ":326,"20":327,"ak":328,"........":329,"om":330,"ad":331,"ĠP":332,"ul":333,"Ġk":334,"Ø±":335,"id":336,"Ġh":337,"Ùħ":338,"ol":339,"ut":340,"Ġ1":341,"Ġth":342,"iv":343,"ĠI":344,"im":345,"âĢ":346,"ch":347,"ĠC":348,"Ġl":349,"ce":350,"Ġn":351,"ig":352,"ay":353,"Ġe":354,"st":355,"ag":356,"Øª":357,"ir":358,"Ġr":359,"ap":360,"ers":361,"ĠB":362,"Ġis":363,"ab":364,"Ùĥ":365,"um":366,"ot":367,"Ġst":368,"Ġy":369,"Ġg":370,"Ġre":371,"ĠR":372,"eng":373,"ud":374,"ik":375,"Ġfor":376,"ĠD":377,"ow":378,"ĠØ§":379,"Ú¤":380,"Ġ20":381,"ect":382,"ia":383,"if":384,"ess":385,"os":386,"ter":387,"Ùĩ":388,"Ġpro":389,"Ġbe":390,"................":391,"od":392,"Ø³":393,"ĠĠĠĠĠĠĠĠ":394,"ly":395,"Ġal":396,"Ġon":397,"ĠE":398,"ĠF":399,"Ġcon":400,"ĠK":401,"kan":402,"ĠH":403,"Ġas":404,").":405,"Ø¯":406,"th":407,"ity":408,"ep":409,"Ġ2":410,"ant":411,"ith":412,"ĠL":413,"ĠN":414,"are":415,"ain":416,"est":417,"Ġv":418,"ment":419,"ĠThe":420,"ĠØ¯":421,"act":422,"Ġdi":423,"Úł":424,"Ġthat":425,"tr":426,"op":427,"00":428,"ure":429,"Ø¨":430,"ere":431,"ate":432,"Ġdan":433,"ï¼":434,"Ġyang":435,"Ġse":436,"ial":437,"ĠJ":438,"ies":439,"ac":440,"up":441,"uk":442,"Ġex":443,"our":444,".,":445,"og":446,"ĠIn":447,"ip":448,"ĠO":449,"qu":450,"ĠÙħ":451,"ä¸":452,"Ġwh":453,"Ġ3":454,"ear":455,"av":456,"ian":457,"Ġwith":458,"ib":459,"Ġper":460,"end":461,"for":462,"ive":463,"oc":464,"omp":465,"¿½":466,"ï¿½":467,"ub":468,"Ġby":469,"Ġan":470,"ev":471,"Ġare":472,"aj":473,"Ġor":474,"ec":475,"ist":476,"Ġus":477,"Ġat":478,"rom":479,"Ġres":480,"ai":481,"Ġit":482,"ĠU":483,"ĠG":484,"Âł":485,"Ġ0":486,"per":487,"Ġun":488,"ĠÚ¤":489,"âĢ¦":490,"ĠØ³":491,"ical":492,"pl":493,"Ġ4":494,"ĠW":495,"uct":496,"ill":497,"aw":498,"10":499,"iz":500,"ht":501,"ew":502,"ays":503,"ult":504,"ÙĤ":505,"ï¼Į":506,"ãĢ":507,"art":508,"Ġj":509,"ada":510,"Ġle":511,"emb":512,"ug":513,"ff":514,"ort":515,"ov":516,"Ġad":517,"ĠØ¨":518,"se":519,"ence":520,"âĢ¦âĢ¦":521,"oun":522,"ya":523,"__":524,"ari":525,"Ġstud":526,"Ġber":527,"Ġfrom":528,"Ġ201":529,"ĠÙĥ":530,"ek":531,"ĠØª":532,"Ġwas":533,"),":534,"Ġ&":535,"Ú¬":536,"ØĮ":537,"ated":538,"ðĿ":539,"ents":540,"alam":541,"Ø§ÙĨ":542,"Ø§ÙĦ":543,"able":544,"çļ":545,"alays":546,"ine":547,"ance":548,"...":549,"Ġ5":550,"ong":551,"çļĦ":552,"................................":553,"eg":554,"Ġcomp":555,"age":556,"ĠÙ":557,"Ġ.":558,"Ġmen":559,"Ġthis":560,"äº":561,"201":562,"ãĢĤ":563,"form":564,"Ġpr":565,"akan":566,"Ġter":567,"nal":568,"ations":569,"eb":570,"Ġsh":571,"ual":572,"âĢĻ":573,"earch":574,"ER":575,"uc":576,"99":577,"fer":578,"port":579,"ave":580,"enc":581,"pro":582,"ÙĬÙĨ":583,"AN":584,"olog":585,"ions":586,"ara":587,"ard":588,"ih":589,"Ġim":590,"Ġ200":591,"Ġch":592,"ĠTh":593,"ement":594,"ich":595,"ĠMalays":596,"Ġtr":597,"ust":598,"ert":599,"ĠĠĠĠĠĠĠĠĠĠĠĠĠĠĠĠ":600,"ÙĪÙĨ":601,"ï¿½ï¿½":602,"ell":603,"ok":604,"Ø±ÙĬ":605,"ung":606,"the":607,"ign":608,"ens":609,"aan":610,"com":611,"TI":612,"ore":613,"pt":614,"ue":615,"ON":616,"ous":617,"ost":618,"Ġet":619,"con":620,"æľ":621,"ÙĦÙĬ":622,"ach":623,"Ġdalam":624,"ĠV":625,"Ġhave":626,"ork":627,"lic":628,"duct":629,"der":630,"cc":631,"Ġcan":632,"ðĿĳ":633,"Ġdis":634,"The":635,"čĊ":636,"ast":637,"ÙĥÙĨ":638,"ary":639,"Ø¬":640,"oh":641,"åı":642,"ase":643,"Ġ6":644,"Ġhe":645,"ass":646,"ys":647,"ĠâĢ":648,"ĠMalaysia":649,"all":650,"ind":651,"EN":652,"ÙĪØ§":653,"Ġ-":654,"Ġap":655,"200":656,"Ġnot":657,"int":658,"Ġman":659,"of":660,"ational":661,"ata":662,"engan":663,"ä»":664,"ord":665,"pr":666,"//":667,"tp":668,"ech":669,"ans":670,"ber":671,"uh":672,"leh":673,"ific":674,"Ġmeng":675,"amp":676,"ition":677,"out":678,"Ġsp":679,"erv":680,"so":681,"Ø±Ø§":682,"Ġstudy":683,"://":684,"Ġwhich":685,"ex":686,"Ġhas":687,"ors":688,"anc":689,"ater":690,"ÚĨ":691,"her":692,"ÙĦØ§":693,"ÙĬÚł":694,"ĠSt":695,"Ġwere":696,"ail":697,"Ġini":698,"to":699,"str":700,"ivers":701,"11":702,"aid":703,"IN":704,"yst":705,"Ġind":706,"tuk":707,"æĺ":708,"ide":709,"ge":710,"ice":711,"ther":712,"ĠØ§ÙĦ":713,"ver":714,"Ġstr":715,"ject":716,"Ġtheir":717,"atan":718,"Ġme":719,"ww":720,"ffect":721,"Ġseb":722,"ĠY":723,"ight":724,"--":725,"Ġpl":726,"Ġdengan":727,"cl":728,"cess":729,"iti":730,"Ġ7":731,"Ġcont":732,"ikan":733,"19":734,"Ġexp":735,"ri":736,"tern":737,"au":738,"AR":739,"emp":740,"ory":741,"oul":742,"ob":743,"ama":744,"Ġke":745,"row":746,"Ġab":747,"af":748,"Ùģ":749,"å¤":750,"nya":751,"ĠPro":752,"etw":753,"alah":754,"angan":755,"ef":756,"ĠAl":757,"Ġen":758,"eth":759,"ES":760,"In":761,"ood":762,"Ø©":763,"ility":764,"ou":765,"ournal":766,"Ø¹":767,"Ġalso":768,"Ġuntuk":769,"ĠUn":770,"evel":771,"ics":772,"____":773,"AL":774,"ile":775,"ased":776,"ould":777,"http":778,"Ġcom":779,"gan":780,"Ġwill":781,"ĠIs":782,"ark":783,"æĺ¯":784,"Ġmod":785,"IS":786,"ci":787,"âĢ¦âĢ¦âĢ¦âĢ¦":788,"Ġ8":789,"æĪ":790,"ÙĪØ±":791,"ack":792,"ace":793,"12":794,"ystem":795,"Ġ10":796,"evelop":797,"Ġsaid":798,"ram":799,"Ġqu":800,"Ġ19":801,"echn":802,"asa":803,"Ġam":804,"one":805,"ond":806,"ä½":807,"low":808,"een":809,"ĠCh":810,"osit":811,"Ø§ÙĬ":812,"ĉĉ":813,"Ġrel":814,"eed":815,"ning":816,"uan":817,"ely":818,"igure":819,"asi":820,"now":821,"cre":822,"ugh":823,"Ġhig":824,"Ġkep":825,"aran":826,"res":827,"Ġpeng":828,"uch":829,"ology":830,"ime":831,"Ġmemb":832,"alu":833,"è¿":834,"lam":835,"aya":836,"over":837,"ĠEn":838,"ĠCon":839,"Ġ9":840,"man":841,"ØªÙĪ":842,"lu":843,"ank":844,"15":845,"ative":846,"åĲ":847,"led":848,"13":849,"ØªØ§":850,"Ġpart":851,"Ġdif":852,"ĠZ":853,"16":854,"Ġinter":855,"ms":856,"Ø³ÙĬ":857,"etween":858,"ĠRes":859,"âĢĿ":860,"ound":861,"agement":862,"Ġcl":863,"ities":864,"ä¸į":865,"iew":866,"SI":867,"Ġag":868,"ati":869,"ĠAn":870,"ish":871,"ä¹":872,"ree":873,"Ú½":874,"14":875,"yp":876,"Ġresearch":877,"ka":878,"Ġused":879,"lick":880,"ØªÙĬ":881,"ener":882,"ĠØ¯Ø§ÙĨ":883,"Ġact":884,"te":885,"Ġall":886,"ysis":887,"ii":888,"ĠJournal":889,"eter":890,"agi":891,"Ġshow":892,"ethod":893,"Ġyou":894,"ĠÙĬÚł":895,"hip":896,"Ġexpand":897,"Ġresp":898,"ional":899,"Ġusing":900,"ĠThis":901,"Ġpre":902,"Ġï":903,"ĠAs":904,"ĠOF":905,"Click":906,"ied":907,"å°":908,"TION":909,"Ġcons":910,"ount":911,"âĢĵ":912,"åĪ":913,"Ġanal":914,"les":915,"ua":916,"ĠPer":917,"aus":918,"elah":919,"Ġob":920,"Ġ[":921,"Ùł":922,"ose":923,"Ġro":924,"und":925,"Ġsup":926,"ome":927,"az":928,"Ġbeen":929,"22":930,"Ġacc":931,"ĠÙĪ":932,"Ġsel":933,"åľ":934,"æľī":935,"17":936,"Ġbetween":937,"Ġ=":938,"Ġ:":939,"Ġwork":940,"Ġwe":941,"Ġmore":942,"Ġpada":943,"ana":944,"Ġpen":945,"min":946,"50":947,"ve":948,"æĪĳ":949,"åħ":950,"Figure":951,"Ø±ÙĪ":952,"cept":953,"Ġac":954,"apat":955,"AB":956,"ph":957,"ating":958,"Ġ199":959,"ates":960,"ame":961,"oy":962,"Ġresult":963,"Ġout":964,"å®":965,"AC":966,"ons":967,"Ġel":968,"Ø£":969,"ustr":970,"Ġinv":971,"Ġdiffer":972,"ajian":973,"18":974,"cent":975,"Ġmem":976,"any":977,"Ġdes":978,"ØŃ":979,"ĠØ¬":980,"lect":981,"ä¸Ģ":982,"ahan":983,"Ġass":984,"ric":985,"ings":986,"ature":987,"ukan":988,"AT":989,"rit":990,"ire":991,"ĠØ§ÙĬ":992,"Ġcomm":993,"Ġother":994,"adi":995,"agai":996,"Ġsystem":997,"OR":998,"Ġdata":999,"çĶ":1000,"ÙĪÙħ":1001,"ĠUnivers":1002,"ution":1003,"AP":1004,"formation":1005,"Ùİ":1006,"Ġdo":1007,"Ġdevelop":1008,"arg":1009,"alan":1010,"uj":1011,"30":1012,"ability":1013,"ook":1014,"TR":1015,"ĠIslam":1016,"EM":1017,"Ġthey":1018,"Ġph":1019,"Ġsub":1020,"Ġkepada":1021,"eri":1022,"iness":1023,"idak":1024,"Ġmak":1025,"21":1026,"lah":1027,"Ġker":1028,"Th":1029,"ization":1030,"Ġev":1031,"ĠÙħÙĨ":1032,"ite":1033,"Ġeffect":1034,"ternational":1035,"Ġprocess":1036,"Ġmer":1037,"eh":1038,"Ġvari":1039,"Ġpol":1040,"ural":1041,"uring":1042,"ÙĪÙĦ":1043,"Ġadalah":1044,"hem":1045,"ĠAb":1046,"amb":1047,"Ġtime":1048,"rol":1049,"cr":1050,"Ġ\"":1051,"atu":1052,"Ġone":1053,"Ġsuch":1054,"Ġem":1055,"Ġmy":1056,"action":1057,"Ġtelah":1058,"formance":1059,"trib":1060,"äºĨ":1061,"Ġits":1062,"ateg":1063,"UR":1064,"Ġmodel":1065,"oleh":1066,"Ø¯ÙĬ":1067,"ingg":1068,"Ø§Ùħ":1069,"vel":1070,"Ġpel":1071,"ink":1072,"Ġint":1073,"org":1074,"ress":1075,"ever":1076,"nowled":1077,"................................................................":1078,"Ġoleh":1079,"ection":1080,"ãĢĤãĢĤ":1081,"ĠIt":1082,"23":1083,"UN":1084,"Ġmel":1085,"Ġthere":1086,"ild":1087,"è¯":1088,"Ġproduct":1089,"ences":1090,"rough":1091,"000":1092,"ĠSh":1093,"li":1094,"25":1095,"ĠØ±":1096,"ular":1097,"ĠInd":1098,"usiness":1099,"Ġunder":1100,"Ġbel":1101,"ĠâĢľ":1102,"ump":1103,"ignific":1104,"iron":1105,"ÚłÙĨ":1106,"ĠĠĊ":1107,"Ø§Ø":1108,"www":1109,"iss":1110,"umber":1111,"AM":1112,"Ġso":1113,"AS":1114,"ĠÙĩ":1115,"Ġprov":1116,"ĠMan":1117,"Ġset":1118,"Ġfact":1119,"Ġcol":1120,"itu":1121,"ality":1122,"'s":1123,"å¾":1124,"Ġreg":1125,"Ġhigh":1126,"Ġbut":1127,"ĠØªØ±":1128,"clud":1129,"ency":1130,"ures":1131,"Ġtak":1132,"Ġsc":1133,"duc":1134,"TER":1135,"ffic":1136,"Ġi":1137,"Ġbah":1138,"rowse":1139,"Ġpers":1140,"ĠÚ¤Ø±":1141,"ĠÙĦ":1142,"Ġmethod":1143,"ld":1144,"ocial":1145,"ism":1146,"LE":1147,"ices":1148,"CH":1149,"asan":1150,"Ġup":1151,"ĠQ":1152,"199":1153,"Ġtrans":1154,"Ġwho":1155,"Ġbu":1156,"viron":1157,"ĠSci":1158,"Ġant":1159,"ENT":1160,"mer":1161,"Ġsur":1162,"ĠØ¨Ø±":1163,"oci":1164,"struct":1165,"24":1166,"Ġorgan":1167,"let":1168,"ade":1169,"Ġtidak":1170,"å¥":1171,"roup":1172,"Ġak":1173,"ĠMoh":1174,"ĠÙĨ":1175,"ower":1176,"vironment":1177,"ident":1178,"do":1179,"Ġincre":1180,"plic":1181,"ital":1182,"Ġthan":1183,"US":1184,"AH":1185,"Ġimp":1186,"wo":1187,"Ġar":1188,"https":1189,"IC":1190,"nowledge":1191,"Ġmas":1192,"UM":1193,"Ġno":1194,"iri":1195,"ause":1196,"Ġneed":1197,"Ġtah":1198,"ry":1199,"Table":1200,"reat":1201,"Ġfir":1202,"stit":1203,"Ġsol":1204,"¡Ù":1205,"Ġsem":1206,"fore":1207,"ix":1208,"Ø§ÙĪ":1209,"Ġte":1210,"ĠØ³Ø¨":1211,"Ġdifferent":1212,"æī":1213,"my":1214,"ina":1215,"pert":1216,"ĠĠĠĠĠĠĠĠĠĠĠĠĠĠĠĠĠĠĠĠĠĠĠĠĠĠĠĠĠĠĠĠ":1217,"Ġlevel":1218,"ĠĠĠ":1219,"ise":1220,"Ġmay":1221,"ĠAd":1222,"äºº":1223,"----":1224,"uga":1225,"âĪ":1226,"ble":1227,"26":1228,"Ġyear":1229,"Ġval":1230,"Ġinf":1231,"ĠÂł":1232,"Ġdari":1233,"28":1234,"uth":1235,"ros":1236,"oth":1237,"Ġtechn":1238,"Ġsep":1239,"Ġitu":1240,"arip":1241,"arket":1242,"Ġmed":1243,"Ġco":1244,"Ġuse":1245,"ron":1246,"ÙħØ¨":1247,"Ġlear":1248,"ĠAr":1249,"urr":1250,"ĠResearch":1251,"ering":1252,"alth":1253,"**":1254,"åĽ":1255,"ax":1256,"40":1257,"OD":1258,"Ġpe":1259,"air":1260,"Ġgr":1261,"Ġstudents":1262,"ignificant":1263,"ÙħØ§":1264,"Ġdec":1265,"educ":1266,"aripada":1267,"åľ¨":1268,"Ġ15":1269,"ext":1270,"________":1271,"Ġpres":1272,"ike":1273,"Ġadd":1274,"ĠStud":1275,"ĠAN":1276,"ium":1277,"Ġspec":1278,"Ġnew":1279,"old":1280,"ublic":1281,"ange":1282,"Ġanalysis":1283,"ĠEng":1284,"ery":1285,"gram":1286,"Ġthrough":1287,"ict":1288,"ally":1289,"Ġmin":1290,"hed":1291,"è¡":1292,"had":1293,"ĠÙģ":1294,"Ġinto":1295,"æĹ":1296,"aterial":1297,"Ġwhen":1298,"ne":1299,"mad":1300,"ene":1301,"wh":1302,"Ġjuga":1303,"ulation":1304,"ĠØ¹":1305,"acter":1306,"Ġform":1307,"Ġsebagai":1308,"ern":1309,"ives":1310,"ATION":1311,"Ġtest":1312,"line":1313,"29":1314,"ï¿½ï¿½ï¿½ï¿½":1315,"Ġyour":1316,"tain":1317,"erg":1318,"sh":1319,"27":1320,"Ġonly":1321,"pect":1322,"awa":1323,"ØªÙĨ":1324,"Ġfin":1325,"aph":1326,"Ġ13":1327,"gun":1328,"ses":1329,"Ġatau":1330,"ee":1331,"yar":1332,"ited":1333,"ward":1334,"ä¼":1335,"Ġkes":1336,"ants":1337,"ä½ł":1338,"orm":1339,"ĠComp":1340,"St":1341,"yn":1342,"Ġbagi":1343,"ized":1344,"pos":1345,"Ġmenj":1346,"conom":1347,"æĿ":1348,"be":1349,"Ġneg":1350,"ize":1351,"rel":1352,"ÙĩØ§":1353,"ath":1354,"Ġbi":1355,"ĠØ§ÙĪ":1356,"Ġmost":1357,"ety":1358,"Ġx":1359,"eposit":1360,"Ġtwo":1361,"iqu":1362,"ĥ½":1363,"Ġserv":1364,"Ġ16":1365,"ient":1366,"ereka":1367,"):":1368,"avi":1369,"Ġactiv":1370,"Ġ18":1371,"Ġcor":1372,"Ø§ÙĦÙħ":1373,"Ġany":1374,"me":1375,"Ġcar":1376,"ï¼Ł":1377,"Ġmeny":1378,"upakan":1379,"Ġent":1380,"aman":1381,"Ġhad":1382,"ale":1383,"ool":1384,"EC":1385,"Ġ14":1386,"fter":1387,"ĠĠĠĠĠ":1388,"Ġdaripada":1389,"ationship":1390,"ĠIN":1391,"ivid":1392,"åŃ":1393,"ita":1394,"Ġperformance":1395,"Øµ":1396,"ness":1397,"Ġbased":1398,"overn":1399,"ĠÚ¤Ø¯":1400,"owever":1401,"ollow":1402,"ample":1403,"Ġpartic":1404,"ula":1405,"Ġmain":1406,"ali":1407,"å¸":1408,"60":1409,"ĠTr":1410,"ision":1411,"imp":1412,"ared":1413,"Ġover":1414,"ploy":1415,"Ġimport":1416,"ajar":1417,"pec":1418,"æĸ":1419,"Ġia":1420,"è¦":1421,"inti":1422,"ĠâĢĵ":1423,"33":1424,"uman":1425,"ention":1426,"ÙĢ":1427,"ÙħÚ¤":1428,"ĠØ£":1429,"oint":1430,"ĠEx":1431,"80":1432,"Ġpar":1433,"its":1434,"Ġabout":1435,"ins":1436,"ç»":1437,"iev":1438,"Ûı":1439,"åį":1440,"ments":1441,"Ġappro":1442,"iter":1443,"Ġgener":1444,"yl":1445,"Ġmerupakan":1446,"ÙĨØ¯":1447,"ĠÙĬ":1448,"eld":1449,"ingk":1450,"Ġ12":1451,"istics":1452,"rop":1453,"doi":1454,"ten":1455,"âĢ¦âĢ¦âĢ¦âĢ¦âĢ¦âĢ¦âĢ¦âĢ¦":1456,"hes":1457,"ĠInternational":1458,"Ø§ÙĥÙĨ":1459,"Ġwell":1460,"Ġsek":1461,"ages":1462,"ID":1463,"apa":1464,"ra":1465,"iven":1466,"arkan":1467,"ox":1468,"Ġ,":1469,"Ġsignificant":1470,"çľ":1471,"ification":1472,"Ġsupport":1473,"view":1474,"iran":1475,"word":1476,"IT":1477,"Ġsec":1478,"Ġgroup":1479,"ful":1480,"Ġthese":1481,"tribut":1482,"Ġdr":1483,"ologi":1484,"Ġtyp":1485,"ock":1486,"Ġcr":1487,"Ġkajian":1488,"edu":1489,"].":1490,"pen":1491,"OL":1492,"Ø§Ø±":1493,"tract":1494,"ibr":1495,"ala":1496,"oss":1497,"Ġakan":1498,"EL":1499,"dul":1500,"lish":1501,"ople":1502,"Ġtahun":1503,"aper":1504,"Ġï´":1505,"ĠÚĨ":1506,"Ġexper":1507,"ible":1508,"ĠPr":1509,"unct":1510,"Ø¨ÙĬ":1511,"ively":1512,"Ġbec":1513,"ĠÂ":1514,"Ġinformation":1515,"Ġinclud":1516,"ountr":1517,"åĪ°":1518,"Ġif":1519,"ference":1520,"ick":1521,"Ġpemb":1522,"AK":1523,"Ġwould":1524,"bih":1525,"Ùī":1526,"Ġmeas":1527,"istr":1528,"Ab":1529,"Ġvalue":1530,"è¦ģ":1531,"UL":1532,"stitut":1533,"Ø§Ú¬":1534,"Ġ+":1535,"Ġdesign":1536,"Ġ11":1537,"ĠNo":1538,"Ġamong":1539,"ä»¥":1540,"å·":1541,"Ġ17":1542,"ĠAp":1543,"Al":1544,"yd":1545,"Ġsk":1546,"ious":1547,"Un":1548,"uah":1549,"comp":1550,"lis":1551,"anding":1552,"epend":1553,"Ġlike":1554,"Ġresults":1555,"ential":1556,"Ġbl":1557,"åĬ":1558,"Ġsome":1559,"35":1560,"ÙĪÚł":1561,"RO":1562,"aks":1563,"ÙĪØª":1564,"apan":1565,"ected":1566,"come":1567,"åİ":1568,"ases":1569,"mit":1570,"usan":1571,"äºİ":1572,"Ġrequ":1573,"ĉĉĊ":1574,"å°±":1575,"inc":1576,"uss":1577,"88":1578,"Ġmereka":1579,"ines":1580,"ĠPh":1581,"RE":1582,"Browse":1583,"ÙĬØ³":1584,"Ġde":1585,"Ġwhere":1586,"Ġrec":1587,"Ġdig":1588,"Ġcap":1589,"ÙĬÙĦ":1590,"urn":1591,"olv":1592,"Ġfound":1593,"Ġthem":1594,"æ²":1595,"ting":1596,"ash":1597,"Ġ30":1598,"adem":1599,"ĠInt":1600,"Ġinvest":1601,"ekn":1602,"45":1603,"Ġatt":1604,"ider":1605,"lement":1606,"Ġreport":1607,"Ġstat":1608,"rect":1609,"ika":1610,"ĠAcc":1611,"Ġcontrol":1612,"orld":1613,"als":1614,"uran":1615,"Ch":1616,"ains":1617,"epository":1618,"èĢ":1619,"isk":1620,"70":1621,"Ġ................................................................":1622,"ie":1623,"ĠÙ¢":1624,"Ġfollow":1625,"duction":1626,"angs":1627,"ted":1628,"Ġut":1629,"erti":1630,"Ø®":1631,"Ġbecause":1632,"Ø´":1633,"Ø²":1634,"aracter":1635,"ĠManagement":1636,"ording":1637,"Ġlearning":1638,"ungan":1639,"ÙĦÙĬÙĩ":1640,"ived":1641,"ified":1642,"Ġgo":1643,"mail":1644,"ĠÚ¬":1645,"ces":1646,"AD":1647,"Ġapp":1648,"su":1649,"Ġpem":1650,"ember":1651,"Ġloc":1652,"egr":1653,"36":1654,"ĠFor":1655,"Ġdef":1656,"ÙĪØ³":1657,"åı¯":1658,"Ġproble":1659,"ole":1660,"ĠHe":1661,"åıĳ":1662,"Ġwater":1663,"Ġproject":1664,"ja":1665,"ily":1666,"ĠØ§ÙĬÙĨ":1667,"lp":1668,"Ġindustr":1669,"other":1670,"emper":1671,"ĠØªÙĬ":1672,"serv":1673,"Ġboleh":1674,"ebut":1675,"Pro":1676,"75":1677,"Ġfind":1678,"ĠBinti":1679,"ING":1680,"ðĿĲ":1681,"ini":1682,"ield":1683,"Ġduring":1684,"Ġafter":1685,"è®":1686,"Ġnumber":1687,"ED":1688,"Ø§ÙĦÙĩ":1689,"ĠUniversiti":1690,"angu":1691,"has":1692,"ength":1693,"Ø§Ùĩ":1694,"ĠØ§ÙĪÙĨ":1695,"artic":1696,"unic":1697,"å¹":1698,"urrent":1699,"Ġdue":1700,"å¤§":1701,"ically":1702,"Ġlebih":1703,"akat":1704,"éĩ":1705,"Ġrespond":1706,"ustom":1707,"ĠØ¯Ø§ÙĦÙħ":1708,"ĠSel":1709,"Ġident":1710,"ĠX":1711,"prov":1712,"Ġshould":1713,"cop":1714,"Ġknowledge":1715,"ĠThere":1716,"face":1717,"Ġï´¿":1718,"ĠMohd":1719,"ĠAnal":1720,"Ġdisc":1721,"34":1722,"arm":1723,"ier":1724,"raph":1725,"ĠAND":1726,"ides":1727,"Ø§Ø³":1728,"ulan":1729,"Ġters":1730,"ĠâĢĺ":1731,"Ġ25":1732,"angk":1733,"ĠPeng":1734,"Ġpeople":1735,"è¿Ļ":1736,"ym":1737,"åĩ":1738,"angg":1739,"ran":1740,"Ġdevelopment":1741,"Ġmat":1742,"chool":1743,"Ġrelationship":1744,"ancial":1745,"ila":1746,"hadap":1747,"aris":1748,"put":1749,"An":1750,"lim":1751,"Ġsm":1752,"Ġmarket":1753,"Ġenvironment":1754,"Ġpp":1755,"uny":1756,"ĠUS":1757,"ref":1758,"echnology":1759,"Ġeach":1760,"Ġbeh":1761,"Ġz":1762,"05":1763,"ĠÙ¡Ù":1764,"Ġpass":1765,"39":1766,"IM":1767,"ÂłĠÂł":1768,"Ø§Øª":1769,"Ġdik":1770,"ÙĪØ¯":1771,"ØªÙĪÙĤ":1772,"idikan":1773,"ä¸ª":1774,"by":1775,"Ġlead":1776,"éĢ":1777,"ineering":1778,"Ġcountr":1779,"ological":1780,"Ġquality":1781,"ĠUniversity":1782,"Ġimportant":1783,"ĠPol":1784,"Ġorder":1785,"Ġsatu":1786,"Ġpract":1787,"ĠDr":1788,"Ġmanagement":1789,"ET":1790,"ental":1791,"Ġpur":1792,"Ġdeter":1793,"Ġsim":1794,"Ġpend":1795,"estion":1796,"ey":1797,"uit":1798,"Ġmon":1799,"ĠMel":1800,"ipt":1801,"Ġkel":1802,"Ø«":1803,"Ġmemp":1804,"ÙĦÙĩ":1805,"78":1806,"49":1807,"Ġyears":1808,"aining":1809,"Ġbusiness":1810,"ÙĬØ±":1811,"Ġdem":1812,"ife":1813,"Ġrem":1814,"akt":1815,"els":1816,"ĠScience":1817,"APTER":1818,"TM":1819,"atkan":1820,"ampl":1821,"Ġdapat":1822,"itud":1823,"icro":1824,"Ġgood":1825,"anj":1826,"ĠIslamic":1827,"Ġfirst":1828,"Ġvol":1829,"38":1830,"Ġhis":1831,"Ġsocial":1832,"ource":1833,"sis":1834,"Ġmany":1835,"men":1836,"ÙłÙ":1837,"Ġteach":1838,"Ġhelp":1839,"OS":1840,"ones":1841,"Ġadv":1842,"ĠPM":1843,"Ġmaterial":1844,"overnment":1845,"Ġfactors":1846,"oad":1847,"CHAPTER":1848,"ĠMod":1849,"ÙħÙĦ":1850,"76":1851,"Ø·":1852,"IV":1853,"Ġboth":1854,"urther":1855,"edah":1856,"ĠVol":1857,"urs":1858,"isc":1859,"Malays":1860,"Ġstudies":1861,"ont":1862,"anguage":1863,"Ġses":1864,"OM":1865,"Ġprof":1866,"This":1867,"Ġstruct":1868,"éĹ":1869,"Ġemploy":1870,"As":1871,"Ġdil":1872,"Ġbr":1873,"Ġorang":1874,"æĿ¥":1875,"med":1876,"Ø§Ø¡":1877,"å¿":1878,"âĢľ":1879,"Ġ)":1880,"å¼":1881,"ej":1882,"ä»ĸ":1883,"âĢ¢":1884,"Ùĳ":1885,"Ġht":1886,"ä¸Ĭ":1887,"ove":1888,"48":1889,"ables":1890,"ï´":1891,"Ġmust":1892,"Ġins":1893,"Ġada":1894,"Ġpresent":1895,"âĪĴ":1896,"aik":1897,"AY":1898,"éĤ":1899,"ĠOr":1900,"Ġequ":1901,"andard":1902,"Ġgrow":1903,"Ġeduc":1904,"Ġposit":1905,"Ġla":1906,"Ġcell":1907,"è¡¨":1908,"par":1909,"ough":1910,"Ġbers":1911,"aga":1912,"ĠAbdul":1913,"ĠÙĦØ§":1914,"Ġhttp":1915,"Ġindic":1916,"Ġkem":1917,"Ġnon":1918,"omm":1919,"orang":1920,"Ġseperti":1921,"ĠØ¯ÚłÙĨ":1922,"Ġprogram":1923,"å¥½":1924,"round":1925,"%)":1926,"por":1927,"ÙĬØª":1928,"Ġni":1929,"Ġhigher":1930,"Ġbar":1931,"Ġbet":1932,"Ġlow":1933,"åĨ":1934,"ann":1935,"Ġest":1936,"åĵ":1937,"Ġknow":1938,"Ġthree":1939,"anan":1940,"37":1941,"amin":1942,"vent":1943,"own":1944,"Ġpeny":1945,"Ġconduct":1946,"Ġclass":1947,"Ġmet":1948,"ï´¾":1949,"Ġour":1950,"uthor":1951,"Ġberk":1952,"46":1953,"atis":1954,"II":1955,"ialah":1956,"Ġwhile":1957,"AG":1958,"ogin":1959,"ĠÙħÚł":1960,"Ø°":1961,"Ġstrateg":1962,"aja":1963,"ources":1964,"app":1965,"Ġ2014":1966,"umb":1967,"Ġexpl":1968,"Ġsecara":1969,"uter":1970,"ä¹Ł":1971,"ĠMalaysian":1972,"press":1973,"55":1974,"wn":1975,"IST":1976,"ï¼ģ":1977,"Ġbahawa":1978,"emperature":1979,"unj":1980,"UC":1981,"Ùı":1982,"ä¼ļ":1983,"Ġ2015":1984,"ergy":1985,"pres":1986,"Ø±ÙĪÚ¤":1987,"ĠWh":1988,"ĠHowever":1989,"atic":1990,"ivity":1991,"æĥ":1992,"Ġmend":1993,"ARA":1994,"Ġaw":1995,"with":1996,"åº":1997,"unyai":1998,"Ġ2010":1999,"Ġbehavi":2000,"Ġsebuah":2001,"ean":2002,"red":2003,"ĠIm":2004,"ÙĪØ§Ùĩ":2005,"ÙĲ":2006,"Ø§Ø±Ø§":2007,"Ġfe":2008,"Ġ2012":2009,"ani":2010,"ĠStr":2011,"ulty":2012,"Ġ/":2013,"ts":2014,"Ġvery":2015,"anya":2016,"Ġket":2017,"tal":2018,"ĠPl":2019,"Ġialah":2020,"Ġtersebut":2021,"ption":2022,"Ġindivid":2023,"100":2024,"ä¸ĭ":2025,"Ġinflu":2026,"atisf":2027,"Ġgu":2028,"ĠRe":2029,"ceived":2030,"Ġrate":2031,"ator":2032,"ĠPen":2033,"ced":2034,"ĠRM":2035,"cond":2036,"çĽ":2037,"ibrary":2038,"imum":2039,"ince":2040,"Ġcould":2041,"pecial":2042,"ÙħÙĬ":2043,"Ġapplic":2044,"Ġ2017":2045,"eknologi":2046,"Ġthen":2047,"Ġiaitu":2048,"ify":2049,"Ġelect":2050,"onom":2051,"åĴ":2052,"æķ":2053,"Ġget":2054,"ayu":2055,"acy":2056,"ĠOn":2057,"centr":2058,"yang":2059,"unan":2060,"itions":2061,"Ġ2011":2062,"erta":2063,"Ġoper":2064,"Ġ'":2065,"angkan":2066,"STR":2067,"etwork":2068,"evelopment":2069,"Ġ26":2070,"ote":2071,"Ġ2013":2072,"85":2073,"uhan":2074,"89":2075,"Ġdib":2076,"mas":2077,"lear":2078,"Ġeconom":2079,"å¦":2080,"ĠØŃ":2081,"èĩ":2082,"lex":2083,"Ø§Ú¤":2084,"inal":2085,"86":2086,"ÙĪÙĩ":2087,"hel":2088,"Ġcond":2089,"hemical":2090,"Ġtoward":2091,"Ġcost":2092,"echan":2093,"struction":2094,"44":2095,"sy":2096,"aku":2097,"Ġgl":2098,"plied":2099,"unity":2100,"ross":2101,"Ġdet":2102,"æĢ":2103,"éģ":2104,"å¯":2105,"Ġlain":2106,"lin":2107,"requ":2108,"Ġfunct":2109,"Ġdirect":2110,"ÙĪÙĥ":2111,"Ġdit":2112,"2013":2113,"io":2114,"perties":2115,"uf":2116,"Ġshows":2117,"ĠØ§ÙĪÙĨØªÙĪÙĤ":2118,"Ø£ÙĨ":2119,"Ġmaj":2120,"ajaran":2121,"Ġhow":2122,"HE":2123,"anyak":2124,"Ġaddition":2125,"90":2126,"Ġpaper":2127,"2014":2128,"Ġfl":2129,"comm":2130,"ĠMed":2131,"Ġarea":2132,"br":2133,"Ġpublic":2134,"ĠCON":2135,"aff":2136,"ĠTer":2137,"©Ù":2138,"Ġcult":2139,"æŃ":2140,"Ġlong":2141,"alues":2142,"Ġair":2143,"igh":2144,"2012":2145,"ks":2146,"ugg":2147,"ĠØ¥":2148,"ĠDes":2149,"uz":2150,"Ġser":2151,"uccess":2152,"å¾Ī":2153,"ĠAz":2154,"api":2155,"Ġ24":2156,"Ġ100":2157,"å¤ļ":2158,"ij":2159,"Ġconsider":2160,"na":2161,"yt":2162,"Ġlim":2163,"ĠĠĠĠĠĠĠĠĠĠĠĠĠĠĠĠĠĠĠĠĠ":2164,"77":2165,"ocus":2166,"Ġ2016":2167,"dan":2168,"usion":2169,"omen":2170,"read":2171,"aculty":2172,"01":2173,"è§":2174,"Ġconf":2175,"Ġ2009":2176,"ÙĨÙĬ":2177,"ume":2178,"éĥ½":2179,"èµ":2180,"entuk":2181,"Ġoff":2182,"Ġtu":2183,"Ġaccount":2184,"arah":2185,"roduction":2186,"ren":2187,"Ġcre":2188,"Ġcustom":2189,"çľĭ":2190,"ĠEduc":2191,"aka":2192,"Ġhealth":2193,"Ġ50":2194,"Ġmot":2195,"SS":2196,"IG":2197,"Ġmempunyai":2198,"ually":2199,"åıĳè¡¨":2200,"ograph":2201,"ÙĪÙĤ":2202,"ĠAh":2203,"inggi":2204,"ience":2205,"2015":2206,"fficient":2207,"ØªÙĤ":2208,"iau":2209,"ukkan":2210,"ÙĴ":2211,"Ġdim":2212,"iod":2213,"Ġsame":2214,"Ġbeing":2215,"sue":2216,"Ġåıĳè¡¨":2217,"ÙĢÙĢ":2218,"based":2219,"Ġop":2220,"erm":2221,"ements":2222,"cript":2223,"Ø±ÙĪÚ¤Ø§ÙĥÙĨ":2224,"Ġpop":2225,"ilai":2226,"ull":2227,"osition":2228,"ikut":2229,"è½":2230,"icy":2231,"ĠMal":2232,"uat":2233,"Ġperson":2234,"Ġcharacter":2235,"31":2236,"2010":2237,"åĳ":2238,"ihan":2239,"tribution":2240,"Univers":2241,"Ġmean":2242,"Ġav":2243,"chiev":2244,"Ġkerana":2245,"gunakan":2246,"çī":2247,"oft":2248,"æ¯":2249,"65":2250,"CO":2251,"Ġrisk":2252,"Ġtotal":2253,"ĠAnalysis":2254,"Ġterhadap":2255,"dapat":2256,"Ġpert":2257,"that":2258,"Ġbank":2259,"ammad":2260,"agn":2261,"Ġinvolv":2262,"ĠNew":2263,"79":2264,"atal":2265,"2011":2266,"æ²¡":2267,"ĠAm":2268,"ck":2269,"éĤ£":2270,"Ġ2008":2271,"vious":2272,"Ġkaw":2273,"son":2274,"Ġpelajar":2275,"--------":2276,"Ġobtain":2277,"urut":2278,"nov":2279,"ĠÙħØ±ÙĪÚ¤Ø§ÙĥÙĨ":2280,"Ġdid":2281,"Ġown":2282,"arch":2283,"Ġantara":2284,"uar":2285,"ists":2286,"Ø³ÙĨ":2287,"Ġ21":2288,"isis":2289,"ĠEngineering":2290,"iii":2291,"ised":2292,"olah":2293,"Ġben":2294,"Ġher":2295,"ĠØ³Ø¨ÙĪØ§Ùĩ":2296,"Ġcollect":2297,"ĠAg":2298,"Ġkeb":2299,"arge":2300,"Ġpati":2301,"Ġunderst":2302,"Ġcurrent":2303,"Ġaffect":2304,"Ġobject":2305,"Ġmult":2306,"Ad":2307,"Ġincrease":2308,"Ġend":2309,"reatment":2310,"atch":2311,"Ġear":2312,"ured":2313,"ĠStudy":2314,"ABSTR":2315,"Ġstill":2316,"Ġopt":2317,"unication":2318,"NO":2319,"unakan":2320,"Ġref":2321,"MS":2322,"32":2323,"si":2324,"ÙĪÚ¬":2325,"Ġpot":2326,"cul":2327,"itor":2328,"enting":2329,"yat":2330,"ydro":2331,"ogn":2332,"æł":2333,"istic":2334,"æĬ":2335,"di":2336,"asing":2337,"è¾":2338,"Ġpoint":2339,"IR":2340,"Ġjust":2341,"Ġpassword":2342,"Ġvarious":2343,"åĲİ":2344,"Ġimpact":2345,"era":2346,"åİ»":2347,"Ġmenjadi":2348,"Ø§Ø¯":2349,"Ġ2018":2350,"66":2351,"ĠTo":2352,"Ġachiev":2353,"ĠNor":2354,"En":2355,"aji":2356,"Ġfood":2357,"æĭ":2358,"OG":2359,"Ġwhat":2360,"Ø±ÙĬÙĥ":2361,"ired":2362,"Ø¶":2363,"IL":2364,"Ú¤Ø¯":2365,"oid":2366,"obal":2367,"ner":2368,"Ġeng":2369,"Ġoil":2370,"ĠTechnology":2371,"Ø§Ú¬Ø§ÙĬ":2372,"æĶ":2373,"Ġdep":2374,"itan":2375,"çİ":2376,"istance":2377,"iap":2378,"very":2379,"ä¸º":2380,"ma":2381,"Login":2382,"yah":2383,"ĠÎ":2384,"Malaysia":2385,"LIST":2386,"Ø§Ø¨":2387,"47":2388,"ibility":2389,"sor":2390,"Ġsize":2391,"Ġshown":2392,"ector":2393,"Ġpower":2394,"ĠMus":2395,"Ġthose":2396,"uture":2397,"TA":2398,"ware":2399,"stud":2400,"pond":2401,"Ġmake":2402,"Ġ2020":2403,"Ġrelated":2404,"Ġcompared":2405,"2016":2406,"ership":2407,"Ġperk":2408,"ustain":2409,"Ġes":2410,"æ¬":2411,"Ġ2007":2412,"Ġhuman":2413,"val":2414,"éĿ":2415,"ode":2416,"Ġsecond":2417,"ACT":2418,"unjukkan":2419,"EMENT":2420,"Ġcase":2421,"ÙĬÙĥ":2422,"ilar":2423,"Ġtemp":2424,"itude":2425,"reg":2426,"æŀ":2427,"land":2428,"dr":2429,"ty":2430,"Ġgrowth":2431,"Ġtowards":2432,"oo":2433,"cont":2434,"ĠIf":2435,"SION":2436,"âĢĶ":2437,"ĠBin":2438,"ependent":2439,"Ġfac":2440,"ined":2441,"imes":2442,"ique":2443,"è¿ĺ":2444,"æĦ":2445,"Ġbetter":2446,"co":2447,"2009":2448,"ima":2449,"yarakat":2450,"uala":2451,"ti":2452,"posed":2453,"Ġread":2454,"æĹ¶":2455,"ĠSystem":2456,"è´":2457,"Ġfinancial":2458,"2017":2459,"Ġbert":2460,"EE":2461,"arian":2462,"Ġtemperature":2463,"gen":2464,"ills":2465,"ÙħÙĨ":2466,"Ġaku":2467,"Ġ40":2468,"84":2469,"Ġhand":2470,"Ġactivities":2471,"ior":2472,"din":2473,"ĠØªØ§Ùĩ":2474,"ä¸Ń":2475,"Ġmedia":2476,"ademic":2477,"ĠÚ¤ÙĨ":2478,"Ġåıĳè¡¨äºİ":2479,"ODUC":2480,"Ġbro":2481,"Ġeducation":2482,"Ġless":2483,"alui":2484,"Ġlagi":2485,"ĠÙĤ":2486,"Ġ2006":2487,"browse":2488,"ĠAss":2489,"åĢ":2490,"uru":2491,"aha":2492,"Ġfocus":2493,"ĠBusiness":2494,"67":2495,"ĠðĿĳ":2496,"ĠCont":2497,"ission":2498,"èĥ½":2499,"Ġvalues":2500,"87":2501,"Is":2502,"iver":2503,"ĠRepository":2504,"Ġinvestig":2505,"Ġ2019":2506,"Ġindividual":2507,"Ġconsum":2508,"Ġinterest":2509,"Ġocc":2510,"ä»¬":2511,"Ġdel":2512,"ïĤ":2513,"ä¹Ī":2514,"Ġtrad":2515,"amad":2516,"Ġka":2517,"Ġflow":2518,"ingga":2519,"ĠØ§ÙĨ":2520,"Ġparticip":2521,"Ġserta":2522,"sp":2523,"idence":2524,"ake":2525,"Ġback":2526,"Ġsu":2527,"wa":2528,"Ġcal":2529,"artment":2530,"________________":2531,"Ġmeasure":2532,"ĠÙİ":2533,"Ġbefore":2534,"Â·":2535,"ets":2536,"Ġemp":2537,"Sh":2538,"Ġmajor":2539,"éĻ":2540,"Ġproblem":2541,"hid":2542,"meng":2543,"Ġ29":2544,"Ġfam":2545,"Ġrespect":2546,"Ġsuccess":2547,"Ġcent":2548,"ANG":2549,"CE":2550,"gr":2551,"isi":2552,"vey":2553,"Ġret":2554,"pre":2555,"irect":2556,"iving":2557,"Ġworld":2558,"not":2559,"Ġ$":2560,"edict":2561,"ĠØ§ÙħÙĦ":2562,"Ġapproach":2563,"atisfaction":2564,"uggest":2565,"æ°":2566,"ane":2567,"Ġpercent":2568,"Ġrole":2569,"Ø¥":2570,"Ġgovernment":2571,"VI":2572,"Ġked":2573,"ilities":2574,"ffici":2575,"Ġcrit":2576,"Ġrespondents":2577,"Ġmade":2578,"ĠFigure":2579,"pp":2580,"Ġext":2581,"ilm":2582,"ãĢģ":2583,"Ġlife":2584,"Ġwithin":2585,"ender":2586,"Ġyg":2587,"Per":2588,"PER":2589,"çĶ¨":2590,"Ġobserv":2591,"Con":2592,"ĠØªØ§ÙĩÙĪÙĨ":2593,"ĠMin":2594,"amples":2595,"åĴĮ":2596,"abor":2597,"iTM":2598,"Ġconcentr":2599,"ĠTeknologi":2600,"oor":2601,"ä¿":2602,"Ġquestion":2603,"ather":2604,"ason":2605,"Ġprovid":2606,"Ġ2005":2607,"Ġ23":2608,"Ġsubject":2609,"itive":2610,"Ġimplement":2611,"Ġï¿½":2612,"Ġ22":2613,"Ġbas":2614,"59":2615,"69":2616,"Ġpost":2617,"ĠElect":2618,"ĠMARA":2619,"ĠFin":2620,"eria":2621,"ami":2622,"ees":2623,"ĠĠĠĠĠĠ":2624,"ÙĪÙĦØ§":2625,"Ġevalu":2626,"ĠProf":2627,"Ġâ":2628,"erc":2629,"ĠEducation":2630,"ïĢ":2631,"agian":2632,"inter":2633,"less":2634,"!!":2635,"book":2636,"ĠAc":2637,"åı¯ä»¥":2638,"Ġdigunakan":2639,"aling":2640,"Ġreview":2641,"anced":2642,"Ġ27":2643,"Ġmasa":2644,"lished":2645,"ĠRev":2646,"Ġmenggunakan":2647,"etic":2648,"lease":2649,"atural":2650,"ĠØ§Ø¯":2651,"ĠAt":2652,"Ġtype":2653,"ĠStat":2654,"ems":2655,"ination":2656,"ĠBah":2657,"57":2658,"Ä±":2659,"askan":2660,"erah":2661,"urb":2662,"CL":2663,"09":2664,"Ġparam":2665,"Ġpositive":2666,"ALAY":2667,"Ġ28":2668,"Ġproperties":2669,"ni":2670,"ĠDi":2671,"Ġnak":2672,"ried":2673,"ĠAM":2674,"ling":2675,"UD":2676,"Ġright":2677,"tion":2678,"letak":2679,"ven":2680,"abah":2681,"åĩº":2682,"osp":2683,"pecially":2684,"ĠData":2685,"ĠKh":2686,"å®¶":2687,"ĠNur":2688,"PP":2689,"SN":2690,"Ġchild":2691,"Ġ|":2692,"ilan":2693,"Ġindustry":2694,"ger":2695,"ertain":2696,"Ġfr":2697,"Ġenergy":2698,"ilding":2699,"SIA":2700,"iterature":2701,"Ġagain":2702,"bon":2703,"umm":2704,"Ġsmall":2705,"ĠÚ¤Úł":2706,"Ġatas":2707,"è°":2708,"Re":2709,"ĠMelayu":2710,"andar":2711,"peng":2712,"åģ":2713,"Ġimprov":2714,"sues":2715,"43":2716,"UUM":2717,"Ġposs":2718,"atory":2719,"ends":2720,"ÂłĠÂłÂłĠÂł":2721,"Ø³ÙĬØ§":2722,"å½":2723,"Ġsample":2724,"2018":2725,"Ġu":2726,"Ar":2727,"Ġsurface":2728,"56":2729,"42":2730,"Ġprot":2731,"Ġconcept":2732,"Ġide":2733,"èĩª":2734,"æ³":2735,"Ġcompet":2736,"Res":2737,"2008":2738,"ceed":2739,"ĠTable":2740,"Ġpun":2741,"Ġ2004":2742,"ï¼ļ":2743,"uri":2744,"aki":2745,"å¦Ĥ":2746,"sych":2747,"bagai":2748,"è¿ĩ":2749,"Ġprovide":2750,"Ġcontin":2751,"vers":2752,"ĠØ¯Ø±ÙĬ":2753,"day":2754,"Ġtechnology":2755,"Ġacid":2756,"ĠKuala":2757,"ihat":2758,"Ġdia":2759,"omun":2760,"Ġchang":2761,"ODUCTION":2762,"çĶŁ":2763,"ler":2764,"Ġnegara":2765,"ĠComm":2766,"ST":2767,"............":2768,"arga":2769,"dis":2770,"Ġshowed":2771,"åī":2772,"Ø±ÙĨ":2773,"hib":2774,"ĠAhmad":2775,"Ġstandard":2776,"ĠEffect":2777,"jek":2778,"ĠĠĠĠĠĠĠ":2779,"ended":2780,"ĠBi":2781,"ours":2782,"onesia":2783,"ÙĪØ±Úł":2784,"Ġonline":2785,"Ġgiven":2786,"oot":2787,"ĠSocial":2788,"ĠCor":2789,"pers":2790,"iga":2791,"ĠØ§ÙĪÙĦÙĬÙĩ":2792,"Ġservice":2793,"ailable":2794,"we":2795,"Ġgre":2796,"IVER":2797,"'t":2798,"istem":2799,"ught":2800,"Ġplay":2801,"Journal":2802,"present":2803,"Ġconducted":2804,"lum":2805,"alleng":2806,"Ġtop":2807,"ïģ":2808,"ĠInstitut":2809,"du":2810,"ira":2811,"ðĿĳĸ":2812,"ults":2813,"cor":2814,"Ġproducts":2815,"from":2816,"Ġdiscuss":2817,"eters":2818,"ĠWe":2819,"Ġbest":2820,"Ġcontent":2821,"cer":2822,"gor":2823,"Ø¬Ø§":2824,"è¯´":2825,"ker":2826,"Ġlocal":2827,"Ġproduction":2828,"ĠMuh":2829,"Ġstructure":2830,"æľĢ":2831,"41":2832,"ysical":2833,"Ġkal":2834,"ĠRE":2835,"edia":2836,"oper":2837,"ĠØĮ":2838,"ĠDis":2839,"Ġterletak":2840,"ongan":2841,"ĠIntroduction":2842,"ression":2843,"egree":2844,"duced":2845,"oph":2846,"åĮ":2847,"END":2848,"ME":2849,"ĠST":2850,"ĠØ³Ø¨Ø§Ú¬Ø§ÙĬ":2851,"å¹´":2852,"ape":2853,"ä¾":2854,"03":2855,"Ø¡":2856,"istry":2857,"Ġ2003":2858,"Ġfactor":2859,"ÙĬØ§":2860,"ework":2861,"Ġ2021":2862,"Ġtan":2863,"Wh":2864,"Ġinst":2865,"Ġkawasan":2866,"ody":2867,"ĠBer":2868,"ãĢĢ":2869,"Ġsen":2870,"ground":2871,"å¾Ĺ":2872,"Ġway":2873,"imb":2874,"ĠCol":2875,"TRODUCTION":2876,"Ġprom":2877,"çĤ":2878,"Ġlanguage":2879,"Ġsaya":2880,"Ġenter":2881,"Ġeven":2882,"akukan":2883,"anning":2884,"ÙĦØªÙĤ":2885,"ĠPers":2886,"za":2887,"ĠMat":2888,"Ġcompany":2889,"Ġvariables":2890,"ĠSciences":2891,"Ġdah":2892,"Ġdij":2893,"de":2894,"ĠUs":2895,"Ġunivers":2896,"ociety":2897,"Øº":2898,"02":2899,"Ġschool":2900,"ton":2901,"Ġmethods":2902,"Ġevery":2903,"Ġwithout":2904,"esar":2905,"crib":2906,"Ġdetermin":2907,"PT":2908,"ALAYSIA":2909,"SITI":2910,"Ġpotential":2911,"organ":2912,"eks":2913,"angunan":2914,"ĠInter":2915,"Ġstrength":2916,"Ġassess":2917,"Ġsuggest":2918,"Ġsens":2919,"ĠMe":2920,"Ġsever":2921,"Ġsl":2922,"Ġperform":2923,"83":2924,"åŃĲ":2925,"ĠÙģÙĬ":2926,"ĠBr":2927,"Ġperiod":2928,"ĠRel":2929,"bi":2930,"2007":2931,"æİ":2932,"ĠConference":2933,"more":2934,"ĠSp":2935,"ĠTherefore":2936,"tif":2937,"ument":2938,"ĠJoh":2939,"ĠEnglish":2940,"research":2941,"ĠDevelopment":2942,"tic":2943,"ained":2944,"usi":2945,"Ġpay":2946,"ronic":2947,"unt":2948,"çĦ":2949,"Ġreal":2950,"ĠCO":2951,"Ġcountries":2952,"repr":2953,"Ġamount":2954,"Ġvis":2955,"ĠSur":2956,"Ġterms":2957,"Ġsama":2958,"ae":2959,"aring":2960,"get":2961,"ĠThese":2962,"Ġhal":2963,"Ġpat":2964,"Ġcontribut":2965,"mm":2966,"rec":2967,"Ġ2000":2968,"ç§":2969,"ãĢĤãĢĤãĢĤ":2970,"ÙĬØ©":2971,"oney":2972,"olar":2973,"ams":2974,"clusion":2975,"Ġchange":2976,"adu":2977,"Ġthink":2978,"epartment":2979,"??":2980,"ramework":2981,"sc":2982,"URE":2983,"ĠAllah":2984,"ead":2985,"RM":2986,"ĠModel":2987,"Ġactivity":2988,"ĠSing":2989,"Ġexpress":2990,"anies":2991,"alm":2992,"Ġmark":2993,"Ġable":2994,"ĠØªÙĦÙĩ":2995,"Ġnetwork":2996,"Ġview":2997,"Ġrequire":2998,"Ġmana":2999,"ikasi":3000,"Ġ...":3001,"gorith":3002,"umpur":3003,"å¤©":3004,"2006":3005,"Ġseg":3006,"ĠÃ":3007,"ĠØªØ±ÙĦØªÙĤ":3008,"mod":3009,"ABSTRACT":3010,"Ġmicro":3011,"ĠSub":3012,"82":3013,"TS":3014,"ising":3015,"iveness":3016,"verage":3017,"Ġsince":3018,"Ø³Ø§":3019,"ances":3020,"ota":3021,"Ġmenunjukkan":3022,"ĠEconom":3023,"usia":3024,"Ġfour":3025,"Ġexperim":3026,"ĠSc":3027,"Ġorganiz":3028,"aging":3029,"reprene":3030,"utan":3031,"Ġstart":3032,"Ġreported":3033,"ĠServ":3034,"Ġpolit":3035,"ormal":3036,"Ġrespons":3037,"vest":3038,"Ġthank":3039,"aster":3040,"ĠAccount":3041,"ĠGr":3042,"sel":3043,"enal":3044,"hir":3045,"inan":3046,"åķ":3047,"ABLE":3048,"ÙĪÚ¤":3049,"2020":3050,"IP":3051,"Ġnan":3052,"Ù¢":3053,"Ġdoes":3054,"isting":3055,"ension":3056,"Ġmelalui":3057,"ĠCl":3058,"Ġservices":3059,"ena":3060,"ral":3061,"atio":3062,"Ġed":3063,"Ġsal":3064,"ĠHealth":3065,"Ġfurther":3066,"Ġpast":3067,"ÙĬÚłÚ¬":3068,"Ġnow":3069,"OLOG":3070,"Ġfindings":3071,"Ġespecially":3072,"ĠStudies":3073,"ACK":3074,"antan":3075,"ĠWith":3076,"Ġinfluence":3077,"ĠAnd":3078,"Ġassoci":3079,"Ġobtained":3080,"Ġtet":3081,"Ø³Øª":3082,"å±":3083,"Ġterb":3084,"Ġfuture":3085,"Ġextract":3086,"ername":3087,"ÙĬØ¯":3088,"Ġ2001":3089,"iple":3090,"ĠÙ¡Ù©Ù":3091,"æľ¬":3092,"==":3093,"Universiti":3094,"2019":3095,"ĠNeg":3096,"att":3097,"ternet":3098,"ori":3099,"06":3100,"ïĥ":3101,"oard":3102,"Ġenc":3103,"Ġdone":3104,"Ġdiff":3105,"har":3106,"mine":3107,"aving":3108,"ku":3109,"ĠØ´":3110,"Ġjob":3111,"ĠTrans":3112,"atures":3113,"NA":3114,"ĠAll":3115,"ĠMALAYSIA":3116,"Ġmenc":3117,"Ġprevious":3118,"prove":3119,"81":3120,"das":3121,"ĠTe":3122,"Ġeffects":3123,"Ġmuch":3124,"ĠOb":3125,"Ġhous":3126,"uka":3127,"Ġtent":3128,"Ġdev":3129,"ðĿľ":3130,"uang":3131,"fficiency":3132,"lm":3133,"ators":3134,"Ġhttps":3135,"oftware":3136,"Ġtool":3137,"itation":3138,"Ġbenef":3139,"isation":3140,"ĠčĊ":3141,"Ġpress":3142,"ĠÙħÙħØ¨":3143,"ÙĪØ§ÙĨ":3144,"Ġperlu":3145,"Ġberl":3146,"Ġcour":3147,"ĠMethod":3148,"Ġdom":3149,"ufact":3150,"Ġtreatment":3151,"copus":3152,"ĠAct":3153,"Ġmasyarakat":3154,"outh":3155,"Ġstate":3156,"err":3157,"Moh":3158,"omet":3159,"ĠIndonesia":3160,"oral":3161,"til":3162,"IVERSITI":3163,"atif":3164,"hest":3165,"Ġ2002":3166,"53":3167,"udah":3168,"ll":3169,"Ġbahasa":3170,"uum":3171,"Repository":3172,"Ġsed":3173,"ĠCo":3174,"itional":3175,"Ġne":3176,"Ġeconomic":3177,"Ġapplication":3178,"ISSN":3179,"Ġtinggi":3180,"OP":3181,"ï¿½ï¿½ï¿½":3182,"onse":3183,"Ġaud":3184,"ently":3185,"pose":3186,"Ġwrit":3187,"Ġseveral":3188,"Ġcare":3189,"ikat":3190,"iate":3191,"Ġdiper":3192,"Ġcaus":3193,");":3194,"Ġneeds":3195,"ĠSar":3196,"Ġcountry":3197,"Ġtypes":3198,"ÙĪØ¨":3199,"ÙĦÙħ":3200,"ÙĬÚ¤":3201,"ihak":3202,"Ġkec":3203,"hub":3204,"ĠEm":3205,"Ġregard":3206,"Ġmix":3207,"cle":3208,"ĠTHE":3209,"ĠOrgan":3210,"aktor":3211,"Ġincluding":3212,"EW":3213,"Ġ60":3214,"ĠÙĬÙģ":3215,"ĠPre":3216,"ype":3217,"arison":3218,"Ġfollowing":3219,"Ġmechan":3220,"ïī":3221,"Ø§Ø±ÙĬ":3222,"Ġfield":3223,"Ġcomb":3224,"åĽ½":3225,"å°ı":3226,"ĠKel":3227,"ayaan":3228,"ilik":3229,"apter":3230,"umpulan":3231,"ately":3232,"54":3233,"Ġdeveloped":3234,"relation":3235,"Ġeth":3236,"ĠRep":3237,"Ġenh":3238,"Ex":3239,"ister":3240,"ĠLibrary":3241,"ajah":3242,"ird":3243,"Ġmaterials":3244,"Ġ31":3245,"OH":3246,"sur":3247,"Ġsah":3248,"ha":3249,"Ġcommon":3250,"Ġfunction":3251,"Ġintegr":3252,"iffer":3253,"ept":3254,"novation":3255,"ĠØ¯ÙĬ":3256,"Ġred":3257,"04":3258,"Ġlower":3259,"ĠAk":3260,"Ġtake":3261,"DG":3262,"2005":3263,"Ġnam":3264,"Ġissues":3265,"Ġche":3266,"urusan":3267,"Ġberb":3268,"une":3269,"Ġself":3270,"Ġpredict":3271,"ulf":3272,"Ġlearn":3273,"arr":3274,"Ġbin":3275,"way":3276,"07":3277,"ĠØ³ÙĦ":3278,"illion":3279,"ope":3280,"earning":3281,"ĠâĪĴ":3282,"Ġpatients":3283,"ensity":3284,"Â°":3285,"Ġproblems":3286,"ule":3287,"Ġlay":3288,"Ġlaw":3289,"acc":3290,"éĩĮ":3291,"pe":3292,"51":3293,"respond":3294,"æĥ³":3295,"52":3296,"lib":3297,"Ġpas":3298,"ĠThey":3299,"ĠÙĪØ§ÙĦ":3300,"58":3301,"ĠDesign":3302,"ta":3303,"dasarkan":3304,"ministr":3305,"urity":3306,"è·":3307,"Ġshe":3308,"igin":3309,"ĠLumpur":3310,"ulis":3311,"Ġcall":3312,"porate":3313,"çĦ¶":3314,"Ġconsidered":3315,"ĠSec":3316,"elajaran":3317,"stant":3318,"Ø±Ùĩ":3319,"ways":3320,"Ġbeliau":3321,"angat":3322,"Ø§Ø¡ÙĬ":3323,"ĠAmer":3324,"cons":3325,"Acc":3326,"æĻ":3327,"ĠCent":3328,"It":3329,"PS":3330,"ĠKajian":3331,"elling":3332,"Ġload":3333,"Ġproposed":3334,"obile":3335,"ingkat":3336,"çŁ":3337,"wan":3338,"aim":3339,"ahim":3340,"ĠÙĪØ§":3341,"ĠØ§Ø¯Ø§ÙĦÙĩ":3342,"åıª":3343,"ui":3344,"Ġexperience":3345,"Ġfamily":3346,"Ġword":3347,"Ġdip":3348,"ĠHal":3349,"was":3350,"enis":3351,"åľ°":3352,"iff":3353,"ypot":3354,"ehavi":3355,"ĠBel":3356,"requency":3357,"Ġsitu":3358,"lor":3359,"df":3360,"64":3361,"uddin":3362,"arget":3363,"ebab":3364,"aking":3365,"ĠReview":3366,"UNIVERSITI":3367,"ĠÂ±":3368,"arang":3369,"Ġcook":3370,"Ġstress":3371,"Ġvers":3372,"Ġcompon":3373,"ute":3374,"æŀľ":3375,"Ġsemua":3376,"Ġdua":3377,"ĠØ³Ùĥ":3378,"Ġkita":3379,"Ġterdapat":3380,"mat":3381,"Ġskills":3382,"Ġgroups":3383,"ÙĬÙĩ":3384,"wit":3385,"Ġallow":3386,"çº":3387,"Ġmm":3388,"Ġ%":3389,"ĠThus":3390,"cular":3391,"sequ":3392,"Ġ................................................................................................":3393,"Ġspecific":3394,"amai":3395,"ynam":3396,"èĢĮ":3397,"ï¼ī":3398,"å¿ĥ":3399,"Ġmonth":3400,"ENG":3401,"Ġsesu":3402,"ffor":3403,"âĢĺ":3404,"Ġabove":3405,"International":3406,"pek":3407,"Ġens":3408,"ayah":3409,"ĠNov":3410,"MP":3411,"iman":3412,"ats":3413,"Ġrest":3414,"Ġprice":3415,"Ġsolution":3416,",\"":3417,"ĠMuslim":3418,"CT":3419,"ories":3420,"Ġsing":3421,"ĠSabah":3422,"63":3423,"éģĵ":3424,"otal":3425,"eness":3426,"Ġdown":3427,"Ġopen":3428,"col":3429,"endiri":3430,"ĠQu":3431,"Ġda":3432,"Ġbal":3433,"ĠØ¨ÙĩØ§":3434,"TABLE":3435,"Ġday":3436,"iviti":3437,"68":3438,"ke":3439,"ÙĪÙĥÙĨ":3440,"sub":3441,"Ġsystems":3442,"umlah":3443,"Ġparticular":3444,"Ġconcentration":3445,"omb":3446,"Ġbanyak":3447,"EP":3448,"Ġaccess":3449,"Ġaccept":3450,"74":3451,"estions":3452,"Ġaim":3453,"ask":3454,"itative":3455,"ajaan":3456,"abled":3457,"umer":3458,"ru":3459,"adual":3460,"olution":3461,"Ġlast":3462,"ĠSearch":3463,"scopus":3464,"2004":3465,"2000":3466,"which":3467,"å¯¹":3468,"aq":3469,"UT":3470,"ĠÙ¢ÙłÙ":3471,"ĠKeb":3472,"Ø§ØªÙĪ":3473,"Ġsej":3474,"berapa":3475,"Ġimprove":3476,"mar":3477,"Ġ................................":3478,"sup":3479,"Ġplant":3480,"ä»Ģ":3481,"Ġ35":3482,"Ġsimilar":3483,"yz":3484,"ĠPar":3485,"Ġknown":3486,"71":3487,"upun":3488,"Ġaut":3489,"ĠSains":3490,"lumat":3491,"ĠÙĨÚ¬":3492,"ĠĠĠĠĠĠĠĠĠĠĠĠĠĠĠĠĠĠĠĠĠĠĠĠĠĠĠĠĠĠĠĠĠĠĠĠĠĠĠĠĠĠĠĠĠĠĠĠĠĠĠĠĠĠĠĠĠĠĠĠĠĠĠĠ":3493,"About":3494,"åĲĹ":3495,"éĹ®":3496,"Ġissue":3497,"95":3498,"Ġgen":3499,"ues":3500,"2003":3501,"ĠTest":3502,"umah":3503,"OT":3504,"73":3505,".;":3506,"ĠInformation":3507,"ites":3508,"Ġbaru":3509,"Ġtraining":3510,"æīĢ":3511,"Ġsatisfaction":3512,"ye":3513,"Ġsee":3514,"Ġincreased":3515,"Note":3516,"Ġgeneral":3517,"gunaan":3518,"ĠRES":3519,"Ġstrong":3520,"Ġfib":3521,"Ġchildren":3522,"Ġsyn":3523,"aud":3524,"Vol":3525,"Stat":3526,"yr":3527,"Ġland":3528,"akar":3529,"thers":3530,"é¢":3531,"Ġdegree":3532,"ura":3533,"etah":3534,"new":3535,"ØªØ±":3536,"ply":3537,"Ġestim":3538,"ivation":3539,".....":3540,"irst":3541,"Ġexample":3542,"Ġbecome":3543,"Ġgive":3544,"Ġrange":3545,"abila":3546,"Ø¯ÙĤ":3547,"Ġmeans":3548,"apt":3549,"article":3550,"vant":3551,"alankan":3552,"Ġhere":3553,"ĠÙĥÙĪÙħ":3554,"iting":3555,"dalam":3556,"Ġconc":3557,"awah":3558,"Ġox":3559,"awak":3560,"anal":3561,"Ġwant":3562,"Ġweb":3563,"72":3564,"Ġbuy":3565,"ÙĥÙĬ":3566,"TENT":3567,"SP":3568,"uthors":3569,"Ġbeberapa":3570,"ĠRec":3571,"Ġlook":3572,"Ġmus":3573,"There":3574,"Ġnatural":3575,"ikal":3576,"Ġadop":3577,"ĠSo":3578,"Ġhydro":3579,"Ġagainst":3580,"Ġweight":3581,"ĠAB":3582,"got":3583,"Ġage":3584,"CC":3585,"esis":3586,"Ġeffective":3587,"afety":3588,"pa":3589,"elum":3590,"åĽŀ":3591,"çŃ":3592,"ï¼Ī":3593,"Ġpoly":3594,"ignal":3595,"imal":3596,"Ġanother":3597,"ĠArab":3598,"åīį":3599,"ĠReg":3600,"aire":3601,"NOW":3602,"ĠDec":3603,"Ġdetermine":3604,"ÙĦÙī":3605,"ĠBar":3606,"æ²¡æľī":3607,"ĠØ¨ÙĦÙĬ":3608,"08":3609,"ensive":3610,"Ġcho":3611,"Ġïĥ":3612,"ĠUiTM":3613,"1016":3614,"Ġsign":3615,",âĢĿ":3616,"ESS":3617,"Ġsamples":3618,"Ġconstruction":3619,"lete":3620,"duce":3621,"urang":3622,"Ġtour":3623,"KU":3624,"cience":3625,"ĠMuhammad":3626,"ogen":3627,"Ġlog":3628,"Ġsetiap":3629,"angor":3630,"Ġratio":3631,"light":3632,"overy":3633,"Ġmax":3634,"Ġ<":3635,"off":3636,"Ġbaik":3637,"ampung":3638,"ĠRet":3639,"Ġaccording":3640,"zy":3641,"ĠEnvironment":3642,"lan":3643,"Ġrespectively":3644,"Ġchalleng":3645,"ebabkan":3646,"Ġculture":3647,"Ġlarge":3648,"cm":3649,"ulu":3650,"aksan":3651,"Ġbukan":3652,"NOWLE":3653,"Ġfil":3654,"Ø§Ú½":3655,"iation":3656,"iques":3657,"61":3658,"Ġcompanies":3659,"Tr":3660,"ĠPend":3661,"Ġrecord":3662,"aruh":3663,"Ġprim":3664,"Ġcells":3665,"Ph":3666,"Ġmanag":3667,"ĠSal":3668,"angsa":3669,"tein":3670,"Man":3671,"astic":3672,"ØªØ§Ø±Ø§":3673,"ĠMah":3674,"ĠØ§ÙĬØª":3675,"Ú¤Ø±":3676,"ĠDisc":3677,"Ġimage":3678,"Ġmemberi":3679,"ĠKes":3680,"ĠØ§ÙĦØ¹":3681,"ÚłÙĥ":3682,"Ġguid":3683,"Ġ..":3684,"mi":3685,"Ġconditions":3686,"osial":3687,"ĠDalam":3688,"çĶ±":3689,"traction":3690,"ĠPublic":3691,"ĠMen":3692,"gal":3693,"bah":3694,"awi":3695,"pol":3696,"NOWLEDG":3697,"ç¾":3698,"Ġorganization":3699,"ĠÙĦÙĬ":3700,"onal":3701,"gorithm":3702,"ĠØ¨ÙĨ":3703,"Ġteaching":3704,"ley":3705,"Ġspecies":3706,"ukt":3707,"ĠØ¯Ø±":3708,"ĠØ§ÙĬØ§ÙĦÙĩ":3709,"Ġliterature":3710,"Ġwhe":3711,"ĠMar":3712,"Ġsamp":3713,"gn":3714,"Ġkey":3715,"åĽł":3716,"Please":3717,"æĸ¹":3718,"Ġdat":3719,"åĸ":3720,"Ġcommunity":3721,"Ġrepresent":3722,"Ġfew":3723,"sk":3724,"Ġnilai":3725,"engah":3726,"actions":3727,"ulture":3728,"usnya":3729,"ises":3730,"osis":3731,"AJ":3732,"atest":3733,"work":3734,"epas":3735,"Ġkat":3736,"æµ":3737,"knowledge":3738,"Ġbud":3739,"unia":3740,"æĮ":3741,"ury":3742,"ospital":3743,"back":3744,"ĠSem":3745,"~~":3746,"Ġkek":3747,"aterials":3748,"62":3749,"idity":3750,"ĠØ¨ÙĦÙĬØ§ÙĪ":3751,"Ġreduc":3752,"Ø§ÙĦÙĬ":3753,"ĠPress":3754,"ĠïĢ":3755,"Ùĭ":3756,"angsaan":3757,"Ġberm":3758,"link":3759,"Ġplace":3760,"ĠLi":3761,"ĠShah":3762,"ĠEv":3763,"ĠSup":3764,"ĠIndustr":3765,"Ġmener":3766,"çĪ":3767,"osed":3768,"For":3769,"Ġcharacteristics":3770,"pective":3771,"ÙĦÙĨ":3772,"Ġline":3773,"Ġcustomer":3774,"ĠSch":3775,"Ġmember":3776,"NG":3777,"æĽ":3778,"ĠBl":3779,"ambil":3780,"Ġidentify":3781,"Ġproses":3782,"enced":3783,"Ġutama":3784,"ĠPRO":3785,"IA":3786,"éĿ¢":3787,"Ġpihak":3788,"Äģ":3789,"Ġdecision":3790,"ml":3791,"ÙĩÙĨ":3792,"ØªØ§ÙĪ":3793,"FER":3794,"inf":3795,"ujuan":3796,"Ġchanges":3797,"Ġapplied":3798,"Ġpula":3799,"Ġpand":3800,"Ġfund":3801,"Ġenabled":3802,"EK":3803,"ening":3804,"ĠBank":3805,"naire":3806,"Ġek":3807,"Ġlevels":3808,"æł·":3809,"inya":3810,"Ġsistem":3811,"ultural":3812,"ENC":3813,"antu":3814,"é¡":3815,"Ġestab":3816,"Ġavailable":3817,"Ġareas":3818,"ĠBIN":3819,"ä¹ĭ":3820,"ĠAdd":3821,"Faculty":3822,"ĠChina":3823,"Ġglobal":3824,"Ġtext":3825,"Ġcommit":3826,"Us":3827,"Ġpopulation":3828,"Ġfail":3829,"Ġauthor":3830,"ä»Ģä¹Ī":3831,"Ġhari":3832,"åĪĨ":3833,"æ¸":3834,"ç½":3835,"agram":3836,"hasil":3837,"Ġbehaviour":3838,"sw":3839,"educe":3840,"ä½Ĩ":3841,"IK":3842,"ummary":3843,"CR":3844,"itial":3845,"Ø³Ø¨":3846,"uel":3847,"Ġemployees":3848,"ayment":3849,"Ġguru":3850,"Ġtheory":3851,"ival":3852,"crete":3853,"Ù£":3854,"Ġ*":3855,"ĠDat":3856,"Ġdise":3857,"He":3858,"ÙłÙłÙ":3859,"Ġ32":3860,"uda":3861,"Ġseh":3862,"Ġcommunication":3863,"Ġart":3864,"Ġfree":3865,"Ġlist":3866,"Ø¸":3867,"ica":3868,"uction":3869,"Ġ39":3870,"Ġhanya":3871,"Ġstep":3872,"product":3873,"2002":3874,"eral":3875,"Ġterm":3876,"Ġdescrib":3877,"akit":3878,"mitted":3879,"ĠON":3880,"ĠAS":3881,"Ġhar":3882,"Ġ................................................................................":3883,"Ġaround":3884,"Ġkaedah":3885,"though":3886,"VE":3887,"Ġparameters":3888,"igital":3889,"Ġinvolved":3890,"kin":3891,"Ġrequired":3892,"Ġperm":3893,"kep":3894,"Ġmov":3895,"Ġtechnique":3896,"ĠAC":3897,"ç¬":3898,"Ġforgot":3899,"PL":3900,"Ġkomun":3901,"Ġbre":3902,"Ġpenyel":3903,"æ¬¡":3904,"ublished":3905,"é©":3906,"ensi":3907,"WOS":3908,"Ġcontext":3909,"Ġaspect":3910,"Ġwomen":3911,"Ġselected":3912,"Ġlight":3913,"amal":3914,"erl":3915,"unities":3916,"ahang":3917,"ĠSek":3918,"equ":3919,"Ġincreasing":3920,"çİ°":3921,"ACKNOWLEDG":3922,"ĠMalay":3923,"Ġcases":3924,"iability":3925,"perim":3926,"Ġseorang":3927,"ters":3928,"Ġcondition":3929,"uas":3930,"Ġclear":3931,"Ġ2022":3932,"Â±":3933,"è¡Į":3934,"onomi":3935,"ester":3936,"ĠCONTENT":3937,"yarikat":3938,"izing":3939,"anu":3940,"çĲ":3941,"Ġgot":3942,"ustainable":3943,"Ind":3944,"ferences":3945,"Ú¤ÙĬ":3946,"anda":3947,"nah":3948,"Ġdays":3949,"Ġunderstanding":3950,"elf":3951,"Am":3952,"Ġphysical":3953,"ĠINTRODUCTION":3954,"ÙłÙł":3955,"Ġpenting":3956,"Ġah":3957,"Ø£ÙĦ":3958,"cell":3959,"Ġkerja":3960,"Â·Â·":3961,"2001":3962,"Ġ33":3963,"Ġrele":3964,"bl":3965,"Ġopport":3966,"éĽ":3967,"Ġdon":3968,"ubungan":3969,"Ġgas":3970,"Ġdistribution":3971,"ÚłÚ¬":3972,"Ġforgotten":3973,"ivate":3974,"æĸ°":3975,"Ġteachers":3976,"Ġcookies":3977,"show":3978,"è¶":3979,"des":3980,"CI":3981,"ĠPolicy":3982,"Ġpressure":3983,"blem":3984,"Ġeas":3985,"ĠOf":3986,"ĠMarket":3987,"Ġfeed":3988,"related":3989,"Ġorganis":3990,"Ġcapital":3991,"Ġcomplet":3992,"ðĿĳ¡":3993,"Ġpractices":3994,"atakan":3995,"luid":3996,"Comp":3997,"Ġefficiency":3998,"isions":3999,"memb":4000,"ĠLearning":4001,"Ġ45":4002,"ETH":4003,"Ġtoo":4004,"bu":4005,"Ġhighest":4006,"Ġutil":4007,"97":4008,"ÙĪÙĦÙĬ":4009,"ĠService":4010,"Ġability":4011,"sorption":4012,"Ġprovided":4013,"ïĪ":4014,"Ġcateg":4015,"Ú¬ÙĪÙĨ":4016,"Ø¨Úł":4017,"ecess":4018,"æ´":4019,"Ġpractice":4020,"MA":4021,"efficient":4022,"çĿ":4023,"éĴ":4024,"Ø¯Ø§":4025,"çĻ":4026,"ÙĪØ±ÙĬ":4027,"Ġconsist":4028,"Ġresources":4029,"Ġinclude":4030,"ÙħØ§ÙĨ":4031,"Ġcy":4032,"uality":4033,"Ġshort":4034,"Ġwaste":4035,"orph":4036,"èĤ":4037,"apore":4038,"Ġhid":4039,"Ġpattern":4040,"Ġhy":4041,"æĪĲ":4042,"ither":4043,"Ġhard":4044,"dengan":4045,"Ġsay":4046,"ulated":4047,"Ø§Ø¬":4048,"ili":4049,"Ġsurvey":4050,"kes":4051,"Ġfive":4052,"essional":4053,"Ġcur":4054,"Ġconn":4055,"Ġtentang":4056,"riev":4057,"pdf":4058,"ĠAccording":4059,"Ġsector":4060,"Ġ1999":4061,"ĠFaculty":4062,"nd":4063,"Ġ~":4064,"Ġrun":4065,"UK":4066,"met":4067,"Ġdepend":4068,"We":4069,"pel":4070,"atus":4071,"äºĭ":4072,"Ġusername":4073,"Ġ36":4074,"PM":4075,"trans":4076,"ilah":4077,"ubah":4078,"96":4079,"Ġtetapi":4080,"aut":4081,"AKA":4082,"reset":4083,"Ġbeg":4084,"ĠFOR":4085,"que":4086,"mon":4087,"ufacturing":4088,"Ġpelbagai":4089,"Ġaverage":4090,"plications":4091,"Ġacademic":4092,"alk":4093,"Ġtransfer":4094,"Ġcarried":4095,"ĠØ¬ÙĪÚ¬":4096,"Ġmendapat":4097,"ariah":4098,"Ġ37":4099,"Ù¥":4100,"Ġresponse":4101,"Ġphase":4102,"ĠÙħÙħÚ¤":4103,"ĠÙĥÚ¤Ø¯":4104,"bit":4105,"ĠAsia":4106,"no":4107,"Ġothers":4108,"ç®":4109,"Ġpossible":4110,"Ġtax":4111,"Ġmodels":4112,"ĠYear":4113,"under":4114,"Ġtimes":4115,"ands":4116,"Ġdiri":4117,"Ġmaking":4118,"Ġtahap":4119,"ĠØ¨ÙĬ":4120,"Ġreve":4121,"room":4122,"most":4123,"add":4124,"apati":4125,"tor":4126,"æ¯Ķ":4127,"mailto":4128,"å¼Ģ":4129,"ÂŃ":4130,"Ġpresented":4131,"comes":4132,"Qu":4133,"Ġsingle":4134,"Ġdecre":4135,"abatan":4136,"åģļ":4137,"Ġfri":4138,"ception":4139,"Ġenvironmental":4140,"evier":4141,"record":4142,"Ġbody":4143,"ĠSer":4144,"ĠWork":4145,"PA":4146,"Ġdifference":4147,"Ġobserved":4148,"Ġstudent":4149,"Ġkedua":4150,"åĿ":4151,"idang":4152,"çŁ¥":4153,"incip":4154,"Ġfirm":4155,"ĠAf":4156,"vention":4157,"ungi":4158,"LoginPlease":4159,"ĠÙħÚ½":4160,"can":4161,"Ġanda":4162,"Dr":4163,"change":4164,"asure":4165,"gu":4166,"Ġbuilding":4167,"kaitan":4168,"Ġbentuk":4169,"ĠÙĲ":4170,"avel":4171,"98":4172,"Ø¨Ø±":4173,"were":4174,"ç«":4175,"ĠIS":4176,"PI":4177,"Ġbesar":4178,"Ġlink":4179,"ĠMas":4180,"åħ¶":4181,"esides":4182,"Ġsection":4183,"Ġhim":4184,"Ġsource":4185,"Ġleast":4186,"ĠUSD":4187,"aces":4188,"uments":4189,"Ġshare":4190,"Ġunit":4191,"go":4192,"Ġbehavior":4193,"yel":4194,"net":4195,"ending":4196,"ĠBu":4197,"No":4198,"Ġsoftware":4199,"Ġcertain":4200,"edi":4201,"âĢ¦âĢ¦âĢ¦âĢ¦âĢ¦âĢ¦âĢ¦âĢ¦âĢ¦âĢ¦âĢ¦âĢ¦âĢ¦âĢ¦âĢ¦âĢ¦":4202,"Ġusers":4203,"ĠSy":4204,"ĠUnited":4205,"Ġsoil":4206,"Ġspeed":4207,"Ġberj":4208,"IF":4209,"Ġ34":4210,"hat":4211,"ĠHam":4212,"while":4213,"apor":4214,"play":4215,"Ġsil":4216,"Ġput":4217,"draw":4218,"ĠNational":4219,"Ġsuccessful":4220,"Ġdiffic":4221,"awan":4222,"Ġerr":4223,"ulau":4224,"ujud":4225,"onstr":4226,"ÙĬÙħ":4227,"acebook":4228,"Sub":4229,"ĠFood":4230,"éļ":4231,"plication":4232,"ras":4233,"ĠGener":4234,"ahman":4235,"Ġhist":4236,"è°¢":4237,"oma":4238,"eker":4239,"ĠLe":4240,"Ġconstruct":4241,"ĠSim":4242,"usat":4243,"Ø§Ùĥ":4244,"ft":4245,"Ġresearchers":4246,"ifferent":4247,".)":4248,"Ġitems":4249,"ivision":4250,"ÛıÙĬ":4251,"ĠEd":4252,"EAR":4253,"Ġcontinu":4254,"Ġtherm":4255,"hi":4256,"endah":4257,"USION":4258,"ief":4259,"vi":4260,"æ³ķ":4261,"ĠÂłĠÂł":4262,"Ag":4263,"çĽ¸":4264,"aikan":4265,"ampus":4266,"Ġalways":4267,"ĠÙĥØ§ÙĪ":4268,"actors":4269,"ĠØªÙĬØ¯ÙĤ":4270,"ret":4271,"Ġcarbon":4272,"To":4273,"this":4274,"Ġinstitut":4275,"hemat":4276,"ĠDepartment":4277,"arik":4278,"ham":4279,"ĠSelangor":4280,"ĠPel":4281,"Ġill":4282,"çķ":4283,"words":4284,"éĺ":4285,"Ġlack":4286,"ĠGe":4287,"ACKNOWLEDGEMENT":4288,"Ġsahaja":4289,"Ġcustomers":4290,"urop":4291,"ores":4292,"load":4293,"Ġoffer":4294,"Ù¡":4295,"ĠØ®":4296,"ida":4297,"Ø³Ø±":4298,"ules":4299,"tara":4300,"äºĽ":4301,"Ġsent":4302,"Ġsekolah":4303,"93":4304,"ÙĨØª":4305,"aled":4306,"Ġmembers":4307,"articles":4308,"Ġthus":4309,"Ġvariable":4310,"å·±":4311,"ï¿½ï¿½ï¿½ï¿½ï¿½ï¿½ï¿½ï¿½":4312,"ĠMean":4313,"uly":4314,"ETHOD":4315,"ĠBased":4316,"AF":4317,"ĠÚ¤Ø±ÙĪ":4318,"anol":4319,"Ġexamin":4320,"ä¸»":4321,"Ġreduce":4322,"akanan":4323,"den":4324,"Ġgreat":4325,"94":4326,"Ġnegative":4327,"CLUSION":4328,"Ġworking":4329,"On":4330,"Cl":4331,"Ġtel":4332,"angka":4333,"Ġeffor":4334,"Ġensure":4335,"rieved":4336,"ampling":4337,"Peng":4338,"Ġmight":4339,"ĠØ§ØªØ§ÙĪ":4340,"Ġanti":4341,"ÙĦØ³":4342,"Ġsimp":4343,"mark":4344,"ĠIsmail":4345,"ç»ı":4346,"Ġlo":4347,"ĠâĪ":4348,"Ġcomplex":4349,"Ġuntil":4350,"ĠTO":4351,"icies":4352,"ĠGl":4353,"pril":4354,"åħ¬":4355,"Ġsus":4356,"çľŁ":4357,"Ġassociated":4358,"Ġge":4359,"çĤ¹":4360,"Ġframework":4361,"Ġinc":4362,"tle":4363,"æĹ¥":4364,"ïĭ":4365,"uster":4366,"encies":4367,"Ġje":4368,"ÙĦÙĬÙħ":4369,"Ġseen":4370,"Ġ80":4371,"Ġbawah":4372,"ĠKer":4373,"ĠTan":4374,"Ġtert":4375,"\".":4376,"Ġtaken":4377,"stract":4378,"Ġïģ":4379,"Ġinternational":4380,"Ø¬Ø§Ø¯ÙĬ":4381,"From":4382,"ĠMult":4383,"oung":4384,"VIEW":4385,"aching":4386,"Ġdefined":4387,"æĦı":4388,"ĉĊ":4389,"ĠAuthor":4390,"idik":4391,"SH":4392,"ping":4393,"å¸ĸ":4394,"areness":4395,"ilem":4396,"tiviti":4397,"adar":4398,"Ġtre":4399,"mal":4400,"Ġuser":4401,"ĠHar":4402,"uration":4403,"set":4404,"ïĤ·":4405,"Ġauthors":4406,"èĩªå·±":4407,"ĠPR":4408,"repreneurs":4409,"ĠØ¯Ø§ÙĬ":4410,"vanced":4411,"ards":4412,"ĠWorld":4413,"ĠII":4414,"ĠØ¯Ø±Ú¤Ø¯":4415,"Key":4416,"Ġmasalah":4417,"ĠIndia":4418,"Ġconcern":4419,"hal":4420,"aft":4421,"è¢":4422,"ĠHuman":4423,"Ġdist":4424,"Ġcause":4425,"ØªØ§Ùħ":4426,"kaji":4427,"Ġanak":4428,"2021":4429,"iah":4430,"ca":4431,"ĠInf":4432,"ĠObject":4433,"ĠCar":4434,"Ġib":4435,"ancing":4436,"Ġpurpose":4437,"actor":4438,"osure":4439,"Ġstrategies":4440,"ç¥":4441,"Â©":4442,"ä¸Ģä¸ª":4443,"Ġheat":4444,"Ġaccur":4445,"pm":4446,"ĠWan":4447,"mes":4448,"Ġincome":4449,"urthermore":4450,"Ġpertama":4451,"Ġpolicy":4452,"Ġquestions":4453,"Ġsebelum":4454,"eful":4455,"osite":4456,"Ġproced":4457,"Ġmanusia":4458,"Ġum":4459,"Ġnormal":4460,"----------------":4461,"Ġtarget":4462,"Ġ1998":4463,"110":4464,"eid":4465,"ĠÙĥØ±":4466,"akala":4467,"Ġsignal":4468,"Ġcover":4469,"Ġmach":4470,"ÙĪÙĬ":4471,"Ġarr":4472,"ervis":4473,"use":4474,"uskan":4475,"orn":4476,"ÙĥØª":4477,"anjang":4478,"uku":4479,"Ġsendiri":4480,"Ġstatus":4481,"awab":4482,"Ġask":4483,"ĠBahasa":4484,"Ġspecial":4485,"ĠSet":4486,"imate":4487,"ypothes":4488,"ĠPER":4489,"adan":4490,"elect":4491,"Ġchemical":4492,"Ġinterview":4493,"ĠProcess":4494,"la":4495,"Ø§Ú¤Øª":4496,"pend":4497,"where":4498,"study":4499,"utr":4500,"Ġstrategy":4501,"ä¸įæĺ¯":4502,"inese":4503,"car":4504,"ĠTechn":4505,"iy":4506,"process":4507,"udin":4508,"adaan":4509,"active":4510,"Ġvia":4511,"Ġwhether":4512,"Ġrecomm":4513,"ceedings":4514,"Ġ38":4515,"ĠÙħØ±ÙĬÙĥ":4516,"ÙĪØ§Ø±":4517,"Ġcoll":4518,"Pr":4519,"âĢĿ.":4520,"aiz":4521,"Ġproduce":4522,"tra":4523,"],":4524,"ÙĪÙĨÙĬ":4525,"Ġmasih":4526,"Ġmass":4527,"At":4528,"Ġplan":4529,"Ġ70":4530,"ĠPahang":4531,"anti":4532,"enai":4533,"ĠAbdullah":4534,"just":4535,"ĠÙĥØ§ÙĪØ³ÙĨ":4536,"itar":4537,"PR":4538,"Ġfirms":4539,"ekatan":4540,"Ġcir":4541,"masuk":4542,"Ġpath":4543,"ves":4544,"ENCES":4545,"aches":4546,"apatan":4547,"ĠProgram":4548,"Ġlot":4549,"rical":4550,"ographic":4551,"ought":4552,"å¦Ĥæŀľ":4553,"alau":4554,"utusan":4555,"hasilkan":4556,"Ġmah":4557,"æīĭ":4558,"resh":4559,"Ġsignificantly":4560,"é«":4561,"orth":4562,"Ġdilakukan":4563,"ĠPemb":4564,"ĠMay":4565,"Ġfem":4566,"ologies":4567,"apkan":4568,"istical":4569,"arta":4570,"Ġprovides":4571,"ography":4572,"ehold":4573,"ideo":4574,"Ġstated":4575,"time":4576,"ĠFrom":4577,"Ġposition":4578,"Ġthesis":4579,"ĠVal":4580,"ternal":4581,"icine":4582,"Ġpersonal":4583,"amed":4584,"duk":4585,"èµ·":4586,"ĠØ¯Ø¨":4587,"Ġess":4588,"IAN":4589,"Or":4590,"Ġvir":4591,"Ġkesel":4592,"ĠFr":4593,"Ġstaff":4594,"ïĪł":4595,"Ġencour":4596,"Ġmeet":4597,"Islam":4598,"Ġnext":4599,"%,":4600,"Ġsalah":4601,"ĠUN":4602,"sec":4603,"Ġparticipants":4604,"å¥¹":4605,"Ġreturn":4606,"ĠPL":4607,"ĠÙ¢ÙłÙłÙ":4608,"Ġsuit":4609,"Ġdetail":4610,"Ġidentified":4611,"BS":4612,"ĠSm":4613,"ogle":4614,"amat":4615,"ĠBe":4616,"ifat":4617,"origin":4618,"å·²":4619,"Ġhaving":4620,"Ġanalyz":4621,"ounds":4622,"Ø¦":4623,"atives":4624,"ilit":4625,"OUR":4626,"ĠpH":4627,"Ġbahan":4628,"Ġproduced":4629,"åŃ¦":4630,"Ú¬ÙĬ":4631,"ä½ľ":4632,"Ġmedium":4633,"\",":4634,"angi":4635,"using":4636,"Ù¡Ù":4637,"0000":4638,"Ġsemasa":4639,"Ġstage":4640,"Ġapa":4641,"91":4642,"ĠEl":4643,"Ġbelow":4644,"Ġoutput":4645,"Ġcannot":4646,"ĠPada":4647,"ored":4648,"æ±":4649,"elu":4650,"aily":4651,"dom":4652,"acity":4653,"Ġunderstand":4654,"reen":4655,"Ù¤":4656,"ÙĪÚ½":4657,"Statistics":4658,"Ġapabila":4659,"å®ļ":4660,"da":4661,"anak":4662,"stitution":4663,"ĠPart":4664,"Ã¼":4665,"ilih":4666,"ÙİÙĳ":4667,"awatan":4668,"ventional":4669,"Ġinternal":4670,"PE":4671,"Ġpara":4672,"ustral":4673,"ITER":4674,"search":4675,"AND":4676,"ïĬ":4677,"aps":4678,"lik":4679,"ales":4680,"Ġten":4681,"Ġelements":4682,"ignificance":4683,"Ġlik":4684,"paration":4685,"If":4686,"ao":4687,"Search":4688,"Ġteam":4689,"ĠÙħÙĦÙĬ":4690,"Ġimplementation":4691,"Ġ1997":4692,"åĬł":4693,"Ġdefin":4694,"upan":4695,"Ġturut":4696,"Ġmaklumat":4697,"ĠIa":4698,"year":4699,"Ġold":4700,"ĠØ§ÙĦØª":4701,"DM":4702,"Ġlat":4703,"Ġrecogn":4704,"VID":4705,"Ġreason":4706,"Ġqual":4707,"Ġphot":4708,"ulations":4709,"Ġfeel":4710,"Ġbeliev":4711,"untuk":4712,"Ġquant":4713,"emo":4714,"ĠBack":4715,"***":4716,"effect":4717,"AW":4718,"ç¼":4719,"eta":4720,"Ġing":4721,"uduk":4722,"Ã©":4723,"92":4724,"Ġinput":4725,"ingkatkan":4726,"OLOGY":4727,"Ġcalcul":4728,"ĠImp":4729,"ĠAli":4730,"test":4731,"eel":4732,"Ġapplications":4733,"ÙħØ§Ø³":4734,"My":4735,"rix":4736,"urnal":4737,"Ġdiss":4738,"Ġcross":4739,"Ġberlaku":4740,"ĠLanguage":4741,"system":4742,"overnance":4743,"ðĿĳĽ":4744,"ĠÙ¢ÙłÙ¡Ù":4745,"ordin":4746,"Ġoften":4747,"between":4748,"ĠPerformance":4749,"atively":4750,"Ġhot":4751,"eptember":4752,"han":4753,"Ġspe":4754,"ATE":4755,"ĠApplied":4756,"æľĪ":4757,"vert":4758,"Ġfinal":4759,"ream":4760,"used":4761,"ÙĬÙĨØ§":4762,"Ġgel":4763,"Ġprocesses":4764,"ott":4765,"Ġcomplete":4766,"Ġnegeri":4767,"ican":4768,"Ġrelig":4769,"é©¬":4770,"Ġrumah":4771,"ĠSarawak":4772,"INT":4773,"itors":4774,"Ġspect":4775,"ĠÙħÙĨØ¬Ø§Ø¯ÙĬ":4776,"Ġdiber":4777,"ç¾İ":4778,"ç»Ļ":4779,"Ġpendidikan":4780,"Ġadvant":4781,"reh":4782,"ĠMore":4783,"ĠØ§ÙĪØ±Úł":4784,"mel":4785,"é£":4786,"Ġpul":4787,"Ġtechniques":4788,"agaan":4789,"Sel":4790,"Ġder":4791,"akah":4792,"CS":4793,"ĠMaj":4794,"entukan":4795,"Ġscale":4796,"ĠØ³ÙĬ":4797,"ÙĪÙĦÙĩ":4798,"Mohd":4799,"yle":4800,"performance":4801,"irm":4802,"ATURE":4803,"ĠREVIEW":4804,"Ġrefer":4805,"aca":4806,"Ġkomp":4807,"ĠMohamad":4808,"CON":4809,"Ġsangat":4810,"ĠCH":4811,"Ġstock":4812,"Research":4813,"Ġnecess":4814,"ĠYus":4815,"âĢĿ,":4816,"ĠĠĠĠĠĠĠĠĠĠĠĠĠĠĠĠĠĠĠĠĠĠĠĠ":4817,"Ġmar":4818,"Ġfaktor":4819,"ĠCr":4820,"tributed":4821,"ĠĠĠĊ":4822,"Page":4823,"Ġhasil":4824,"ĠØµ":4825,"reed":4826,"Ġreflect":4827,"æĥħ":4828,"éĹ´":4829,"ĠKep":4830,"fin":4831,"elsevier":4832,"etermin":4833,"Ġjenis":4834,"å¥³":4835,"ÙĥØ±":4836,"Ġaltern":4837,"ynamic":4838,"afi":4839,"ÙĤÙĬ":4840,"bar":4841,"ĠSchool":4842,"Ġwa":4843,"æīį":4844,"Ġ41":4845,"Ġpes":4846,"Ġtempat":4847,"ĠAbd":4848,"TH":4849,"Ġwid":4850,"Ġperb":4851,"akkan":4852,"Ġorganizational":4853,"ucture":4854,"Ġmg":4855,"Ġ43":4856,"Ġeither":4857,"osph":4858,"Ġachieve":4859,"Ġprep":4860,"Ġmeasurement":4861,"ÙģÙĬ":4862,"Ġkata":4863,"Ġku":4864,"hd":4865,"ĠIssue":4866,"priate":4867,"è½½":4868,"Ġobjective":4869,"Ġ90":4870,"Ġrecent":4871,"oz":4872,"atform":4873,"emic":4874,"Ġsesuatu":4875,"Ġmemper":4876,"lar":4877,"water":4878,"Ġäºİ":4879,"their":4880,"Ġloss":4881,"Med":4882,"Ġsources":4883,"Ġtry":4884,"ĠØ§Ø¥":4885,"ä¿Ŀ":4886,"ATIONS":4887,"å½ĵ":4888,"ĠAsian":4889,"Ġ48":4890,"ĠProject":4891,"ĠCom":4892,"Ġsubjects":4893,"ĠKelantan":4894,"Ġsehingga":4895,"Ġ42":4896,"oret":4897,"ĠPub":4898,"amatan":4899,"TE":4900,"Ġinitial":4901,"Ġradi":4902,"oxid":4903,"Ġpurch":4904,"ĠNegeri":4905,"oi":4906,"UST":4907,"Ġobjectives":4908,"Ġindependent":4909,"onsep":4910,"Ġfeatures":4911,"Ġdunia":4912,"ĠLim":4913,"adikan":4914,"ĠSTUD":4915,"ilmu":4916,"Ġbuat":4917,"......":4918,"ades":4919,"rane":4920,"gi":4921,"ï½":4922,"aries":4923,"ØªÙħ":4924,"ĠChe":4925,"uck":4926,"ahkan":4927,"Ø§ÙĦÙĨ":4928,"ahiran":4929,"Ġpercentage":4930,"Ġintro":4931,"Ġcut":4932,"Ù¦":4933,"ivil":4934,"Ġann":4935,"ably":4936,"erb":4937,"Ġang":4938,"Ġhingga":4939,"ires":4940,"Ġturn":4941,"FERENCES":4942,"Ġsosial":4943,"enar":4944,"brahim":4945,"Ġwords":4946,"ÙĪØ§Øª":4947,"Ġfollowed":4948,"èĢģ":4949,"Ġmonitor":4950,"thesis":4951,"ĠOne":4952,"åİŁ":4953,"Ġreceived":4954,"ĠLaw":4955,"ames":4956,"ĠRetrieved":4957,"ĠPayment":4958,"Ġregion":4959,"Im":4960,"ĠSingapore":4961,"ready":4962,"itect":4963,"ĠØ³Ø§ØªÙĪ":4964,"idd":4965,"Ġep":4966,"ilihan":4967,"ðĿĳĸðĿĳĸ":4968,"Ġmention":4969,"ĠKebangsaan":4970,"una":4971,"Ġmeasured":4972,"Ù¨":4973,"ĠKe":4974,"Ġmur":4975,"Ġ55":4976,"mem":4977,"ĠSeb":4978,"Ġdifficult":4979,"ocation":4980,"Ġfull":4981,"æģ":4982,"Ġprotein":4983,"çŃī":4984,"iginal":4985,"Ġdin":4986,"Ġdeveloping":4987,"ypothesis":4988,"èĪ":4989,"Ġkerajaan":4990,"ĠDar":4991,"igher":4992,"efin":4993,"ĠHence":4994,"IB":4995,"Ġaddress":4996,"Ġassessment":4997,"è¢«":4998,"ĠStrateg":4999,"Ġoptim":5000,"TUN":5001,"xi":5002,"uting":5003,"ĠØ§Ø³":5004,"engk":5005,"ĠDivision":5006,"Ġearly":5007,"Ġport":5008,"mission":5009,"Ġkemud":5010,"order":5011,"ĠÚ¤ÙĦØ§":5012,"ihatan":5013,"Ġdigital":5014,"Ġpenc":5015,"Ġhours":5016,"ture":5017,"imens":5018,"Ġexpected":5019,"Ġ44":5020,"Ġmoney":5021,"amine":5022,"Ġberkaitan":5023,"Ġaktiviti":5024,"erman":5025,"Ġpresence":5026,"However":5027,"èģ":5028,"rup":5029,"imin":5030,"300":5031,"Pen":5032,"Ġalgorithm":5033,"æĪĳä»¬":5034,"abil":5035,"è¯·":5036,"ĠZh":5037,"abi":5038,"plac":5039,"Ġsepar":5040,"ĠÙħÙĬ":5041,"Ġoverall":5042,"OC":5043,"ĠHas":5044,"Ġnature":5045,"ĠApril":5046,"Ġsociety":5047,"Ġmobile":5048,"Ġremov":5049,"ĠJohor":5050,"Ġcritical":5051,"ĠIni":5052,"Ġkar":5053,"Cor":5054,"Ġmillion":5055,"ATI":5056,"Date":5057,"è½¦":5058,"ĠPower":5059,"Ġkej":5060,"Ġexperi":5061,"gress":5062,"about":5063,"%.":5064,"ĠØ¹ÙĦÙī":5065,"Ġtoday":5066,"èī":5067,"vari":5068,"ĠControl":5069,"ameter":5070,"Int":5071,"Ġkesan":5072,"ØªÙĬÙĥ":5073,"ĠSAB":5074,"Ġbersama":5075,"Ġkumpulan":5076,"UB":5077,"è¯Ŀ":5078,"ä¹°":5079,"èº":5080,"itro":5081,"Ap":5082,"ĠYork":5083,"Ġnational":5084,"Ġperceived":5085,"Ġmaintain":5086,"Ġneeded":5087,"ĠÙħÙĦ":5088,"Ġfrequency":5089,"inear":5090,"Eng":5091,"Ġpalm":5092,"Based":5093,"éķ":5094,"Ġmembuat":5095,"have":5096,"è£":5097,"ĠMETHOD":5098,"****":5099,"list":5100,"ç´":5101,"Ġcomponents":5102,"Ġberdasarkan":5103,"Ġmengikut":5104,"Malaysian":5105,"ĠInstitute":5106,"Ġcollected":5107,"Ġpenggunaan":5108,"ðĿĽ":5109,"Ġsafety":5110,"ethyl":5111,"Ġdemand":5112,"PERP":5113,"Ġcheck":5114,"ĠBut":5115,"ube":5116,"Ġreaction":5117,"ĠÙħÙħ":5118,"ĠProblem":5119,"value":5120,"Ġimportance":5121,"lation":5122,"hus":5123,"Ġlarg":5124,"ĠØ§ÙĦØ¨":5125,"ITERATURE":5126,"ney":5127,"According":5128,"Ġul":5129,"SM":5130,"ĠCons":5131,"Ġhome":5132,"ÙĪÙĦÙĨ":5133,"Ġresponden":5134,"Ġ@":5135,"Ġcm":5136,"Ø¨ÙĬÙĩ":5137,"ĠÙħÙĪ":5138,"ĠSe":5139,"001":5140,"aves":5141,"ĠØ§Ø¨":5142,"ĠCONTENTS":5143,"Ġcontract":5144,"Ġprior":5145,"Ġcourse":5146,"andom":5147,"ministration":5148,"ampu":5149,"Ġ1996":5150,"Ġmetal":5151,"ĠSY":5152,"ÙĥÙĪ":5153,"pas":5154,"ujian":5155,"egrad":5156,"Ed":5157,"reci":5158,"oon":5159,"ĠElectronic":5160,"SC":5161,"éľ":5162,"å°±æĺ¯":5163,"Ġ>":5164,"Ġfit":5165,"Ġgreen":5166,"elaki":5167,"Ġlimited":5168,"Ġbig":5169,"Ġdijalankan":5170,"lying":5171,"ÙĦÙĪÙħ":5172,"Keywords":5173,"Ġprimary":5174,"Ġintention":5175,"dang":5176,"Ġtermasuk":5177,"Ġterd":5178,"Ù§":5179,"Ġtrust":5180,"news":5181,"gl":5182,"Ġsupply":5183,"ouse":5184,"Ġyield":5185,"irical":5186,"Ġfulf":5187,"roscop":5188,"Ġbook":5189,"Ġhubungan":5190,"åĲĮ":5191,"ĠBehavi":5192,"ĠGu":5193,"rich":5194,"ä¸ĭè½½":5195,"Ġinstr":5196,"nan":5197,"é»":5198,"aduate":5199,"Ġinform":5200,"ourism":5201,"Ġjumlah":5202,"Jadual":5203,"Ġface":5204,"Ġselepas":5205,"ports":5206,"neg":5207,"Ġidea":5208,"sorb":5209,"ged":5210,"TY":5211,"Ġindicated":5212,"itle":5213,"atik":5214,"ony":5215,"Ġpembelajaran":5216,"ungai":5217,"åĥ":5218,"Ġ46":5219,"sb":5220,"ĠSummary":5221,"beza":5222,"æ°´":5223,"Fig":5224,"Ú¬ÙĪÙĨØ§ÙĥÙĨ":5225,"å¤ĸ":5226,"Ġmengenai":5227,"econom":5228,"ĠZain":5229,"php":5230,"é¦":5231,"Ah":5232,"ĠOnline":5233,"ç¨":5234,"Ġmaximum":5235,"Ġrequirements":5236,"Ġphen":5237,"ĠState":5238,"ervisor":5239,"Ġmole":5240,"Ġlet":5241,"æľº":5242,"etahuan":5243,"Ġdisease":5244,"èĭ":5245,"ilayah":5246,"fort":5247,"ĠQuality":5248,"urban":5249,"Ġevaluation":5250,"Ġquestionnaire":5251,"ese":5252,"Nur":5253,"Ġbahagian":5254,"Ġkalangan":5255,"Ġpet":5256,"Ġappear":5257,"FY":5258,"¥¿":5259,"æīĵ":5260,"Ġbandar":5261,"site":5262,"ĠMc":5263,"Ú¬ÙĬÙĨ":5264,"ĠSubject":5265,"Ġuniversity":5266,"perty":5267,"å§":5268,"ilangan":5269,"ĠØ§Ø£ÙĦ":5270,"Ġ47":5271,"ĠDo":5272,"Ġcorrelation":5273,"asar":5274,"Ġusually":5275,"Ġtanah":5276,"Ø§Ø³ÙĬ":5277,"é«ĺ":5278,"ĠJanu":5279,"Ġluar":5280,"Ġprob":5281,"illed":5282,"Ġsym":5283,"Ġnear":5284,"ĠReport":5285,"ĠÙĥØ§Ùħ":5286,"Ġpan":5287,"place":5288,"ids":5289,"ellig":5290,"ĠÙħÙĦÙĬØ³ÙĬØ§":5291,"Ġscore":5292,"ĠPendidikan":5293,"Ġcer":5294,"APP":5295,"1999":5296,"Pada":5297,"éĴ±":5298,"åĬĽ":5299,"Ġnama":5300,"Ġansw":5301,"Ġevent":5302,"ĠHigh":5303,"AGE":5304,"Ġgraph":5305,"iance":5306,"ĠVari":5307,"Ø§Øµ":5308,"åıĭ":5309,"ç©":5310,"Ġpoor":5311,"Ġcome":5312,"ession":5313,"uruh":5314,"ift":5315,"ulum":5316,"rem":5317,"AIN":5318,"sr":5319,"çĿĢ":5320,"eration":5321,"ibatkan":5322,"ĠØ¨ÙĪ":5323,"ĠUsing":5324,"lishing":5325,"ban":5326,"Ġcard":5327,"ense":5328,"ÙĪØ±ÙĨ":5329,"Ġlab":5330,"hemistry":5331,"ĠMy":5332,"ĠØ§ÙĦÙĤ":5333,"Ġreading":5334,"éĥ":5335,"iversity":5336,"learning":5337,"Ġanalys":5338,"EEE":5339,"PTTA":5340,".âĢĿ":5341,"æį":5342,"iao":5343,"ancy":5344,"ĠRos":5345,"Ġpaling":5346,"ĠSk":5347,"Ġdiv":5348,"ĠEurop":5349,"method":5350,"ĠDIS":5351,"æı":5352,"Ġdoc":5353,"ĠAR":5354,"å°ĳ":5355,"Ġscre":5356,"Ġ49":5357,"Ġdivid":5358,"Ġessential":5359,"refhub":5360,"Ġaction":5361,"index":5362,"Ġspace":5363,"LAR":5364,"ĠSeptember":5365,"issert":5366,"èĢħ":5367,"Ġindividuals":5368,"ford":5369,"KM":5370,"iliki":5371,"sm":5372,"è¥¿":5373,"Home":5374,"anks":5375,"ĠCatal":5376,"jana":5377,"Ġterk":5378,"Ġkurang":5379,"alaupun":5380,"ĠSABAH":5381,"chitect":5382,"Ġtiga":5383,"Ġfore":5384,"apai":5385,"æĪĸ":5386,"Ġbuah":5387,"ÙĪÙĨÙĨ":5388,"aluation":5389,"Ġalready":5390,"ĠAw":5391,"ĠBackground":5392,"ĠPract":5393,"Ġ1995":5394,"ĠØ§ÙĦÙĨ":5395,"UMS":5396,"alaman":5397,"åħ¨":5398,"REFERENCES":5399,"adb":5400,"Ġlength":5401,"ubahan":5402,"ĠSP":5403,"ĠÙĥÙĦ":5404,"å£":5405,"ĠNig":5406,"ĠOleh":5407,"Ġarg":5408,"ading":5409,"oring":5410,"Ġwhy":5411,"Ġreally":5412,"èº«":5413,"guna":5414,"Ġexisting":5415,"ĠAlam":5416,"isa":5417,"Ġperformed":5418,"Ġmagn":5419,"Ġpack":5420,"IZ":5421,"Ġindex":5422,"Ass":5423,"ĠJapan":5424,"Ġlect":5425,"iles":5426,"utes":5427,"ĠAL":5428,"unya":5429,"Ġtem":5430,"Ġelectro":5431,"ĠPem":5432,"Ġdeb":5433,"lukan":5434,"cy":5435,"Ġbulan":5436,"ĠPe":5437,"Ġinteraction":5438,"å·¥":5439,"Ġfat":5440,"',":5441,"Ġdifferences":5442,"but":5443,"èĦ":5444,"Ġahli":5445,".-":5446,"ualiti":5447,"Ġcreate":5448,"Ġpolitical":5449,"Ġ................................................":5450,"ĠAustral":5451,"apid":5452,"æĺİ":5453,"Ġagama":5454,"Ġbenefits":5455,"ush":5456,"Ġuseful":5457,"LES":5458,"ĠRahman":5459,"Ġbidang":5460,"ä»¶":5461,"Ġtraditional":5462,"Ġdir":5463,"Ġmac":5464,"Ġcatal":5465,"Ġcalled":5466,"Ø°Ø§":5467,"izational":5468,"empat":5469,"ĠÙĥÙħ":5470,"ips":5471,"ĠMaterials":5472,"ĠÛı":5473,"Ġpromot":5474,"ĠØ§ØŃ":5475,"Ġregarding":5476,"ĠDe":5477,"ustainability":5478,"Stud":5479,"MENT":5480,"oms":5481,"clude":5482,"YS":5483,"umin":5484,"ections":5485,"Ġdeposit":5486,"Ø§ÙĦØ§":5487,"oretical":5488,"New":5489,"Ġkelu":5490,"Ġsituation":5491,"Ġforeign":5492,"ĠGroup":5493,"matan":5494,"Ġdam":5495,"icial":5496,"Ġthanks":5497,"ulti":5498,"Ġaspek":5499,"ng":5500,"Ġcorporate":5501,"çĲĨ":5502,"Ġplanning":5503,"umi":5504,"æĦŁ":5505,"Ġwan":5506,"ĠPsych":5507,"ĠØ²":5508,"Ġthroughout":5509,"Gr":5510,"Abstract":5511,"EARCH":5512,"åĲ§":5513,"Ġsumber":5514,"ĠAssoci":5515,"Ġimm":5516,"ĠChinese":5517,"ously":5518,"iq":5519,"ivery":5520,"Ġbuild":5521,"uma":5522,"ĠRaz":5523,"ĠLee":5524,"Ġbasic":5525,"standing":5526,"ĠResults":5527,"Ġmembantu":5528,"ĠShe":5529,"ĠInternet":5530,"Ø¯Ø±":5531,"Ġcop":5532,"Ġevidence":5533,"Ġilmu":5534,"ĠEqu":5535,"atin":5536,"Ġleadership":5537,"ĠNe":5538,"brid":5539,"idation":5540,"Ber":5541,"Ġsuitable":5542,"ĠKem":5543,"ĠAbu":5544,"usm":5545,"Ġadded":5546,"Ġwar":5547,"amanya":5548,"åŁ":5549,"well":5550,"ĠNas":5551,"ehic":5552,"ondon":5553,"ola":5554,"åĵĪ":5555,"Ġprofit":5556,"Ġcancer":5557,"lo":5558,"ĠSociety":5559,"Ġfar":5560,"Ġlayer":5561,"Ġcollection":5562,"Ġcomparison":5563,"VA":5564,"Ġsecurity":5565,"DI":5566,"SA":5567,"Ġmes":5568,"utions":5569,"igation":5570,"åĲį":5571,"elas":5572,"ĠEr":5573,"æķ°":5574,"employ":5575,"ixed":5576,"Ġinnovation":5577,"App":5578,"Ġclin":5579,"ĠÚ¤Ø±Ø§":5580,"Ġnamely":5581,"urk":5582,"Ac":5583,"ching":5584,"Ġexist":5585,"dec":5586,"ging":5587,"Ġ51":5588,"Ġditer":5589,"ÂłÂł":5590,"Ġdrug":5591,"çģ":5592,"Ġawal":5593,"Ġkind":5594,"å®ŀ":5595,"control":5596,"Ġsite":5597,"ĠMac":5598,"alkan":5599,"ECLAR":5600,"Ġketika":5601,"ÙĪÙĩÙĨ":5602,"gov":5603,"ino":5604,"mak":5605,"ogr":5606,"ches":5607,"Ġcontact":5608,"Ġalong":5609,"tage":5610,"ez":5611,"æĹł":5612,"environment":5613,"akyat":5614,"Ġhighly":5615,"Ġrece":5616,"ĠNovember":5617,"ĠWater":5618,"ĠÙ£":5619,"ĠSME":5620,"amun":5621,"Ġemerg":5622,"Ġkeep":5623,"ĠKedah":5624,"aksanakan":5625,"hidmatan":5626,"Ø§Ú¬ÙĬ":5627,"ipp":5628,"uruhan":5629,"ĠSa":5630,"encing":5631,"Nor":5632,"âĢŁ":5633,"Ġsebanyak":5634,"Ø±Ø¨":5635,"lain":5636,"Ġinvestment":5637,"SE":5638,"Ø§ÙĬØª":5639,"Ġcred":5640,"Ġdemonstr":5641,"Ġconcrete":5642,"1998":5643,"Ġpeker":5644,"Rajah":5645,"Ġbanks":5646,"ECLARATION":5647,"incre":5648,"public":5649,"ĠØ£ÙĨ":5650,"Ġprofessional":5651,"éĶ":5652,"ç¬¬":5653,"Ġpsych":5654,"angsung":5655,"ĠØ¯Ø§ÙĬØ±Ùĩ":5656,"ĠComputer":5657,"Ġliqu":5658,"ĠBas":5659,"aged":5660,"Ġconstant":5661,"achel":5662,"Ġtim":5663,"Ġeffectiveness":5664,"Ġstatement":5665,"Ġtra":5666,"SR":5667,"Ġaspects":5668,"ĠMon":5669,"appro":5670,"Ġactive":5671,"ocal":5672,"Ġcapacity":5673,"Ġreduction":5674,"ĠEconomics":5675,"ĠCOVID":5676,"Ġrevealed":5677,"Ġvolume":5678,"Ġattitude":5679,"Ġexpert":5680,"ĠWeb":5681,"cient":5682,"CA":5683,"ultan":5684,"URES":5685,"sid":5686,"DP":5687,"side":5688,"ÅŁ":5689,"Ġlater":5690,"ĠEnergy":5691,"èª":5692,"ĠÙ¡":5693,"ober":5694,"ĠAir":5695,"ĠBrit":5696,"Ġengine":5697,"ero":5698,"dx":5699,"Ġberp":5700,"Ġextraction":5701,"åĲĥ":5702,"ç¤":5703,"ĠAccounting":5704,"Ġtable":5705,"Ġ75":5706,"Ġvi":5707,"èĬ":5708,"Ġhead":5709,"Prof":5710,"Ä«":5711,"è¨":5712,"ĠMet":5713,"ots":5714,"Ġ53":5715,"oyal":5716,"erian":5717,"Ġwriting":5718,"GA":5719,"EF":5720,"akin":5721,"Ġcara":5722,"ailand":5723,"spec":5724,"Ġerror":5725,"Ġthermal":5726,"Ġsy":5727,"ĠÙħÙĦØ§":5728,"ĠØ¨Ø±Ø³":5729,"gether":5730,"rate":5731,"Ġcriteria":5732,"Ú¤ÙĪÚł":5733,"ĠPres":5734,"HA":5735,"estic":5736,"Ġtogether":5737,"Ġtesting":5738,"Ġelement":5739,"eterusnya":5740,"Ġexperimental":5741,"ĠMelaka":5742,"atter":5743,"eknik":5744,"ÙĪØ¬":5745,"IX":5746,"Ġtourism":5747,"inar":5748,"Ġgreater":5749,"ĠFIG":5750,"ĠBy":5751,"çĶµ":5752,"Pl":5753,"ĠBINTI":5754,"information":5755,"ĠProduct":5756,"Ġweek":5757,"inger":5758,"Ġblood":5759,"çŁ¥éģĵ":5760,"Ġmultiple":5761,"Ġdetermined":5762,"ĠCONCLUSION":5763,"ĠSiti":5764,"abilities":5765,"ahagian":5766,"ĠOct":5767,"ĠØ¨Ø§":5768,"ĠÚ¤ÙħØ¨":5769,"uble":5770,"Ġ65":5771,"ahun":5772,"å¸¸":5773,"ĠPulau":5774,"Ġagar":5775,"Quran":5776,"bn":5777,"ounc":5778,"Ġkon":5779,"Ġside":5780,"Ġdensity":5781,"och":5782,"ebru":5783,"Ġvideo":5784,"Ġawareness":5785,"Ġworks":5786,"Ġcultural":5787,"pemb":5788,"ĠIbrahim":5789,"Ġsuggested":5790,"Ġinstitutions":5791,"amar":5792,"Ġdaerah":5793,"ĠMad":5794,"Ġsix":5795,"ĠNumber":5796,"Ġproduk":5797,"ĠFurthermore":5798,"Mod":5799,"ambah":5800,"web":5801,"ounter":5802,"ÙĪØ§Ø³":5803,"æ¥":5804,"Ġplatform":5805,"inding":5806,"ba":5807,"ĠAziz":5808,"ĠAnt":5809,"Ġmedical":5810,"500":5811,"Source":5812,"Ġproviding":5813,"ÚĨØ§Ø±Ø§":5814,"ä½į":5815,"Muh":5816,"cription":5817,"Az":5818,"ujuk":5819,"UiTM":5820,"Ġequation":5821,"olic":5822,"bal":5823,"ĠMicro":5824,"ĠÙĨØ§Ùħ":5825,"sl":5826,"essment":5827,"Des":5828,"rist":5829,"ĠAfter":5830,"Ġprivate":5831,"Ø¨ÙĪ":5832,"UAL":5833,"Ġbacter":5834,"olongan":5835,"Ġcorrect":5836,"DA":5837,"ĠYang":5838,"DS":5839,"åĽłä¸º":5840,"Ġ52":5841,"responding":5842,"ĠBesides":5843,"åıĪ":5844,"Ġindicates":5845,"Ġworkers":5846,"ĠCal":5847,"ĠKa":5848,"Ġsolid":5849,"Ġpoints":5850,"Ġboard":5851,"Ġeconomy":5852,"dn":5853,"Ġrecorded":5854,"achelor":5855,"Ġsearch":5856,"fa":5857,"ECT":5858,"dua":5859,"Ġbo":5860,"Ġlelaki":5861,"ilt":5862,"ÙĬÙĨÙĬ":5863,"ration":5864,"through":5865,"lege":5866,"empt":5867,"Ġexpect":5868,"Ġhidup":5869,"éĩį":5870,"Ġthough":5871,"Ġmarketing":5872,"stat":5873,"ĠÙĦØ¨ÙĬÙĩ":5874,"Advanced":5875,"Ġakhir":5876,"ognitive":5877,"Ġmemberikan":5878,"éħ":5879,"iang":5880,"Ú¤ÙĨ":5881,"Ġchallenges":5882,"Ġacqu":5883,"æĽ´":5884,"ĠNoor":5885,"Ġtanpa":5886,"Ġitem":5887,"ĠAug":5888,"asih":5889,"ÙĬÙĨØª":5890,"Ġselection":5891,"Ġtask":5892,"Ġclaim":5893,"vol":5894,"Ġstudied":5895,"xy":5896,"åºĶ":5897,"ĠMost":5898,"management":5899,"University":5900,"avy":5901,"emen":5902,"ĠÙĥÚĨ":5903,"ĠMd":5904,"ĠWhat":5905,"Ġlocation":5906,"inciples":5907,"ĠØ³ÙĨ":5908,"Ġlimit":5909,"rid":5910,"uktur":5911,"nic":5912,"pat":5913,"Ġmic":5914,"Ġlearners":5915,"level":5916,"Ġbinti":5917,"akai":5918,"cluded":5919,"enggan":5920,"OF":5921,"gener":5922,"Ġfuel":5923,"Ġusage":5924,"Ġappreci":5925,"Ġparents":5926,"Ġefficient":5927,"Ġ56":5928,"ĠÙĨÚ¬Ø§Ø±Ø§":5929,"enali":5930,"Ġpenj":5931,"Ġmentioned":5932,"unction":5933,"odes":5934,"Ġmeasures":5935,"ĠOR":5936,"Pol":5937,"Ġbrand":5938,"Ġvisual":5939,"ĠJune":5940,"Cont":5941,"ÙĨØ¯Ø±":5942,"ians":5943,"Ġiniti":5944,"otic":5945,"Digital":5946,"æľĢåĲİ":5947,"echanical":5948,"enn":5949,"Ġcontr":5950,"Ġwanita":5951,"ÙĪÚ½Ø§Ø¡ÙĬ":5952,"bec":5953,"Ġisol":5954,"ootstr":5955,"æĸĩ":5956,"Ġsw":5957,"ĠØ³Ø¬":5958,"ĠInstitutional":5959,"Ø±ÙĬØ³":5960,"oin":5961,"Ġinhib":5962,"opt":5963,"Ġdoi":5964,"articip":5965,"Ġ1990":5966,"Ġaudit":5967,"ĠTun":5968,"isan":5969,"Ġenhance":5970,"andungan":5971,"åĬ¨":5972,"ĠGh":5973,"ulk":5974,"lean":5975,"Ġpopular":5976,"quare":5977,"assan":5978,"Ġetc":5979,"Ġbur":5980,"cal":5981,"Ġname":5982,"Ġrather":5983,"ĠÙĨÚ¬Ø±ÙĬ":5984,"ABLES":5985,"Ġappropriate":5986,"æľŁ":5987,"Ø¯Ø§Ú¤Øª":5988,"ĠØ§Ú¤":5989,"Ġberikut":5990,"oogle":5991,"1997":5992,"________________________________":5993,"isms":5994,"Di":5995,"Ġdiscussed":5996,"ĠMeng":5997,"embangan":5998,"Ġ59":5999,"aste":6000,"illing":6001,"Ġkena":6002,"ĠMarketing":6003,"ĠKnowledge":6004,"ungkin":6005,"Ġattention":6006,"itudes":6007,"Ġavoid":6008,"part":6009,"ĠDan":6010,"Ø¨Ø±Ø§":6011,"ĠDAN":6012,"Ġperingkat":6013,"GR":6014,"Ġpolymer":6015,"Ġ54":6016,"Ġfa":6017,"ĠÙħÙħÚ¤ÙĪÚ½Ø§Ø¡ÙĬ":6018,"uju":6019,"åĨį":6020,"Ġwhole":6021,"iO":6022,"ĠØ³Ø£":6023,"ĠDissert":6024,"arab":6025,"Ġfilem":6026,"enda":6027,"sek":6028,"tee":6029,"Ġexperiment":6030,"ĠStandard":6031,"ror":6032,"Ġdirectly":6033,"Ġorganizations":6034,"xx":6035,"Ġshop":6036,"rowth":6037,"ercial":6038,"Str":6039,"wise":6040,"Ġpener":6041,"Ġsemula":6042,"APPEND":6043,"agu":6044,"Ġparameter":6045,"Men":6046,"ÙĦÙĥ":6047,"Library":6048,"abric":6049,"annel":6050,"Ġcommercial":6051,"ÙĩÙħ":6052,"Ġformation":6053,"Ġincluded":6054,"Ġdic":6055,"Ġden":6056,"éĥ¨":6057,"osen":6058,"Ġhold":6059,"Ġsell":6060,"Ġ1994":6061,"Ġpoll":6062,"Ġattract":6063,"Latest":6064,"Ġhab":6065,"Ġmampu":6066,"ĠTheory":6067,"Ġleg":6068,"Co":6069,"ĠCOM":6070,"pret":6071,"Ġleft":6072,"isme":6073,"Ġ?":6074,"DR":6075,"clus":6076,"tenance":6077,"ï¼ģï¼ģ":6078,"Ġconventional":6079,"ĠÙĥØ¯":6080,"Ġrendah":6081,"Ġcoefficient":6082,".......":6083,"Ġsupported":6084,"bel":6085,"students":6086,"certain":6087,"care":6088,"MC":6089,"Ú¤Ø³":6090,"bez":6091,"Ġhom":6092,"osity":6093,"Ġresistance":6094,"ÙħØ¯":6095,"Ġkeadaan":6096,"inj":6097,"erluan":6098,"kepada":6099,"ĠNetwork":6100,"Ġdaily":6101,"Ġmeaning":6102,"ĠFinance":6103,"çĹ":6104,"Ġberbeza":6105,"ITY":6106,"Ġ99":6107,"ç§į":6108,"Ġproduc":6109,"repreneur":6110,"aa":6111,"ĠØ§ÙĨØªØ§Ø±Ø§":6112,"é¢ĺ":6113,"uhu":6114,"Ġautom":6115,"Ġ57":6116,"ÙħØª":6117,"ĠSystems":6118,"Ġperl":6119,"Ø¨Ø§":6120,"term":6121,"izes":6122,"Ġliter":6123,"sem":6124,"ÙĢÙĢÙĢÙĢ":6125,"criptive":6126,"urg":6127,"Ġconsists":6128,"OI":6129,"Ġmotivation":6130,"Ġemb":6131,"Ġtrade":6132,"ĠØ§ÙĦØ¯":6133,"Ġfriends":6134,":-":6135,"Ġurban":6136,"oles":6137,"Ġrelevant":6138,"ĠEnvironmental":6139,"ç¦":6140,"Ġresid":6141,"Ġincludes":6142,"oud":6143,"analysis":6144,"also":6145,"è§ī":6146,"amaan":6147,"data":6148,"lection":6149,"kg":6150,"ĠBhd":6151,"development":6152,"ARY":6153,"war":6154,"ĠWhen":6155,"ĠâĢ¢":6156,"Ġpatient":6157,"Id":6158,"Ġdrop":6159,"ĠØ³Ùħ":6160,"Ġexternal":6161,"ĠWang":6162,"arisan":6163,"rown":6164,"ĠSen":6165,"ached":6166,"åĥı":6167,"engganu":6168,"Ġcirc":6169,"Ġ95":6170,"Ġoccurr":6171,"ĠBeliau":6172,"Ġtools":6173,"uzzy":6174,"ĠÚ¤ÙĪØ³":6175,"Ġindustrial":6176,"ĠChemical":6177,"ĠIEEE":6178,"ĠAmerican":6179,"èĥ":6180,"html":6181,"ĠPerak":6182,"ĠKar":6183,"ĠSekolah":6184,"ĠEconomic":6185,"ÙħØ±":6186,"ĠTR":6187,"ĠMohamed":6188,"Ġmakanan":6189,"ipl":6190,"Ø§ÙĪÙĨ":6191,"ØªØ³":6192,"Ġsimulation":6193,"ront":6194,"ĠDiscovery":6195,"atur":6196,"OLOGI":6197,"ĠRam":6198,"Ġforce":6199,"æīĢä»¥":6200,"ĠPhys":6201,"====":6202,"ootstrap":6203,"ÂłĠÂłÂłĠÂłÂłĠÂłÂłĠÂł":6204,"Ø§ÙĨÙĬ":6205,"ĠConclusion":6206,"æŁ":6207,"Ġlah":6208,"Ġmatter":6209,"Ter":6210,"è¿Ľ":6211,"sol":6212,"ariance":6213,"Ġthird":6214,"Ġgame":6215,"ä»ĸä»¬":6216,"æİ¥":6217,"Ø§ÙĨÚĨ":6218,"èĻ":6219,"ights":6220,"ĠOpt":6221,"Ġdistance":6222,"CUS":6223,"different":6224,"Ġacross":6225,"ĠOper":6226,"repreneurship":6227,"Ġsubmitted":6228,"Ġinvestigate":6229,"Ġnecessary":6230,"oto":6231,"è¯¥":6232,"ĠSTUDY":6233,"Ġtransport":6234,"Ġfinding":6235,"ĠMak":6236,"ĠFinancial":6237,"ocol":6238,"ABSTRAK":6239,"ĠMAN":6240,"iddle":6241,"high":6242,"osites":6243,"Ġemot":6244,".\"":6245,"zz":6246,"esan":6247,"akulti":6248,"æĬĬ":6249,"ars":6250,"ipment":6251,"Ġconsumption":6252,"Ġdimens":6253,"Ġarticle":6254,"ĠKota":6255,"NT":6256,"xim":6257,"berg":6258,"imana":6259,"ÙĥÙĪÙĨ":6260,"asurement":6261,"Abdul":6262,"Ġcaused":6263,"Ġinternet":6264,"Ġpembangunan":6265,"çĥ":6266,"nt":6267,"Ġindividu":6268,"perimental":6269,"ament":6270,"Ġseries":6271,"å¤ª":6272,"Ġsuatu":6273,"sequently":6274,"osa":6275,"Ġsom":6276,"ulate":6277,"bas":6278,"ĠSouth":6279,"Ú¤Ø±ØªÙĬ":6280,"ecut":6281,"Ġdry":6282,"Ġ01":6283,"Ġnk":6284,"Ġsure":6285,"Ġtherefore":6286,"TIC":6287,"Ġoriginal":6288,"Ġjika":6289,"Ġir":6290,"ÙĦØ¨":6291,"Ġdeep":6292,"Ġhowever":6293,"ĠFIGURES":6294,"ĠKu":6295,"cholar":6296,"ĠĠĠĠĠĠĠĠĠ":6297,"Ġlikely":6298,"Ġmonths":6299,"Ġekonomi":6300,"Ġsequ":6301,"heme":6302,"exp":6303,"prof":6304,"lier":6305,"ĠÙĥÙĪ":6306,"éĢĻ":6307,"infor":6308,"ï¼Łï¼Ł":6309,"Ġprocessing":6310,"Ġcommitment":6311,"FR":6312,"ĠSome":6313,"ĠØ¨Ø§Ú¬ÙĬ":6314,"Ġmanufacturing":6315,"pite":6316,"ĠØ³ÙĥÙĪÙĦÙĩ":6317,"Ġprojects":6318,"All":6319,"ĠTABLES":6320,"iza":6321,"Ġmengambil":6322,"Ġfemale":6323,"iks":6324,"æī¾":6325,"æķĻ":6326,"hehe":6327,"æŃ£":6328,"abat":6329,"ÚĨÙĬ":6330,"Ġparts":6331,"Ġperspective":6332,"ðĿĳ¥":6333,"iling":6334,"Staff":6335,"ĠGlobal":6336,"Ġaffected":6337,"ukar":6338,"irkan":6339,"INTRODUCTION":6340,"ĠOut":6341,"Ġdest":6342,"orage":6343,"Rec":6344,"USM":6345,"Ġrep":6346,"bezaan":6347,"elaskan":6348,"Ġprevent":6349,"kod":6350,"ĠThen":6351,"Ġdetection":6352,"ered":6353,"ä¸ī":6354,"Ġminimum":6355,"Ġimprovement":6356,"ä¼ł":6357,"Ġconsumers":6358,"ĠWithdraw":6359,"Ġrates":6360,"BN":6361,"Ġmeningkatkan":6362,"ĠØ±ÙĬ":6363,"ceptions":6364,"eorang":6365,"ĠDem":6366,"SD":6367,"Ġresearcher":6368,"ENCE":6369,"ĠCatalog":6370,"significant":6371,"awat":6372,"))":6373,"ĠCan":6374,"ï£":6375,"Submit":6376,"ĠMoreover":6377,"Ġroad":6378,"ĠJohn":6379,"æĪĳçļĦ":6380,"Ġmaka":6381,"atitude":6382,"ĠSelain":6383,"ĠÙħØ³":6384,"Ġillustr":6385,"pons":6386,"Ġmatrix":6387,"ewan":6388,"Ġoperation":6389,"æĶ¾":6390,"ä½łçļĦ":6391,"Ġfollows":6392,"Ġprepared":6393,"1996":6394,"ĠFirst":6395,"Ġbudaya":6396,"ĠAPI":6397,"aiwan":6398,"ĠLogin":6399,"ĠØ§Ø®":6400,"Ġmal":6401,"vis":6402,"Ġyoung":6403,"ais":6404,"Ġsampling":6405,"ĠLondon":6406,"Ġproper":6407,"aruhi":6408,"Ġbanking":6409,"ĠCommunication":6410,"ĠCentre":6411,"dem":6412,"çĽ´":6413,"ĠDNA":6414,"ĠSecond":6415,"Ġï¿½ï¿½":6416,"Quick":6417,"Ġhospital":6418,"çħ":6419,"Ġanalisis":6420,"Ġ58":6421,"Ù©":6422,"industr":6423,"jektif":6424,"osi":6425,"Ġsimple":6426,"Ġrights":6427,"ĠRas":6428,"åķĬ":6429,"point":6430,".).":6431,"ĠPert":6432,"Ġbackground":6433,"Ġberas":6434,"like":6435,"ĠTheses":6436,"Ġopportunity":6437,"Ø±Ø§Ø¬":6438,"afe":6439,"Ġblock":6440,"Ġreduced":6441,"FOR":6442,"ĠFar":6443,"ĠDatuk":6444,"Ġlit":6445,"çī©":6446,"Ġwind":6447,"Ġmenyebabkan":6448,"Ġuses":6449,"seb":6450,"Ġdesigned":6451,"CUSSION":6452,"ØªØ±ÙĬ":6453,"asons":6454,"ĠNot":6455,"ingan":6456,"ÙħÚ¤Øª":6457,"ä¸¤":6458,"rd":6459,"Ġkali":6460,"pha":6461,"ĠPost":6462,"ç³":6463,"æĢ§":6464,"ĠANAL":6465,"epat":6466,"ĠDissertations":6467,"Ġimages":6468,"Made":6469,"gk":6470,"Ġgender":6471,"ĠClass":6472,"ĠMedia":6473,"So":6474,"ĠVolume":6475,"AMI":6476,"Ġterus":6477,"Ġnov":6478,"NAL":6479,"Ġberbanding":6480,"Ġpengurusan":6481,"ç²":6482,"Ġcomputer":6483,"apy":6484,"empor":6485,"Ġmemiliki":6486,"page":6487,"Ġsoalan":6488,"ĠÙģÙĬÙĦÙĬÙħ":6489,"Ġmengh":6490,"ĠSol":6491,"Ġcontribute":6492,"akhir":6493,"Ġwat":6494,"aboratory":6495,"ĠStatement":6496,"eli":6497,"odies":6498,"ancis":6499,"witter":6500,"Ġachieved":6501,"ĠMinistry":6502,"Ø¯ÙĬØ§":6503,"model":6504,"ss":6505,"ungsi":6506,"ingkatan":6507,"Ġï´¾":6508,"ĠNon":6509,"Ġfish":6510,"Ġkemudian":6511,"ĠObjectives":6512,"ĠGeneral":6513,"ourse":6514,"Ġvehic":6515,"ÙĦÙĦ":6516,"Br":6517,"det":6518,"Ġdescribed":6519,"adang":6520,"Ġtransform":6521,"ÙħØ¨Ø±":6522,"ares":6523,"Ġemphas":6524,"Ġorient":6525,"Ġsoci":6526,"Ġsik":6527,"Ġfunctions":6528,"Ġgiving":6529,"è¿ĺæĺ¯":6530,"Ġregression":6531,"Ġchapter":6532,"Ġmenyatakan":6533,"Bootstrap":6534,"Ġfast":6535,"Ġcam":6536,"ediakan":6537,"alian":6538,"BA":6539,"åĲĪ":6540,"ĠStudents":6541,"apun":6542,"INTAS":6543,"Ġtested":6544,"ĠEF":6545,"erview":6546,"ĠÙĦØ§ÙĬÙĨ":6547,"ĠAdditions":6548,"Ġhighlight":6549,"TING":6550,"poses":6551,"umbuhan":6552,"umen":6553,"ls":6554,"Ġorg":6555,"StatisticsLogin":6556,"Ġplants":6557,"åħ¥":6558,"LINTAS":6559,"Ġincreases":6560,"ĠIRepository":6561,"myStaff":6562,"uumlib":6563,"ĠLoginUUM":6564,"BootstrapMade":6565,"ĠIRepositoryThe":6566,"StatisticsLoginLoginPlease":6567,"ĠAcademic":6568,"Ġguidance":6569,"ï½ŀ":6570,"group":6571,"Ġberjaya":6572,"Ġemployee":6573,"issue":6574,"import":6575,"Ø³Ø¨ÙĪØª":6576,"ĠUSA":6577,"PO":6578,"iet":6579,"Ġmoder":6580,"è¿Ļä¸ª":6581,"Department":6582,"Ġmurid":6583,"ĠMarch":6584,"zi":6585,"yak":6586,"ĠÙĥØ§ÙħÚ¤ÙĪÚł":6587,"Ġperkara":6588,"Ġisu":6589,"Ġcomponent":6590,"1995":6591,"rastr":6592,"ĠISS":6593,"Ġlinear":6594,"ĠÙħØ¹":6595,"araan":6596,"Ġaccounting":6597,"ĠHan":6598,"ĠKet":6599,"Ġstability":6600,"eline":6601,"Ġbaga":6602,"Ġkew":6603,"Management":6604,"gy":6605,"ĠFebru":6606,"IJ":6607,"wah":6608,"Ġ;":6609,"ustak":6610,"Ġkini":6611,"ĠIT":6612,"('":6613,"techn":6614,"ĠØ³Ø£ÙĪØ±Úł":6615,"Ġcosts":6616,"Ġlectur":6617,"Ġmajority":6618,"BER":6619,"Ġ64":6620,"ĠDecember":6621,"Ġterut":6622,"Ġrob":6623,"ĠForm":6624,"Ġkeseluruhan":6625,"Ġnorm":6626,"uls":6627,"ĠSH":6628,"jid":6629,"ĠÙĪÙĦØ§":6630,"invest":6631,"Ø§Ø¦":6632,"Ġfailure":6633,"ĠØªÙĬÙĩ":6634,"ĠØ¨Ø±Ø§":6635,"ÙĮ":6636,"ĠÚ¤Ø±ØªØ§Ùħ":6637,"EX":6638,"ç¼ĸ":6639,"EV":6640,"cope":6641,"éĢļ":6642,"Ġpenyelidikan":6643,"æ¯ı":6644,"EA":6645,"ĠHow":6646,"Ġfluid":6647,"Ġnews":6648,"ĠThailand":6649,"Ġflex":6650,"ĠØ§Ùĩ":6651,"Ġstructural":6652,"Ġways":6653,"ĠNa":6654,"Ġsyarikat":6655,"sep":6656,"ĠRESEARCH":6657,"ç½ĳ":6658,"Ġjournal":6659,"2022":6660,"Ġlama":6661,"Ġgeneration":6662,"igen":6663,"las":6664,"Ġweak":6665,"ĠØ³Ú¤Ø±ØªÙĬ":6666,"Ġperception":6667,"Ġcit":6668,"mah":6669,"Ġimproved":6670,"src":6671,"Ġbase":6672,"Ġstates":6673,"XX":6674,"èī²":6675,"aksi":6676,"will":6677,"ÙĨØ¯Ø§":6678,"ĠComparison":6679,"Ġinvestigation":6680,"ÙĬÙĪ":6681,"stitusi":6682,"yen":6683,"nel":6684,"amily":6685,"æľĥ":6686,"aru":6687,"Ġpengajaran":6688,"ĠUnder":6689,"Ġdraw":6690,"ĠÙ¤":6691,"mb":6692,"awal":6693,"Ġmainly":6694,"ĉč":6695,"Ø¨Ø¯":6696,"Ġmarks":6697,"Ġconsumer":6698,"Ġupon":6699,"EG":6700,"ĠSM":6701,"Ġquite":6702,"tak":6703,"ĠOctober":6704,"Ġkhus":6705,"such":6706,"Total":6707,"ÙĥÙĦ":6708,"Ġmembrane":6709,"operation":6710,"inning":6711,"Ø¹Ø©":6712,"çİ°åľ¨":6713,"istik":6714,"Fin":6715,"Ġreliability":6716,"ä¾Ĩ":6717,"Ġrandom":6718,"Ø±Øª":6719,"Ġground":6720,"Ġdiscussion":6721,"Ġestablished":6722,"çĭ":6723,"ĠOther":6724,"Ġcompounds":6725,"Ġalmost":6726,"Ġmelibatkan":6727,"abet":6728,"Ġprec":6729,"Ġgoing":6730,"Ġseri":6731,"gg":6732,"Ġkeluarga":6733,"Ġassum":6734,"Ġopin":6735,"ÙĨØ§":6736,"Ġexplained":6737,"Ġeasy":6738,"aur":6739,"Ġnever":6740,"Ġgain":6741,"Ġdilihat":6742,"Ġsecondary":6743,"ï´¾.":6744,"Ġrepres":6745,"anggung":6746,"Ø¬Ø±":6747,"Ġ1993":6748,"itaran":6749,"mentation":6750,"pir":6751,"Ġtend":6752,"Ø±ÙĪØ³":6753,"Ġparticularly":6754,"occ":6755,"enuh":6756,"ĠPin":6757,"enaan":6758,"ĠMot":6759,"Ġ63":6760,"ĠØ³ØªÙĬ":6761,"ÙĪÚłÙĨ":6762,"appen":6763,"Ġberada":6764,"ming":6765,"ps":6766,"Ġsekitar":6767,"INESS":6768,"greg":6769,"edd":6770,"economic":6771,"Ġideas":6772,"ĠØ§ÙĥÙĨ":6773,"å»":6774,"åĢĭ":6775,"anyakan":6776,"Ø±ØªØ§":6777,"ĠEN":6778,"Ġalternative":6779,"ĠJuly":6780,"umn":6781,"YSIS":6782,"ĠKore":6783,"unc":6784,"ĠCap":6785,"ifically":6786,"Ġbag":6787,"ectors":6788,"175":6789,"Ġmechanical":6790,"Ġhistory":6791,"Ġwidely":6792,"Ġmudah":6793,"Pass":6794,"ĠEth":6795,"Ġmechanism":6796,"kr":6797,"disc":6798,"SO":6799,"ÙĩÙĬ":6800,"ĠCharacter":6801,"andungi":6802,"inda":6803,"å¤į":6804,"åĩł":6805,"Ġutk":6806,"ided":6807,"ĠLITERATURE":6808,"ges":6809,"ÙĨÙĬØ§":6810,"ĠPut":6811,"Ġsatisf":6812,"Ġ61":6813,"NAH":6814,"ãĢĤãĢĤãĢĤãĢĤ":6815,"ĠØ§ÙĦÙģ":6816,"Ġproperty":6817,"Ġnumer":6818,"fl":6819,"ĠĠĠĠĠĠĠĠĠĠĠĠĠĠĠ":6820,"Ġfacilities":6821,"uro":6822,"Ġsegi":6823,"ĠØ³ÙĬÚ¤":6824,"ĠSep":6825,"è¾ĳ":6826,"Ø±ÙĬÙĥØª":6827,"ytic":6828,"hidupan":6829,"Ġgratitude":6830,"urance":6831,"Ġdelivery":6832,"yelidikan":6833,"æ¨":6834,"MB":6835,"Ġpernah":6836,"Ġaccuracy":6837,"het":6838,"Ġkalau":6839,"ä½ķ":6840,"Ġkemahiran":6841,"ĠKim":6842,"Ġmut":6843,"Ġexchange":6844,"aced":6845,"ĠTH":6846,"å¾Īå¤ļ":6847,"Ġeffort":6848,"å¤´":6849,"æŃ¤":6850,"Ġrapid":6851,"Ġfrequ":6852,"ĠAugust":6853,"niagaan":6854,"parent":6855,"åº¦":6856,"Ġpolitik":6857,",,":6858,"åŃĺ":6859,"ĠSultan":6860,"ifi":6861,"ĠNegara":6862,"iada":6863,"kal":6864,"ulisan":6865,"Ġrelationships":6866,"ä»·":6867,"Ġpengetahuan":6868,"apers":6869,"Ġramai":6870,"program":6871,"Ġbond":6872,"ĠÙĪÙĦØ§ÙĬÙĩ":6873,".........":6874,"Ġorganisasi":6875,"ny":6876,"ayer":6877,"dig":6878,"ĠBritish":6879,"LO":6880,"iction":6881,"aksud":6882,"urun":6883,"Ġmachine":6884,"ĠØ³Ø±Ø§":6885,"ĠFacebook":6886,"Ø§ÙĦÙĪ":6887,"ĠArt":6888,"Ġ]":6889,"entu":6890,"luence":6891,"Ġcomposition":6892,"Ġpemer":6893,"Ġclose":6894,"ÙĦÙĦØ§":6895,"essor":6896,"ners":6897,"EKN":6898,"USINESS":6899,"Ġmarkah":6900,"Ġdikenali":6901,"Ġpenduduk":6902,"Ġamat":6903,"Ġchain":6904,"Ġbiom":6905,"being":6906,"ĠDel":6907,"åĳ¢":6908,"ĠTotal":6909,"Ġbasis":6910,"Ġmotiv":6911,"Min":6912,"Ġassist":6913,"ĠSdn":6914,"Ġyet":6915,"doc":6916,"Ġupd":6917,"idah":6918,"Ġwilayah":6919,"ĠPak":6920,"ĠØ¹ÙĨ":6921,"è®©":6922,"ambahan":6923,"MT":6924,"elves":6925,"develop":6926,"uitm":6927,"Ġeducational":6928,"Ġment":6929,"Ġkehidupan":6930,"FAC":6931,"lementation":6932,"çł":6933,"éķ¿":6934,"Ġkampung":6935,"Sec":6936,"reement":6937,"Ġ09":6938,"ÙĪØ§ÙĬ":6939,"ORK":6940,"Inter":6941,"Ġcompreh":6942,"Ġprefer":6943,"asikan":6944,"Ġsekali":6945,"ĠÚ¤Ø±ÙĬ":6946,"Mel":6947,"main":6948,"Ġalam":6949,"ĠSection":6950,"ĠEX":6951,"verview":6952,"PD":6953,"Ø§Ø±Øª":6954,"ðĿĳħ":6955,"Ġroom":6956,"ulasi":6957,"Ġmess":6958,"Ġindicate":6959,"ocity":6960,"ayar":6961,"Ġdiagn":6962,"ĠBen":6963,"ĠPet":6964,"ully":6965,"Ġ................":6966,"Dalam":6967,"ĠÂµ":6968,"æĤ":6969,"Ġkadar":6970,"Ġ1992":6971,"IAL":6972,"hy":6973,"Ġmengg":6974,"Ġ500":6975,"Ġfunctional":6976,"ĠFactors":6977,"irah":6978,"æħ":6979,"Ø¤":6980,"Ġreference":6981,"Ġselect":6982,"nam":6983,"Ġrecommend":6984,"ividual":6985,"Ġsustainable":6986,"thman":6987,"Ġcollabor":6988,"Ġexamine":6989,"âĢĻ,":6990,"oman":6991,"Ak":6992,"ademik":6993,"ĠEnt":6994,"Ġkonsep":6995,"Ġzakat":6996,"olved":6997,"Ġmale":6998,"ĠTime":6999,"class":7000,"ACH":7001,"Ġschools":7002,"Mean":7003,"ÙĪØ§ÙĦ":7004,"éĩĳ":7005,"estasi":7006,"awangan":7007,"ĠÙĥØ³":7008,"ĠNigeria":7009,"Ġamb":7010,"éĸ":7011,"aksanaan":7012,"PC":7013,"ÙĤÙĨ":7014,"ĠInvest":7015,"UH":7016,"ĠStates":7017,"%),":7018,"ANCE":7019,"Ġseramai":7020,"kanak":7021,"irit":7022,"Ġaims":7023,"ĠÙħØ§ÙĨ":7024,"Ø¯Ø¯":7025,"Ġthick":7026,"ĠNO":7027,"ĠØ¨ÙĨØ¯Ø±":7028,"ÙīÙĦ":7029,"relationship":7030,"Ġdoing":7031,"Ġenough":7032,"ici":7033,"oxidant":7034,"ypes":7035,"Ġq":7036,"kel":7037,"ÙĦÙĬØ³":7038,"Ġcalculated":7039,"angun":7040,"Ġattribut":7041,"Ġsharing":7042,"Ġberg":7043,"AGEMENT":7044,"ĠCase":7045,"ymer":7046,"IND":7047,"Ġwall":7048,"ä¿¡":7049,"aires":7050,"Ġemployed":7051,"Ġmode":7052,"ĠØ³Øª":7053,"Ġko":7054,"ĠId":7055,"elines":7056,"ustomer":7057,"yarat":7058,"entingan":7059,"ingu":7060,"ĠÎ²":7061,"adah":7062,"inu":7063,"Ġtreated":7064,"hide":7065,"iber":7066,"ĠSpec":7067,"Ġ62":7068,"Ġusaha":7069,"Ġhak":7070,"ĠAT":7071,"uba":7072,"conf":7073,"ĠEuropean":7074,"Ġmakes":7075,"ambar":7076,"chitecture":7077,"Ġæľ¬":7078,"âĢ¦âĢ¦âĢ¦":7079,"ager":7080,"Ġ#":7081,")(":7082,"osing":7083,"ĠOrganization":7084,"undang":7085,"hematics":7086,"ULTS":7087,"ĠMedicine":7088,"Ġhouse":7089,"150":7090,"åħ³":7091,"ĠÚ¤Ø§Ø³":7092,"ï´¾ØĮ":7093,"Ġ66":7094,"Ġassign":7095,"urus":7096,"Ġperanan":7097,"çı":7098,"Ġsensor":7099,"ç¼ĸè¾ĳ":7100,"Ġterdiri":7101,"Ġscience":7102,"lt":7103,"One":7104,"ucial":7105,"tual":7106,"Ġperubahan":7107,"ĠICT":7108,"Ġfilm":7109,"ĠRob":7110,"Pa":7111,"ias":7112,"Ġgovernance":7113,"Ġgenerated":7114,"Ġattempt":7115,"Hel":7116,"ĠRespond":7117,"Ġapproaches":7118,"120":7119,"MR":7120,"jp":7121,"Ġmenghasilkan":7122,"bial":7123,"Ġorganic":7124,"Ġgoal":7125,"ĠTourism":7126,"arabangsa":7127,"Me":7128,"Ġthings":7129,"ĠÙħØ§Ø³":7130,"Volume":7131,"è§£":7132,"ĠSD":7133,"éľĢ":7134,"cap":7135,"Ġpent":7136,"ĠYou":7137,"Ġchoice":7138,"æĢİ":7139,"Ø§Ø±Ùĩ":7140,"ĠUtara":7141,"rum":7142,"ĠØ¨Ø±Ùĥ":7143,"ĠAustralia":7144,"EB":7145,"ĠDirect":7146,"ĠTurk":7147,"æ¶":7148,"ä»İ":7149,"Ġadvantage":7150,"..........":7151,"Ġtests":7152,"Ġrang":7153,"ĠBuilding":7154,"ĠHassan":7155,"Ġtrend":7156,"ĠAut":7157,"éº":7158,"Ġmis":7159,"ĠØ°":7160,"æ·":7161,"elligence":7162,"yes":7163,"Ùį":7164,"ĠØ´Ø±ÙĬÙĥØª":7165,"WT":7166,"ĠÂ°":7167,"ustakaan":7168,"Ġpain":7169,"Ġbound":7170,"åĵ¦":7171,"ĠSMEs":7172,"thing":7173,"utri":7174,"icity":7175,"ãĥ":7176,"Ġii":7177,"ema":7178,"ochemical":7179,"ĠPhil":7180,"Ġ72":7181,"ĠÙĥÙĪÙħÚ¤":7182,"æĭ¿":7183,"Ġ67":7184,"ĠÙ¥":7185,"Ġempirical":7186,"strain":7187,"Ġevaluate":7188,"uhkan":7189,"mg":7190,"FT":7191,"orne":7192,"ĠFlow":7193,"ussion":7194,"Ġâī":7195,"ĠSeri":7196,"Ġdependent":7197,"è¾ĥ":7198,"åĭ":7199,"ste":7200,"åĵģ":7201,"Ġconflic":7202,"naires":7203,"Ġmemer":7204,"andid":7205,"ĠFig":7206,"And":7207,"ĠÙĥÙĪÙĨ":7208,"Ġintroduced":7209,"TIVE":7210,"alahan":7211,"ĠIran":7212,"amah":7213,"liance":7214,"Ġ1991":7215,"Ġactual":7216,"Ġliving":7217,"Ġmulti":7218,"ĠJanuary":7219,"abase":7220,"stagram":7221,"Ġç¼ĸè¾ĳ":7222,"Ġshape":7223,"æľĢåĲİçĶ±":7224,"å¸ĸæľĢåĲİçĶ±":7225,"Ġmungkin":7226,"Ġrequires":7227,"uatan":7228,"pem":7229,"Ġchosen":7230,"Ġphys":7231,"long":7232,"Ġæľ¬å¸ĸæľĢåĲİçĶ±":7233,"Ġseed":7234,"Ġdimensions":7235,"Mal":7236,"know":7237,"INE":7238,"çĶ·":7239,"PRO":7240,"ĠÏ":7241,"Ø§Ú½ÙĤ":7242,"Ġkeg":7243,"win":7244,"Ġcombination":7245,"Ġinvestigated":7246,"ĠID":7247,"CD":7248,"ç®Ĺ":7249,"Ġpasti":7250,"inta":7251,"Ġcontinue":7252,"éª":7253,"åĸľ":7254,"ricultural":7255,"Ġminutes":7256,"Sup":7257,"hatian":7258,"ĠAfric":7259,"Ġrefers":7260,"estern":7261,"Ġkecil":7262,"ĠTel":7263,"ujukan":7264,"Ġdeath":7265,"Do":7266,"Ġbring":7267,"Ġthought":7268,"ticle":7269,"Ġhum":7270,"Te":7271,"RES":7272,"ĠPark":7273,"ĠØ¯Ú¬ÙĪÙĨØ§ÙĥÙĨ":7274,"ðĿĳŁ":7275,"ä¹Łæĺ¯":7276,"aktu":7277,"Ġlegal":7278,"Ġseseorang":7279,"Ø§Ø¯ÙĬ":7280,"Ġcycle":7281,"ĠØ¯ÙĪØ§":7282,"anian":7283,"onic":7284,"istan":7285,"ØµÙĦ":7286,"ä½ĵ":7287,"ouncil":7288,"Ġprocedure":7289,"Ġ150":7290,"Ġsuccessfully":7291,"Ġdiscl":7292,"ĠTerengganu":7293,"Ġsesuai":7294,"Ġhappen":7295,"hab":7296,"Ġparties":7297,"ĠPaper":7298,"Ġsteel":7299,"top":7300,"Ġmelakukan":7301,"ĠGovernment":7302,"Ġpartial":7303,"ĠMedical":7304,"Ã¶":7305,"ĠØ¨ÙĩØ§ÙĪØ§":7306,"embilan":7307,"Mus":7308,"Ø§ÙĪÙĩ":7309,"ANT":7310,"ĠIndustrial":7311,"ulose":7312,"Ġeasily":7313,"ahami":7314,"Ġmembawa":7315,"Ġgolongan":7316,"Sent":7317,"ataan":7318,"Ġteacher":7319,"åĢĻ":7320,"fr":7321,"ude":7322,"Ġtechnical":7323,"ĠSungai":7324,"æ»":7325,"Ġ(%)":7326,"apaian":7327,"EKNOLOGI":7328,"ikian":7329,"Ġcatalyst":7330,"Ġversion":7331,"kerja":7332,"Ã¡":7333,"ĠØªØ±Ø³Ø¨ÙĪØª":7334,"çľŁçļĦ":7335,"gt":7336,"Ġsebab":7337,"Ġpow":7338,"With":7339,"ÙĬÙĨØ¯":7340,"Ġcamp":7341,"ÙĬØ¨":7342,"çīĩ":7343,"Ġexhib":7344,"business":7345,"Ø¢":7346,"ÙĪÙħÚ¤":7347,"alt":7348,"Ġmasuk":7349,"Ġsudah":7350,"Ġsolutions":7351,"Ġpurchase":7352,"ella":7353,"ĠGen":7354,"ĠKing":7355,"ĠDISCUSSION":7356,"ä¸İ":7357,"ä¾¿":7358,"ĠÚ¤ÙĨØ¯":7359,"Ġterp":7360,"Ġtaking":7361,"ĠGreen":7362,"åĮħ":7363,"Ġparty":7364,"ĠAppro":7365,"Ġcomposite":7366,"ĠÚ¤Ú½":7367,"PU":7368,"GAN":7369,"Ġdiberikan":7370,"Ġresource":7371,"ĠNamun":7372,"Ġibu":7373,"Ġion":7374,"Ġdate":7375,"jah":7376,"æ°ĳ":7377,"Ġjam":7378,"ðĿĲ¶":7379,"ATA":7380,"vii":7381,"ows":7382,"Ġclassification":7383,"Ġ69":7384,"Ġrelation":7385,"imanapun":7386,"Ġopportunities":7387,"Ġfocused":7388,"THE":7389,"ĠPat":7390,"BL":7391,"bb":7392,"Sek":7393,"Ġtas":7394,"ĠMr":7395,"hold":7396,"erty":7397,"ĠJun":7398,"fe":7399,"åĪ«":7400,"Ġbad":7401,"Ø¯Ùħ":7402,"Ġcreated":7403,"indings":7404,"è·Ł":7405,"Ġincor":7406,"ĠEst":7407,"Password":7408,"ĠANALYSIS":7409,"Ġvoltage":7410,"ĠÙĥÙĪÙħÙĪÙĨ":7411,"ĠØ³ÙĦØ§":7412,"mselves":7413,"Ġjadi":7414,"Ġheart":7415,"Ø§Ø¡ÙĬÙĨ":7416,"empuan":7417,"ĠBUSINESS":7418,"udukan":7419,"Ġujian":7420,"ĠØ§Ø¬":7421,"ĠFe":7422,"andingan":7423,"Ġprofile":7424,"Ġcomput":7425,"eget":7426,"ĠRelationship":7427,"placement":7428,"Ġtempoh":7429,"oxide":7430,"å®ĥ":7431,"æıĲ":7432,"Dis":7433,"FA":7434,"umar":7435,"egradation":7436,"Sc":7437,"Ġcash":7438,"Ġcauses":7439,"wik":7440,"version":7441,"åľº":7442,"eper":7443,"Muhammad":7444,"posit":7445,"Ġliquid":7446,"ÙĪØ³ÙĬ":7447,"ivities":7448,"Ġlangsung":7449,"Ġpage":7450,"ki":7451,"Ġpor":7452,"æ¼":7453,"éĻĦ":7454,"Ġmonitoring":7455,"Ġcompetitive":7456,"ĠFat":7457,"ĠMethods":7458,")-":7459,"Username":7460,"Ġ85":7461,"ĠÚ¤ÙĬ":7462,"linear":7463,"past":7464,"éĹ®é¢ĺ":7465,"ĠChen":7466,"Ġstructures":7467,"awasan":7468,"ÙĥØ³":7469,"down":7470,"ĠAv":7471,"ÙħÙĪØ±":7472,"jas":7473,"Ġasas":7474,"Ġforms":7475,"Bi":7476,"journal":7477,"umbers":7478,"ething":7479,"Anal":7480,"ĠImpact":7481,"ĠØªØ±Ø§":7482,"Ġ120":7483,"ĠUnit":7484,"aju":7485,"ĠBud":7486,"ĠAssociation":7487,"uta":7488,"1994":7489,"ĠMalaya":7490,"Col":7491,"aker":7492,"ulus":7493,"verse":7494,"ĠDate":7495,"Ġthinking":7496,"Ġmendapati":7497,"ancangan":7498,"UMP":7499,"BC":7500,"Ġcool":7501,"Ġimplemented":7502,"Ġ300":7503,"roph":7504,"Ġvariety":7505,"Ġstrategic":7506,"Ġstarted":7507,"Ġhalal":7508,"ĠShar":7509,"ikiran":7510,"Ġmor":7511,"itik":7512,"Ġpayment":7513,"endak":7514,"Ġband":7515,"Ġfilter":7516,"owards":7517,"åı¸":7518,"Ġsales":7519,"Ġadapt":7520,"ðĿĳĳ":7521,"åıĹ":7522,"ĠAre":7523,"amu":7524,"sim":7525,"support":7526,"ĠAlthough":7527,"Ġintr":7528,"Ø¯ÙĬØ±ÙĬ":7529,"Ġdivided":7530,"èĲ":7531,"erson":7532,"TIT":7533,"çĻ½":7534,"reflist":7535,"Name":7536,"apping":7537,"ÄŁ":7538,"View":7539,"ients":7540,"Ġjelas":7541,"pustakaan":7542,"iment":7543,"ĠØ³ÚĨØ§Ø±Ø§":7544,"PK":7545,"ifikan":7546,"ĠUK":7547,"Ġremoval":7548,"Ġkeputusan":7549,"HO":7550,"lisher":7551,"ç¥ŀ":7552,"been":7553,"Ġclinical":7554,"asting":7555,"ĠSince":7556,"åı°":7557,"ining":7558,"ĠPas":7559,"ĠMa":7560,"å®Į":7561,"cel":7562,"endix":7563,"FC":7564,"Ġra":7565,"engaruhi":7566,"ancement":7567,"Ġ68":7568,"rah":7569,"ubber":7570,"Ġsolv":7571,"ÚłÙĩ":7572,"ji":7573,"ungg":7574,"oe":7575,"Ġsetting":7576,"ĠØ§Ø±":7577,"ç±":7578,"anggap":7579,"jawab":7580,"ĠAD":7581,"Sar":7582,"ðĿĳ¡ðĿĳ¡":7583,"abetes":7584,"Ġharm":7585,"OURNAL":7586,"Ġgoals":7587,"ĠØ§ÙĦØ³":7588,"Ġgives":7589,"akaf":7590,"fficacy":7591,"Ġmotor":7592,"elocity":7593,"Ġsurv":7594,"ĠØ¨ÙĪÙĦÙĬÙĩ":7595,"ĠConcept":7596,"illi":7597,"ĠWhile":7598,"Ġmethodology":7599,"fect":7600,"libat":7601,"FI":7602,"Ġtind":7603,"Ġestablish":7604,"Ġdiperoleh":7605,"awai":7606,"ĠConf":7607,"Ġrain":7608,"Ġmelihat":7609,"kem":7610,"ĠUse":7611,"ĠStatistics":7612,"meny":7613,"Ġlip":7614,"...........":7615,"Ġdecl":7616,"olve":7617,"yan":7618,"ben":7619,"ðĿĳĨ":7620,"power":7621,"centage":7622,"ANGAN":7623,"çļĦäºº":7624,"ygen":7625,"å®ī":7626,"ycl":7627,"airs":7628,"AI":7629,"ulai":7630,"Ġnie":7631,"EAN":7632,"riculture":7633,"Ġleh":7634,"Ġkeperluan":7635,"ĠPerk":7636,"ĠOx":7637,"Ġclean":7638,"Ġayat":7639,"ĠProceedings":7640,"ĠInnovation":7641,"ĠLevel":7642,"etary":7643,"Ġ73":7644,"ullah":7645,"epun":7646,"Ġfiber":7647,"chang":7648,"ayat":7649,"Ġmew":7650,"Ġcryst":7651,"è°¢è°¢":7652,"iller":7653,"Ġmind":7654,"ĠPublishing":7655,"ekitaran":7656,"Pre":7657,"Ġbenefit":7658,"amental":7659,"fall":7660,"okong":7661,"Ġitself":7662,"çĪ±":7663,"Ġstay":7664,"Ġkuasa":7665,"Ġfacilit":7666,"ĠAmerika":7667,"Ġbreak":7668,"Ġdistributed":7669,"Ġlocated":7670,"ĠEffects":7671,"Ġmanakala":7672,"å¿«":7673,"Ġrequirement":7674,"Ġevents":7675,"ĠLink":7676,"amil":7677,"ãģ":7678,"Ġenj":7679,"ÙĪÙħÙĬ":7680,"ĠEar":7681,"pract":7682,"ÙĦÙĤ":7683,"Ġexcept":7684,"Ø±Ø¨ÙĬ":7685,"uge":7686,"ĠÙı":7687,"Ġwor":7688,"Ġpros":7689,"Ġrules":7690,"IGN":7691,"imen":7692,"Ø¨Ø±Ø§Ú¤":7693,"æĩ":7694,"ÙĪØ±Ø§":7695,"heless":7696,"RI":7697,"ĠÙħØ§":7698,"eph":7699,"Ġ{":7700,"angkah":7701,"ĠBal":7702,"ĠSurvey":7703,"ĉĉĉĉ":7704,"ison":7705,"hl":7706,"ĠØªÙĨØª":7707,"Ġsat":7708,"ethanol":7709,"ĠMic":7710,"graduate":7711,"ilk":7712,"ooth":7713,"ä»£":7714,"kanan":7715,"çĤº":7716,"ring":7717,"atas":7718,"ĠKin":7719,"Ġfully":7720,"Ġrev":7721,"ĠREC":7722,"afs":7723,"Kajian":7724,"Ġdgn":7725,"ðĿĳł":7726,"ĠDefin":7727,"Ġmula":7728,"Ġpengkaji":7729,"aporan":7730,"omunikasi":7731,"Ġnovel":7732,"hana":7733,"Ġprogress":7734,"Ġcolour":7735,"azah":7736,"è¿Ļæł·":7737,"ĠIndustry":7738,"ĠAnn":7739,"ĠBatch":7740,"Ġscholar":7741,"Ø³Ø£ÙĨ":7742,"Ġgenerally":7743,"åıĬ":7744,"ĠHigher":7745,"Ġwast":7746,"ĠTE":7747,"Ġresponses":7748,"æľĭ":7749,"Ġadjust":7750,"Ġinvolves":7751,"Ġberkenaan":7752,"Â·Â·Â·Â·":7753,"Ġattack":7754,"Mar":7755,"Ġperkhidmatan":7756,"ĠSpecial":7757,"OMM":7758,"CM":7759,"field":7760,"ifest":7761,"ahaman":7762,"ĠFramework":7763,"éĥ½æĺ¯":7764,"td":7765,"mend":7766,"ĠIntegr":7767,"dep":7768,"Ġcrucial":7769,"Ġmodern":7770,"ï¿½ï¿½ï¿½ï¿½ï¿½":7771,"QU":7772,"Ġindustries":7773,"Ġcarry":7774,"ĠĠĠĠĠĠĠĠĠĠĠ":7775,"inant":7776,"ĠÚ¤ÙĬÙĨ":7777,"Ġ71":7778,"dip":7779,"ÚĨÙĩ":7780,"ĠOver":7781,"ĠØªÙĨ":7782,"Ġbio":7783,"arily":7784,"Ġhost":7785,"Ġdynamic":7786,"Ø±ÙĥÙĨ":7787,"ĠPinang":7788,"ĠAnalisis":7789,"Ġteknologi":7790,"Ġcommunic":7791,"Ġphone":7792,"ĠØ¨Ø¨Ø±Ø§Ú¤":7793,"Ġsites":7794,"ĠMAT":7795,"engg":7796,"inct":7797,"Ġprop":7798,"ket":7799,"Ġsex":7800,"Ġsubstr":7801,"ĠDa":7802,"è²":7803,"Ġped":7804,"Ġsense":7805,"ĠLead":7806,"Ġslow":7807,"ĠPur":7808,"Ġtravel":7809,"ĠPH":7810,"ĠSri":7811,"ĠISSN":7812,"Ġtujuan":7813,"Ġdevices":7814,"Ġreligious":7815,"bol":7816,"Ġwujud":7817,"ĠProced":7818,"Ġharga":7819,"ĠSEM":7820,"Ġmencapai":7821,"BRE":7822,"ĠApplication":7823,"Ġoccur":7824,"opulation":7825,"there":7826,"Ġspread":7827,"Ġpublished":7828,"Ġefforts":7829,"sbref":7830,"MI":7831,"prot":7832,"head":7833,"Ġfeedback":7834,"adalah":7835,"Ġoperating":7836,"ĠMA":7837,"ografi":7838,"ĠTim":7839,"Ġrice":7840,"ĠInc":7841,"awanan":7842,"Ġwebsite":7843,"Ġclassroom":7844,"Doc":7845,"lebih":7846,"Ahmad":7847,"Ġsolar":7848,"market":7849,"ĠNurul":7850,"Ġadditional":7851,"Ġsaw":7852,"wide":7853,"Ġpreparation":7854,"ĠØ³ÙĦÚ¤Ø³":7855,"è¿ĳ":7856,"ovid":7857,"Ġantib":7858,"asanya":7859,"ĠPort":7860,"éŁ":7861,"Ġ2023":7862,"pur":7863,"bre":7864,"Ġcontoh":7865,"Ġmanagers":7866,"Ġadoption":7867,"Ġvs":7868,"ĠPerancis":7869,"'m":7870,"ĠDewan":7871,"Ġindustri":7872,"èĩ³":7873,"KE":7874,"Ġdivisions":7875,"rief":7876,"Ġnor":7877,"atuan":7878,"Ġreserv":7879,"Ġlonger":7880,"Help":7881,"Ġvalid":7882,"ĠSi":7883,"ĠScope":7884,"iding":7885,"ĠEast":7886,"rg":7887,"Therefore":7888,"coming":7889,"Ġ77":7890,"Ġdirection":7891,"prise":7892,"iranya":7893,"Ġumum":7894,"Bl":7895,"hematical":7896,"ĠMETHODOLOGY":7897,"ĠAlso":7898,"etahui":7899,"character":7900,"Ġciri":7901,"tt":7902,"ðĿĳģ":7903,"Ġjer":7904,"Ġanalyzed":7905,"bank":7906,"Ġoutcomes":7907,"astikan":7908,"Ġlap":7909,"ĠSw":7910,"æľĭåıĭ":7911,"ĠÙĥÙħÙĪØ¯":7912,"alami":7913,"III":7914,"ĠConstruction":7915,"ĠSCO":7916,"author":7917,"Ġsejarah":7918,"uced":7919,"Ġdevice":7920,"Ġok":7921,"Ġwon":7922,"åı£":7923,"apak":7924,"Ġmental":7925,"ĠPlanning":7926,"ĠÙħØ±":7927,"than":7928,"ungk":7929,"ĠÙĥØ±Ø§ÙĨ":7930,"ĠHis":7931,"oment":7932,"ä¸ĸ":7933,"Ġhypothesis":7934,".............":7935,"ĠOil":7936,"Trans":7937,"ĠBandar":7938,"è·¯":7939,"Ġselama":7940,"ĠKampung":7941,"ĠØ§Ø§ÙĦ":7942,"akang":7943,"Facebook":7944,"Ġheavy":7945,"ÙĪØ±ÙĪØª":7946,"Ġinj":7947,"Ġbelief":7948,"Ġmixed":7949,"èµ°":7950,"ĠIC":7951,"Ġparticles":7952,"Ġsebenar":7953,"ÙĪÙĨÙĬØ³ÙĬØ§":7954,"Ġwear":7955,"ailability":7956,"Ġpaid":7957,"Ġagent":7958,"çħ§":7959,"Ġbroad":7960,"arative":7961,"æ¡":7962,"Ġmcm":7963,"hell":7964,"ä¸ľ":7965,"zone":7966,"ĠTER":7967,"ilaian":7968,"Ġrank":7969,"ĠØ§ÙĦØ´":7970,"ĠTah":7971,"ĠPengurusan":7972,"ĠPage":7973,"Ġmanager":7974,"ĠØ¯Ú¤":7975,"position":7976,"older":7977,"Ġta":7978,"kajian":7979,"ĠÚ¤Ø±Ø§ÙĨÚĨ":7980,"Ġreports":7981,"ĠHist":7982,"Ġengineering":7983,"roscopy":7984,"%).":7985,"æĻĤ":7986,"ĠQuestion":7987,"mot":7988,"nc":7989,"Ġprojek":7990,"ä¸įä¼ļ":7991,"Ġfer":7992,"ïĢ½":7993,"ifying":7994,"ibration":7995,"..............":7996,"ministrative":7997,"repreneurial":7998,"ĠMOH":7999,"ÙħÙĬÙĦÙĬ":8000,"Ġsignificance":8001,"Ġhapp":8002,"Ġexpression":8003,"elih":8004,"Ġmenerima":8005,"Ġagree":8006,"they":8007,"ØŃØ¯":8008,"Ġhalf":8009,"Î²":8010,"Ġstop":8011,"Ġresponsibility":8012,"ĠPlant":8013,"ĠDES":8014,"self":8015,"Ġreasons":8016,"è§ģ":8017,"Ġinstitution":8018,"ÙħØ§Ø³ÙĪÙĤ":8019,"Ġcontinuous":8020,"åł":8021,"rat":8022,"Appendix":8023,"ĠJabatan":8024,"åħĪ":8025,"Ġlar":8026,"AMP":8027,"Ġras":8028,"emporary":8029,"Ġestimated":8030,"Ġpengguna":8031,"idi":8032,"&#":8033,"Ġdocument":8034,"Ġonce":8035,"Ġlittle":8036,"ĠIndex":8037,"Ġpengh":8038,"Islamic":8039,"ildren":8040,"Ġmendapatkan":8041,"imization":8042,"Ġbacteria":8043,"centration":8044,"Ġstorage":8045,"oice":8046,"ØªÙĬÙĤ":8047,"ÙĨØ¯ÙĪÙĨÙĬØ³ÙĬØ§":8048,"oil":8049,"ĠÙĥØ¨Úł":8050,"aser":8051,"Ġterj":8052,"Ġadopted":8053,"ĠDengan":8054,"ĠSun":8055,"Ġdomain":8056,"Ġmixture":8057,"behavi":8058,"ĠØ·":8059,"isasi":8060,"ĠFl":8061,"cos":8062,"ĠUM":8063,"Ġrelative":8064,"Ġmata":8065,"sen":8066,"Com":8067,"Ġsud":8068,"inggal":8069,"aluable":8070,"aian":8071,"Sn":8072,"Ġempat":8073,"hh":8074,"Ġsupaya":8075,"Ġchart":8076,"Ġkom":8077,"antung":8078,"Ġinnov":8079,"conduct":8080,"Ġur":8081,"okongan":8082,"LI":8083,"Ġmorph":8084,"Ġjud":8085,"850":8086,"ĠSyarikat":8087,"Ġdiagram":8088,"Ú¬ÙĪ":8089,"ĠJalan":8090,"Ġther":8091,"baik":8092,"Ġattitudes":8093,"Ġprograms":8094,"ĠRaja":8095,"Ġjoint":8096,"Ġwhereas":8097,"ums":8098,"Ġsini":8099,"ĠKB":8100,"hr":8101,"ĠMenurut":8102,"400":8103,"Ġdisebabkan":8104,"Ġoptimum":8105,"Ġpolicies":8106,"ĠĠĠĠĠĠĠĠĠĠ":8107,"Ġwide":8108,"iana":8109,"Ġlisted":8110,"earson":8111,"ĠProt":8112,"Ġinstruct":8113,"Ġinstead":8114,"Ġprices":8115,"ĠMANAGEMENT":8116,"Ġbeli":8117,"åı¯èĥ½":8118,"flow":8119,"pectives":8120,"ĠØ¨Ø±Ùħ":8121,"First":8122,"Ġextent":8123,"Ġdisplay":8124,"idential":8125,"...............":8126,"ashim":8127,"ĠCre":8128,"Ġ76":8129,"Ġamalan":8130,"æĲ":8131,"ĠØ¥ÙĨØ¯ÙĪÙĨÙĬØ³ÙĬØ§":8132,"quality":8133,"Ġlaut":8134,"iu":8135,"æĶ¶":8136,"ARI":8137,"ĠNan":8138,"Ġingin":8139,"ened":8140,"Ġstyle":8141,"Ġmenjadikan":8142,"åĶ":8143,"Ġprotect":8144,"Ġexposure":8145,"Ġ03":8146,"Ġbalance":8147,"Ġfabric":8148,"FS":8149,"Ġken":8150,"nes":8151,"Data":8152,"hydro":8153,"ĠEducational":8154,"cement":8155,"LC":8156,"design":8157,"urrency":8158,"Ġplot":8159,"ĠCommit":8160,"Rel":8161,"Ġpekerja":8162,"Ø§ÙĩÙĨ":8163,"Ġperbezaan":8164,"ancer":8165,"ĠTEKNOLOGI":8166,"erd":8167,"åºĶè¯¥":8168,"ĠSout":8169,"Ġbelieve":8170,"report":8171,"ĠHospital":8172,"ritical":8173,"oist":8174,"åĪ©":8175,"æĶ¿":8176,"AJIAN":8177,"Ġdeal":8178,"ĠRed":8179,"ilang":8180,"äºĮ":8181,"ponse":8182,"By":8183,"Ġforest":8184,"ðĿĳĹ":8185,"Ġ79":8186,"Ġpatterns":8187,"poration":8188,"Ġgetting":8189,"Ġstatistical":8190,"valence":8191,"Ġkont":8192,"çĽ®":8193,"Ġanswer":8194,"Ġpengajian":8195,"among":8196,"æ¯Ķè¾ĥ":8197,"tu":8198,"çµ":8199,"ukit":8200,"memp":8201,"ometer":8202,"Ġ02":8203,"tained":8204,"ĠHus":8205,"Ġer":8206,"GB":8207,"æĺŁ":8208,"yyah":8209,"Ġadsorption":8210,"Ġmovement":8211,"Ġpeak":8212,"åĵª":8213,"Ġcompare":8214,"BREVI":8215,"Ġ!":8216,"ØªØ§Ú¤ÙĬ":8217,"plikasi":8218,"ĠAud":8219,"ĠAPP":8220,"menj":8221,"ensile":8222,"daripada":8223,"Ø¹Ø¯":8224,"Ġkandungan":8225,"Ġthemselves":8226,"Ġentire":8227,"cin":8228,"uty":8229,"integr":8230,"Ġhybrid":8231,"enrich":8232,"Ġmove":8233,"ÙĦÙĪ":8234,"Educ":8235,"Ġkan":8236,"PH":8237,"ser":8238,"ÙĩÙĪ":8239,"ayan":8240,"ðĿĲ´":8241,"Ġdecrease":8242,"Ġgap":8243,"æ´»":8244,"Ġapply":8245,"éĶĻ":8246,"Ġik":8247,"ĠÚ¤Ø±Ø§ÙĨÚĨÙĬØ³":8248,"otential":8249,"mode":8250,"ĠZhang":8251,"istered":8252,"rastructure":8253,"AZ":8254,"ĠÙĥØ¨ÚłØ³Ø£ÙĨ":8255,"heast":8256,"Ġprotection":8257,"ĠUp":8258,"Ġstak":8259,"èį":8260,"again":8261,"å°Ĩ":8262,"hari":8263,"Ġcoup":8264,"ĠAmong":8265,"éĿŀ":8266,"omy":8267,"Ġqualitative":8268,"Ġled":8269,"Ġjoin":8270,"Ġfeature":8271,"need":8272,"âĢĻ.":8273,"ãĢĮ":8274,"ertas":8275,"cientific":8276,"Ġjalan":8277,"Ġkasih":8278,"ULTY":8279,"Ġlive":8280,"Û¡":8281,"Ġoutcome":8282,"Ġterlibat":8283,"ĠSample":8284,"1993":8285,"1990":8286,"Ġrakyat":8287,"Ġcontain":8288,"ĠÃĹ":8289,"Ġcompr":8290,"APPENDIX":8291,"Hz":8292,"ãĢį":8293,"culation":8294,"Ġexamined":8295,"ä¸ļ":8296,"çĸ":8297,"ĠMinister":8298,"ffer":8299,"icon":8300,"çī¹":8301,"Comm":8302,"anggungjawab":8303,"Ø±Ø³ÙĬ":8304,"ugerah":8305,"Ġparticipation":8306,"iring":8307,"ä½Ĩæĺ¯":8308,"perience":8309,"Ø³ØªÙĬ":8310,"å©":8311,"Ġsomething":8312,"Ġnas":8313,"Ġhelps":8314,"Hons":8315,"MD":8316,"itab":8317,"Ġassets":8318,"Ġawam":8319,"itage":8320,"Ġ78":8321,"Ġtechnologies":8322,"ĠØªØ±Ø¨":8323,"Ġkami":8324,"Ġperc":8325,"oids":8326,"Ġexperiences":8327,"ĠIng":8328,"uki":8329,"Ps":8330,"ĠJepun":8331,"ĠÙħÙĨÚĨ":8332,"incangkan":8333,"Sp":8334,"wood":8335,"oparticles":8336,"Ġangle":8337,"SL":8338,"ĠMeanwhile":8339,"Ġkos":8340,"ĠØ¨Ø³Ø±":8341,"impinan":8342,"everal":8343,"Ġnm":8344,"acking":8345,"ðĿĳļ":8346,"ĠHaji":8347,"Ġpromote":8348,"Ġseni":8349,"Ġcontribution":8350,"Ġloan":8351,"ĠPENG":8352,"Ġelectric":8353,"Ġïĥ¼":8354,"ÂłĠ":8355,"Ġcategories":8356,"rin":8357,"åĨĮ":8358,"Ġund":8359,"ewater":8360,"tidak":8361,"ĠAtt":8362,"Ġrad":8363,"Ġfixed":8364,"Ġchoose":8365,"zo":8366,"å¢":8367,"Ġformal":8368,"Dec":8369,"ĠPengajian":8370,"ursus":8371,"ze":8372,"SID":8373,"xiety":8374,"jection":8375,"Ġfriend":8376,"ÙĬØªØ±":8377,"Ġreducing":8378,"ĠBER":8379,"Ġrasa":8380,"merce":8381,"iat":8382,"600":8383,"ecutive":8384,"Ġemail":8385,"mana":8386,"Ġequipment":8387,"ĠMor":8388,"usaha":8389,"gel":8390,"Ġthread":8391,"ICES":8392,"Ġmengandungi":8393,"ademy":8394,"Ġmanage":8395,"Ġrot":8396,"Act":8397,"heses":8398,"Ġwr":8399,"ukur":8400,"ireless":8401,"nik":8402,"Ġexplain":8403,"Ġallows":8404,"ICATION":8405,"ĠØ¨ÙĩØ§Ø³":8406,"Ġfall":8407,"ÙĦØ§Ùħ":8408,"OK":8409,"ĠJurnal":8410,"ĠØ¬ÙĨ":8411,"ÛĮ":8412,"Ġprinciples":8413,"Ġkualiti":8414,"ĠĠĠĠĠĠĠĠĠĠĠĠ":8415,"ĠBagi":8416,"ificial":8417,"uli":8418,"Ġbadan":8419,"Chapter":8420,"Ġvalidity":8421,"Ġpositif":8422,"ĠMechanical":8423,"adbiran":8424,"æ¬¢":8425,"Ġbiasa":8426,"non":8427,"ukum":8428,"ĠMuda":8429,"iplin":8430,"MIN":8431,"Ġ08":8432,"ÙĪØ±ÙĪ":8433,"itrogen":8434,"antara":8435,"ĠMent":8436,"Ġ74":8437,"111":8438,"Ġroot":8439,"è©":8440,"Î±":8441,"180":8442,"iko":8443,"Ġâľ":8444,"Ġhousing":8445,"Ġdetect":8446,"Ġbuku":8447,"inciple":8448,"Ġkin":8449,"ĠPras":8450,"eholders":8451,"éĩı":8452,"ĠØªØ±Ø¯Ø§Ú¤Øª":8453,"åĨħ":8454,"Ġcommonly":8455,"oyalty":8456,"Ġliao":8457,"ometric":8458,"adakan":8459,"ario":8460,"ranch":8461,"ĠÂłĠÂłĠÂłĠÂł":8462,"Sm":8463,"ication":8464,"ĠZn":8465,"Ġdetails":8466,"ĠLet":8467,"å¹³":8468,"ãĢĭ":8469,"Ġindirect":8470,"Ġasked":8471,"wards":8472,"ĠABBREVI":8473,"Ġlowest":8474,"ĠCawangan":8475,"Ġ89":8476,"ä»Ĭ":8477,"inking":8478,"uruter":8479,"->":8480,"ĠUSM":8481,"Ġbit":8482,"ĠPlan":8483,"TC":8484,"Ġleaves":8485,"Ġ04":8486,"ainan":8487,"Ġhati":8488,"Ġberh":8489,"Ġcharg":8490,"Ġol":8491,"ĠNaz":8492,"ĠÚ¤ÙĪÙĦØ§":8493,"ejarah":8494,"Ġleads":8495,"ĠØ§ÙĬØ§ÙĬØª":8496,"ä¸įè¦ģ":8497,"è±":8498,"Ġpeg":8499,"Ġcount":8500,"ished":8501,"known":8502,"pada":8503,"plant":8504,"ĠOk":8505,"ogram":8506,"::":8507,"riteria":8508,"unch":8509,"Ġaccepted":8510,"Ġkap":8511,"Ø§Úł":8512,"åįģ":8513,"perk":8514,"But":8515,"Ġsupervisor":8516,"ä½Ľ":8517,"Ġsteps":8518,"Ø¬Ø§ÙĬ":8519,"ĠMemo":8520,"ĠCell":8521,"ĠSu":8522,"Ġ81":8523,"å·²ç»ı":8524,"ajib":8525,"ĠIr":8526,"jaan":8527,"Ġsynthe":8528,"ĠDet":8529,"Ġflu":8530,"ederal":8531,"imedia":8532,"Ġbegitu":8533,"Ġfarm":8534,"Ø¨ÙĨØ¯":8535,"Ġassociation":8536,"ebuah":8537,"ÙĩÙĬØ±":8538,"Memo":8539,"how":8540,"Ġprocedures":8541,"roid":8542,"Ġfresh":8543,"band":8544,"aqf":8545,"123":8546,"Ġasal":8547,"æŃ»":8548,"Ġelectronic":8549,"ĠSil":8550,"BR":8551,"ĠRem":8552,"government":8553,"åįİ":8554,"paid":8555,"éĢī":8556,"Ġzaman":8557,"tre":8558,"gorithms":8559,"BAB":8560,"max":8561,"only":8562,"enew":8563,"Ġwritten":8564,"Ġmaintenance":8565,"Ġperatus":8566,"Ġ83":8567,"Ġunits":8568,"Ġdatang":8569,"ocr":8570,"Ġcentral":8571,"ĠRazak":8572,"plies":8573,"antik":8574,"Ġrelatively":8575,"izens":8576,"Ġdok":8577,"Ġcode":8578,"health":8579,"bers":8580,"eck":8581,"ĠStudent":8582,"ĠÎ±":8583,"UND":8584,"ximately":8585,"etric":8586,"Ġfruit":8587,"ait":8588,"ĠLiterature":8589,"expl":8590,"èŃ":8591,"zyme":8592,"Cre":8593,"amination":8594,"ektr":8595,"Ġinside":8596,"ĠØ¯ÙĨÙĬØ§":8597,"enses":8598,"masing":8599,"gmail":8600,"keb":8601,"ĨĴ":8602,"ĠCR":8603,"amer":8604,"def":8605,"æľĽ":8606,"Ġkarya":8607,"ĠTwo":8608,"antuan":8609,"imah":8610,"rame":8611,"che":8612,"Ø§ÙĪØ§":8613,"Ġdamage":8614,"ĠKorea":8615,"Not":8616,"nowledg":8617,"ĠØªØªØ§Ú¤ÙĬ":8618,"osoph":8619,"Ġsemakin":8620,"bach":8621,"æ°Ķ":8622,"Â®":8623,"ighb":8624,"ĠTV":8625,"Ġsifat":8626,"Ġdidapati":8627,"Ġmenarik":8628,"ĠJOURNAL":8629,"References":8630,"Ġcity":8631,"Be":8632,"ç¶":8633,"Ġleading":8634,"Ġpractical":8635,"Ġappreciation":8636,"Car":8637,"inv":8638,"Ú¬ÙĨ":8639,"important":8640,"urt":8641,"ĠServices":8642,"Ġcredit":8643,"ukaan":8644,"shop":8645,"Ġinstance":8646,"STEM":8647,"ä½¿":8648,"Ġfav":8649,"making":8650,"à¸":8651,"asis":8652,"ĠMust":8653,"ellect":8654,"aduates":8655,"ped":8656,"Ġinstrument":8657,"ĠDI":8658,"ulkan":8659,"Ġscores":8660,"Ġkira":8661,"intah":8662,"Ġpip":8663,"Ġmodified":8664,"More":8665,"ĠÙĥØª":8666,"Ġrepresents":8667,"Ġdibuat":8668,"Ġ................................................................................................................":8669,"èı":8670,"ðĿĳĵ":8671,"jpg":8672,"Ġrural":8673,"æµ·":8674,"ĠCurrent":8675,"ä½ı":8676,"weight":8677,"ĠType":8678,"Ø²ÙĬ":8679,"medi":8680,"Ġbermula":8681,"Ġphenomen":8682,"eluarkan":8683,"ç³»":8684,"ĠMu":8685,"Ġseluruh":8686,"Ġheld":8687,"Ġgene":8688,"ĠEvaluation":8689,"jasama":8690,"comb":8691,"ogene":8692,"Ġresponsible":8693,"Ġinfluenced":8694,"Ġorigin":8695,"ĠØ©":8696,"antai":8697,"AA":8698,"UAN":8699,"Ġiii":8700,"Ġidentity":8701,"åĽŀå¤į":8702,"Ġparticle":8703,"ĠKed":8704,"ĠØ±ÙĪÙħ":8705,"ato":8706,"aburan":8707,"ĠPharm":8708,"Ġclearly":8709,"Ġchar":8710,"Ġchannel":8711,"Ġtheoretical":8712,"ĠScholar":8713,"ns":8714,"Ġsett":8715,"Ġ97":8716,"ebih":8717,"ØªØ¹":8718,"ĠList":8719,"ĠDetermin":8720,"Ġimproving":8721,"Ġearlier":8722,"åķ¦":8723,"Ġnamun":8724,"Ġtreat":8725,"ĠHot":8726,"PENG":8727,"Ġdiameter":8728,"zah":8729,"Ġcontains":8730,"RD":8731,"Ġcharge":8732,"board":8733,"itivity":8734,"Ġextracts":8735,"idin":8736,"apps":8737,"ĠFund":8738,"achers":8739,"Ob":8740,"iable":8741,"Ġfigure":8742,"temperature":8743,"Ġstatistics":8744,"Ġexerc":8745,"structure":8746,"Rev":8747,"1991":8748,"Ġsejak":8749,"ONG":8750,"ĠPal":8751,"illah":8752,"results":8753,"Ġtub":8754,"ĠÙĩÙĦÙĦØ§":8755,"wal":8756,"mann":8757,"ĠCL":8758,"Reg":8759,"ĠSustainable":8760,"Ġtapi":8761,"COUN":8762,"Ġdefinition":8763,"Ġdeposited":8764,"Ġunique":8765,"ĠTeaching":8766,"åĮĸ":8767,"ĠRisk":8768,"Ġtertentu":8769,"inaan":8770,"Ġbus":8771,"overed":8772,"ĠØ¯Ùĥ":8773,"ÙĦØ©":8774,"pelajar":8775,"Ġtiada":8776,"Kep":8777,"Ø§ÙĨÙĨ":8778,"ĠOrganizational":8779,"SEN":8780,"1992":8781,"Ġcore":8782,"elt":8783,"ĠHasil":8784,"Ġtasks":8785,"ĠEmploy":8786,"ĠÙĥÙĬ":8787,"iksaan":8788,"follow":8789,"åıªæĺ¯":8790,"çľĭåĪ°":8791,"countr":8792,"Ġvelocity":8793,"ĠTherm":8794,"Ġdimension":8795,"Ġkaum":8796,"avas":8797,"ĠIdent":8798,"ĠFour":8799,"ĠØ¨Ø§Ø±Øª":8800,"Ġcab":8801,"ĠÂ©":8802,"usah":8803,"may":8804,"Ġpasukan":8805,"oke":8806,"treatment":8807,"Ġoccup":8808,"ãĢĬ":8809,"Ġderived":8810,"æĮģ":8811,"Ġä¸Ĭ":8812,"BI":8813,"æ¸ħ":8814,"direct":8815,"Ġtrue":8816,"geris":8817,"éľĢè¦ģ":8818,"Ġlarger":8819,"overty":8820,"Ġproductivity":8821,"ĠBY":8822,"Ġreinfor":8823,"urkan":8824,"ĠÙĥØ¨":8825,"Ø§Ùģ":8826,"Ġbillion":8827,"Ġlove":8828,"irmed":8829,"ãĤ":8830,"ĠHy":8831,"ðĿĳĺ":8832,"ĠChemistry":8833,"Ġinterpret":8834,"Ġanim":8835,"Ġloading":8836,"Ġformed":8837,"Ġconcluded":8838,"Kh":8839,"éļ¾":8840,"eka":8841,"ĠPusat":8842,"Ġinstall":8843,"æĹ¶åĢĻ":8844,"VER":8845,"Ġsignifikan":8846,"Ġoxygen":8847,"ementerian":8848,"Ġkanak":8849,"ĠAssessment":8850,"Ġresulting":8851,"Ġhence":8852,"Menurut":8853,"ciri":8854,"bert":8855,"Ġclimate":8856,"Ġgold":8857,"èĬ±":8858,"ĠClin":8859,"Ġaj":8860,"personal":8861,"ĠCollege":8862,"Ġsmart":8863,"iploma":8864,"ĠØ³Ø§Ùħ":8865,"FORM":8866,"ĠQuran":8867,"Ġpendekatan":8868,"Ġpreviously":8869,"Ġbertujuan":8870,"ei":8871,"å¸Ĥ":8872,"ĠCorporate":8873,"ĠOff":8874,"Pers":8875,"inary":8876,"print":8877,"ĠCity":8878,"okok":8879,"Ġlate":8880,"Ġversus":8881,"Ġstim":8882,"ÙĬÚłÙĨ":8883,"viii":8884,"ĠIbn":8885,"Ġintegration":8886,"content":8887,"Ġseterusnya":8888,"Ġuniversities":8889,"Ġberd":8890,"ĠMemb":8891,"Set":8892,"ĠFR":8893,"Ġtox":8894,"Ġ87":8895,"BM":8896,"105":8897,"Ġfulfill":8898,"Ġadvert":8899,"Ġcrisis":8900,"Ã§":8901,"ĠCivil":8902,"ĠUMS":8903,"Ġtempatan":8904,"UP":8905,"ĠLow":8906,"!!!":8907,"ĠÙĥÙħÙĪØ¯ÙĬÙĨ":8908,"å¤§å®¶":8909,"Ġsampai":8910,"cited":8911,"olecular":8912,"Use":8913,"AGT":8914,"ongs":8915,"production":8916,"Ġnetworks":8917,"å²":8918,"åŃ©":8919,"Organ":8920,"Ġteknik":8921,"Ġsumm":8922,"ifah":8923,"Medium":8924,"electric":8925,"è¾¹":8926,"AMA":8927,"chemical":8928,"Ġraya":8929,"å½±":8930,"Ġthreat":8931,"ØªÙĥÙĨ":8932,"utrition":8933,"Ġsebahagian":8934,"akon":8935,"ĠBoard":8936,"ĠØ§ÙħÙĬ":8937,"Ġclos":8938,"Gener":8939,"Ġgenerate":8940,"Ġ96":8941,"ICAL":8942,"ĠÂ·":8943,"Ġidentification":8944,"oisture":8945,"è´¹":8946,"Ġtuan":8947,"ĠDep":8948,"Ġseek":8949,"Ġconclusion":8950,"Ġmerujuk":8951,"Ġturb":8952,"Ġlibrary":8953,"ugas":8954,"when":8955,"Ġprint":8956,"Ġwilling":8957,"\">":8958,"idering":8959,"Ġhousehold":8960,"Ġagreed":8961,"Ġconsistent":8962,"ago":8963,"Ġdepends":8964,"itis":8965,"acific":8966,"Ġmenyel":8967,"ĠÙ¦":8968,"aria":8969,"ATIONAL":8970,"Ġmaks":8971,"á¸":8972,"ĠPC":8973,"entang":8974,"Ġger":8975,"life":8976,"æĳ":8977,"Sing":8978,"ĠCompany":8979,"++":8980,"dt":8981,"role":8982,"pati":8983,"enter":8984,"ommend":8985,"Ġsering":8986,"ora":8987,"ropical":8988,"inder":8989,"jaya":8990,"Proceedings":8991,"Ø§Ø¨ÙĬ":8992,"afiz":8993,"Ġoperations":8994,"Ġsi":8995,"Ġpakai":8996,"Ġsustainability":8997,"ifications":8998,"strateg":8999,"ĠØ§ÙĪÙĦ":9000,"DECLARATION":9001,"Ø°Ùĩ":9002,"Ġperniagaan":9003,"ukup":9004,"Ø¬ÙĬ":9005,"ometimes":9006,"Ø±ÙĬØªØ§":9007,"Ġpandemic":9008,"Ġtw":9009,"Ġ....":9010,"ĠØ§Ú¬":9011,"abol":9012,"Ġexpressed":9013,"ĠMach":9014,"ĠPenang":9015,"äº¤":9016,"HD":9017,"NS":9018,"Ġstandards":9019,"Ġethnic":9020,"ypotheses":9021,"å¸®":9022,"Ġbecomes":9023,"ajuk":9024,"ĠHer":9025,"imensional":9026,"Ġequal":9027,"Ġraw":9028,"ytical":9029,"taining":9030,"ĠTa":9031,"alik":9032,"Ġactions":9033,"Ġslight":9034,"Em":9035,"åħ¬åı¸":9036,"ruption":9037,"ĠNi":9038,"ĠCu":9039,"Mc":9040,"ĠØ³Ø±ÙĬ":9041,"Ġ88":9042,"Ġpilihan":9043,"ĠMethodology":9044,"ĠLog":9045,"Batch":9046,"ameters":9047,"unci":9048,"Ġaway":9049,"hing":9050,"ellow":9051,"Ġcurrently":9052,"embly":9053,"isah":9054,"ASE":9055,"jian":9056,"ĠØ§ÙĦÙħ":9057,"uti":9058,"ĠMain":9059,"ynamics":9060,"Ġpresents":9061,"Ġblack":9062,"Ġwww":9063,"è¿ĺæľī":9064,"orical":9065,"yatakan":9066,"inggu":9067,"adian":9068,"Ġkesihatan":9069,"ĠCorrelation":9070,"Ġoccurs":9071,"onen":9072,"Ġelectron":9073,"yright":9074,"Ġdecisions":9075,"ĠCost":9076,"anned":9077,"Ġvict":9078,"Ġintegrated":9079,"ĠUr":9080,"You":9081,"mean":9082,"OVA":9083,"Ġexcell":9084,"ubatan":9085,"ÂłĊ":9086,"Ġseems":9087,"Ġoutside":9088,"Ġquestionnaires":9089,"raud":9090,"Mat":9091,"angl":9092,"ĠðĿľ":9093,"æ¥¼":9094,"Ġstrain":9095,"bro":9096,"Ġvariation":9097,"Ġskin":9098,"Ġinstitusi":9099,"Ġreach":9100,"Ġ98":9101,"ĠStruct":9102,"ĠSab":9103,"even":9104,"ĠIII":9105,"Amount":9106,"Ġtook":9107,"BP":9108,"Ġ1989":9109,"stitute":9110,"ĠCouncil":9111,"Ġmarkets":9112,"ĠPsychology":9113,"Ġachievement":9114,"Ġsound":9115,"ĠExpl":9116,"ITH":9117,"Ġswit":9118,"Ġ05":9119,"ĠWest":9120,"ĠHaz":9121,"ects":9122,"MAD":9123,"Ġweeks":9124,"Ġlepas":9125,"kar":9126,"hah":9127,"Ġstages":9128,"iasa":9129,"ategory":9130,"Ġactually":9131,"OMMEND":9132,"ä¿ĿåŃĺ":9133,"ĠHad":9134,"Ġscholars":9135,"iden":9136,"pref":9137,"Ġack":9138,"æľį":9139,"Ġmoral":9140,"Ġver":9141,".),":9142,"rier":9143,"Received":9144,"Ġperceptions":9145,"Ġmostly":9146,"asta":9147,"åĵĪåĵĪ":9148,"Ø§ØµÙĬÙĦ":9149,"What":9150,"arikh":9151,"Ġhotel":9152,"romat":9153,"Ġperempuan":9154,"emahan":9155,"ĠMeasurement":9156,"ĠChapter":9157,"cluding":9158,"Ġdomestic":9159,"anah":9160,"Ġcognitive":9161,"Ġnumbers":9162,"Ġ82":9163,"ĠSens":9164,"impin":9165,"åĤ":9166,"Ġcandid":9167,"ĠSyn":9168,"Ġthickness":9169,"akes":9170,"çļĦè¯Ŀ":9171,"ÙĪØªÙĨ":9172,"ÙĪÙħÙĦÙĩ":9173,"ĠFil":9174,"è®¤":9175,"æ¬¡æķ°":9176,"ĠØ³Ùĩ":9177,"Ġadequ":9178,"uff":9179,"Ġreporting":9180,"education":9181,"æĬ¥":9182,"ĠWah":9183,"Ġdulu":9184,"Ġmedi":9185,"Ġnoise":9186,"ĠÙĩÙĬ":9187,"ĠFebruary":9188,"owo":9189,"Ġcurve":9190,"itionally":9191,"technology":9192,"yer":9193,"riculum":9194,"ingkah":9195,"rics":9196,"ategori":9197,"Ġspirit":9198,"ĠNik":9199,"SEM":9200,"Social":9201,"bet":9202,"erve":9203,"Ġconceptual":9204,"ĠKhal":9205,"Ġterutamanya":9206,"åĲĦ":9207,"ris":9208,"Ġseason":9209,"ĠGod":9210,"ĠEnter":9211,"Ġtraffic":9212,"ĠSeries":9213,"Pub":9214,"Ġmuz":9215,"ervation":9216,"nilai":9217,"Ġâľĵ":9218,"ĠTheme":9219,"NC":9220,".:":9221,"åºĹ":9222,"who":9223,"Ġä¸ĭè½½":9224,"ĠProv":9225,"åĪ°çĽ¸":9226,"éĵ":9227,"å¸Ī":9228,"atar":9229,"ĠSO":9230,"Ġ86":9231,"ĠSpr":9232,"cher":9233,"Ġever":9234,"101":9235,"Ġsampel":9236,"Ġsikap":9237,"ustion":9238,"Ġtissue":9239,"Ġadvantages":9240,"ĠØ§ÙĪØªØ§Ø±Ø§":9241,"ciences":9242,"Ġoptimization":9243,"ĠED":9244,"Product":9245,"Google":9246,"ANA":9247,"issions":9248,"number":9249,"Ġcolor":9250,"ĠGAGT":9251,"sa":9252,"Ġjual":9253,"ĠØ¯ÙĥÙĨ":9254,"afah":9255,"Ġexamination":9256,"ken":9257,"eal":9258,"Ġbab":9259,"Ġtrading":9260,"åĦ":9261,"Ġrm":9262,"Ã½":9263,"urangkan":9264,"Ġ84":9265,"project":9266,"ÙĦØ¯":9267,"iform":9268,"Ġgather":9269,"ĠTheir":9270,"ĠÙħØŃ":9271,"ched":9272,"Ġdepth":9273,"ĠVis":9274,"ĠLong":9275,"oxy":9276,"éĻĦä»¶":9277,"because":9278,"isional":9279,"Ġ93":9280,"ĠTerdapat":9281,"ulating":9282,"Ġspecifically":9283,"Ġinfection":9284,"ĠPan":9285,"submit":9286,"access":9287,"ĠÙĥØ¯ÙĪØ§":9288,"Ġbudget":9289,"Ġlooking":9290,"ĠØ£ÙĪ":9291,"Ġinvolving":9292,"åįķ":9293,"ĠValue":9294,"Ġä¸ĭè½½æ¬¡æķ°":9295,"ested":9296,"Ġ1000":9297,"Program":9298,"Ġconcentrations":9299,"after":9300,"Ø±Ø§Ø³":9301,"ĠØ¬Ø§Ø¨":9302,"Ġgrowing":9303,"ĠDR":9304,"Ġtenaga":9305,"Ġä¸Ĭä¼ł":9306,"ä¸ĭè½½éĻĦä»¶":9307,"coh":9308,"Ġcontrast":9309,"åĪ°çĽ¸åĨĮ":9310,"ĠÙĨÙĪ":9311,"ä¿ĿåŃĺåĪ°çĽ¸åĨĮ":9312,"ĠSembilan":9313,"ä¸įè¿ĩ":9314,"ĠEk":9315,"FACULTY":9316,"Ġroles":9317,"ĠABBREVIATIONS":9318,"Ġrestric":9319,"çİ©":9320,"Ġsurf":9321,"âĢ¢âĢ¢":9322,"uaian":9323,"Ġcomes":9324,"Ġaggreg":9325,"Ġkg":9326,"Ġberf":9327,"åĲ¬":9328,"gate":9329,"ava":9330,"åĴ¯":9331,"Ġplastic":9332,"iture":9333,"Ġalthough":9334,"Ġpanel":9335,"Ġannual":9336,"advant":9337,"arter":9338,"TO":9339,"Ġpelanc":9340,"Ġbir":9341,"ĠIndian":9342,"ĠSimilar":9343,"ĠDav":9344,"ifier":9345,"åľĭ":9346,"hak":9347,"consider":9348,"Ġplaced":9349,"Instagram":9350,"ea":9351,"sik":9352,"avascript":9353,"ĠEach":9354,"ĠExperimental":9355,"Ġorientation":9356,"Ġgave":9357,"Ġ91":9358,"Ġ1980":9359,"Ġagreement":9360,"ucose":9361,"insip":9362,"Ġiv":9363,"Ġoral":9364,"social":9365,"Ġmasing":9366,"\")":9367,"ĠAdministration":9368,"Ġwalaupun":9369,"Ġemotional":9370,"asp":9371,"del":9372,"Ġvariance":9373,"DC":9374,"Ġharus":9375,"Ġpowder":9376,"Ġpurposes":9377,"Ġattributes":9378,"Ġofficial":9379,"izer":9380,"Ġarticles":9381,"ottom":9382,"ĠØ«":9383,"ASI":9384,"Ġcareer":9385,"Ġrepe":9386,"anger":9387,"izations":9388,"yarah":9389,"Ġprem":9390,"IIUM":9391,"ĠRahim":9392,"ibat":9393,"ðĿĳĴ":9394,"Ġdivers":9395,"Ġguide":9396,"ĠNilai":9397,"Ġgoes":9398,"atial":9399,"ÙħÙĬÙĦÙĬÙĤÙĬ":9400,"sebagai":9401,"Ġprogramme":9402,"æ²Ĵ":9403,"Ġjabatan":9404,"ç©º":9405,"Ġbetul":9406,"FL":9407,"ĠØªÙĬÙħÙĪØ±":9408,"Ġelectrical":9409,"Ġopinion":9410,"ĠLiu":9411,"èĳ":9412,"eber":9413,"Ġscope":9414,"Ġ1988":9415,"Ġfibre":9416,"Ġmempengaruhi":9417,"ĠLeg":9418,"ĠThemes":9419,"Ġcluster":9420,"ĠACCOUN":9421,"ĠOthman":9422,"essed":9423,"fol":9424,"allenges":9425,"Ġminim":9426,"ĠMuslims":9427,"Ġthing":9428,"Ġnation":9429,"mic":9430,"åıį":9431,"Ġsepanjang":9432,"angunkan":9433,"ĠPractice":9434,"blems":9435,"Ø§ÙĬÙĥ":9436,"Ġcolumn":9437,"ĠSl":9438,"ERS":9439,"Mas":9440,"å±±":9441,"ĠMO":9442,"adangan":9443,"nings":9444,"ĠMohammad":9445,"Ġvehicle":9446,"1007":9447,"Twitter":9448,"Ġmembentuk":9449,"atau":9450,"Sim":9451,"iful":9452,"Ġprote":9453,"yataan":9454,"Ġdial":9455,"ĠÙħÙħÙĬÙĦÙĬÙĤÙĬ":9456,"Ġ(\"":9457,"Ġdiberi":9458,"UA":9459,"åįĸ":9460,"ĠDev":9461,"indic":9462,"webof":9463,"Ġobservation":9464,"ØªÙĬÙģ":9465,"Sch":9466,"éĹ¨":9467,"éĤ£ä¹Ī":9468,"ĠHong":9469,"ĠMax":9470,"ĠPa":9471,"ceeding":9472,"ementara":9473,"ikir":9474,"Ġsympt":9475,"School":9476,"ĠArabic":9477,"ressive":9478,"effici":9479,"ĠNatural":9480,"Par":9481,"ĠBarat":9482,"åĲĳ":9483,"abul":9484,"odium":9485,"Ġleaders":9486,"irement":9487,"ASS":9488,"Ġrecommended":9489,"Ġprestasi":9490,"telah":9491,"åĳĬ":9492,"isition":9493,"Ġuncertain":9494,"lamat":9495,"Ġcompound":9496,"ÙĥÙĬÙĨ":9497,"åĢĳ":9498,"ðĿĳĲ":9499,"ç¡":9500,"ĠBakar":9501,"Ġdiseases":9502,"ĠCRE":9503,"Ġworth":9504,"evert":9505,"ÙħÙĪ":9506,"iwa":9507,"--------------------------------":9508,"åĺ":9509,"Ġdeclare":9510,"å§ĭ":9511,"Ġcontaining":9512,"enh":9513,"Ġlg":9514,"ĠProperties":9515,"ĠLab":9516,"ĠSya":9517,"Ġacceptance":9518,"ikel":9519,"ĠØ¬Ø§Ø¨ØªÙĨ":9520,"otype":9521,"Ġhit":9522,"125":9523,"MO":9524,"fully":9525,"èµĦ":9526,"Ġfair":9527,"Ġanalysed":9528,"Ġterbaik":9529,"ainkan":9530,"Ġguna":9531,"ĠOpen":9532,"ko":9533,"Ġvirus":9534,"ĠÙĥÚ¤":9535,"âĢ¦âĢ¦âĢ¦âĢ¦âĢ¦âĢ¦âĢ¦âĢ¦âĢ¦âĢ¦âĢ¦âĢ¦":9536,"ĠBers":9537,".(":9538,"Ġplate":9539,"Ġpair":9540,"post":9541,"Ġve":9542,"Ġdelay":9543,"uji":9544,"Ġconflict":9545,"ille":9546,"kh":9547,"Ġshall":9548,"ĠKal":9549,"ellectual":9550,"acing":9551,"ç¨ĭ":9552,"ä»»":9553,"âĢĭ":9554,"Ġ\\":9555,"ĠProduction":9556,"Cited":9557,"financial":9558,"ĠSah":9559,"æĮĩ":9560,"ĠProfessor":9561,"Ø±Ø§Ø¬Ø£ÙĨ":9562,"ðĿĽ½":9563,"Cr":9564,"Ġproport":9565,"Ø§ÙħÙĦ":9566,"service":9567,"Thesis":9568,"hubungan":9569,"Ø§ÙĬÙĨ":9570,"Bachelor":9571,"104":9572,"ridge":9573,"ĠComput":9574,"esen":9575,"Ġbone":9576,"evertheless":9577,"riers":9578,"enalan":9579,"ĠPelajar":9580,"ÃŃ":9581,"Siti":9582,"Le":9583,"Full":9584,"ĠRECOMMEND":9585,"Ġmemerlukan":9586,"Ġquantitative":9587,"ĠDiscussion":9588,"world":9589,"Ø¨ÙĨ":9590,"ĠSignificance":9591,"Ġcapability":9592,"Ġclassified":9593,"ĠSE":9594,"Ġ92":9595,"activity":9596,"ĠâĢ¦":9597,"Ġaff":9598,"æ®":9599,"Ġspes":9600,"Ġmort":9601,"Ġheight":9602,"compet":9603,"atian":9604,"ĠWib":9605,"dah":9606,"ĠStructure":9607,"ascular":9608,"Ġresulted":9609,"BU":9610,"ĠOrang":9611,"ĠBro":9612,"ä¸Ķ":9613,"ĠOmar":9614,"cules":9615,"aranya":9616,"Ø£ÙĬ":9617,"Ġsynthesis":9618,"agree":9619,"ray":9620,"ĠØ³ÙĦØªÙĨ":9621,"Ġmengenal":9622,"mediate":9623,"Ġstation":9624,"Ġsched":9625,"ĠØ³ÙĪØ§":9626,"Ġagents":9627,"Ġbiomass":9628,"hood":9629,"Ø±Ùģ":9630,"ols":9631,"Ġcompleted":9632,"Ġperj":9633,"ĠHalal":9634,"ĠĠĠĠĠĠĠĠĠĠĠĠĠ":9635,"Ġeffectively":9636,"ĠØ§ÙħÙĬØ±ÙĬÙĥ":9637,"Ġbak":9638,"upa":9639,"Ġcontributed":9640,"Ġpusat":9641,"Pend":9642,"ä¸ŃåĽ½":9643,"zym":9644,"Ġpark":9645,"ĠHER":9646,"Ġteori":9647,"Ġï¿½ï¿½ï¿½":9648,"posal":9649,"inity":9650,"online":9651,"Ġextracted":9652,"Ġduration":9653,"ØªÙĬÙĨ":9654,"ĠDigital":9655,"Ġera":9656,"Model":9657,"Ġbangunan":9658,"Ø³Ùĩ":9659,"Ġassistance":9660,"Joh":9661,"ple":9662,"140":9663,"åħī":9664,"ests":9665,"ordance":9666,"Ġsand":9667,"Ġpanjang":9668,"sama":9669,"Ġpositively":9670,"kalau":9671,"Ġinvestors":9672,"webofknowledge":9673,"106":9674,"ĠMes":9675,"Sur":9676,"Ġhope":9677,"Rank":9678,"ĠUl":9679,"HT":9680,"Ġ1985":9681,"Ġconcepts":9682,"Ġscheme":9683,"urangan":9684,"ĠDC":9685,"acher":9686,"ĠLand":9687,"itical":9688,"ĠFactor":9689,"ĠMS":9690,"å®¹":9691,"Ġinvolvement":9692,"Ġpandangan":9693,"ĠØªØ¹":9694,"Ġsufficient":9695,"103":9696,"Ġlatihan":9697,"izikal":9698,"éł":9699,"okasi":9700,"130":9701,"ĠØ¯ÙĬØ³":9702,"ĠResult":9703,"erior":9704,"List":9705,"ØªÙĪÙĨ":9706,"ĠTesting":9707,"erse":9708,"Ø¡ÙĬ":9709,"Ø§ÚĨ":9710,"ekat":9711,"Ġforward":9712,"Bel":9713,"Ġ07":9714,"Ġtalk":9715,"Ġmolecular":9716,"GE":9717,"ĠØ¨Ø§ÙĪÙĩ":9718,"Ġgly":9719,"Ġcategory":9720,"ĠØ§ÙĦØ±":9721,"ĠPener":9722,"Ġintensity":9723,"IES":9724,"Ġkemb":9725,"åıĺ":9726,"Ġenjoy":9727,"ĠJust":9728,"esi":9729,"Ġfi":9730,"ĠPowered":9731,"Ġexistence":9732,"æĵ":9733,"Sem":9734,"Technology":9735,"ĠWibowo":9736,"Ġrisks":9737,"El":9738,"angga":9739,"Ġkedudukan":9740,"ĠProp":9741,"Ġveget":9742,"âĦ":9743,"ĠInggeris":9744,"ĠUntuk":9745,"HAD":9746,"etyo":9747,"ĠIssues":9748,"enarkan":9749,"ĠStatistical":9750,"ðĿĲµ":9751,"Ġvent":9752,"aten":9753,"Ġstruktur":9754,"Ġdemikian":9755,"å¼ı":9756,"ĠYusof":9757,"ĠØ¯Ø§":9758,"ĠTraining":9759,"Ġdie":9760,"ĠØ¹Ø¨Ø¯":9761,"adz":9762,"hadapi":9763,"å¸Į":9764,"ĠHamid":9765,"ĠÙĥÙĪÙħÚ¤ÙĪÙĦÙĨ":9766,"åı«":9767,"çľ¼":9768,"yles":9769,"ensyarah":9770,"ÙĪØªÙĪ":9771,"Ġglass":9772,"è§īå¾Ĺ":9773,"Ġlima":9774,"oa":9775,"Ġsoft":9776,"ĠCina":9777,"Ġdeliver":9778,"Agung":9779,"dil":9780,"ĠLa":9781,"Ġrecognition":9782,"è¶Ĭ":9783,"igr":9784,"Ġperkembangan":9785,"Ġwhite":9786,"Ġaccomp":9787,"ĠÚ¤Ø±Ø³":9788,"ĠØªÙĨØªØ±Ø§":9789,"ÙĥÙĪØ¯":9790,"ÃĹ":9791,"Ġdistr":9792,"ĠCollection":9793,"Ġlalu":9794,"ĠPand":9795,"éģİ":9796,"Ġspr":9797,"When":9798,"aduan":9799,"Âµ":9800,"type":9801,"fi":9802,"ĠKaedah":9803,"LS":9804,"ĠIR":9805,"Ġsolve":9806,"Ġsokongan":9807,"Ġdemonstrated":9808,"AINS":9809,"san":9810,"è³":9811,"Ġgoods":9812,"Ġpollution":9813,"ĠPrasetyo":9814,"ä¸įèĥ½":9815,"æĹ¶éĹ´":9816,"Ġskill":9817,"APW":9818,"irus":9819,"ĠÙ¡Ù¨":9820,"Ġ06":9821,"Ġconvert":9822,"Ġdasar":9823,"Ġplayers":9824,"Ci":9825,"charge":9826,"istically":9827,"ulat":9828,"Ġsa":9829,"Ø¯Úł":9830,"Ġconfirm":9831,"perform":9832,"Ġmemastikan":9833,"ĠKr":9834,"èªª":9835,"Ġded":9836,"Ġkewangan":9837,"image":9838,"Ġpm":9839,"ĠPearson":9840,"ĠØ§ÙĦÙĬ":9841,"ediaan":9842,"ĠChang":9843,"ĠCenter":9844,"ICK":9845,"ĠÙĥØ±Ø§Ø¬Ø£ÙĨ":9846,"ĠFinally":9847,"Ġstable":9848,"Ġcommunities":9849,"efficients":9850,"ðĿĳĩ":9851,"Ġkebanyakan":9852,"ky":9853,"Ġengagement":9854,"Pemb":9855,"ĠKong":9856,"ĠLtd":9857,"ucle":9858,"åĳĺ":9859,"standard":9860,"Ġpengalaman":9861,"adays":9862,"iba":9863,"imi":9864,"Ġpersekitaran":9865,"ĠBo":9866,"Ġtopic":9867,"Ġcomfort":9868,"NN":9869,"Ġsemp":9870,"publication":9871,"MediumLoginPlease":9872,"127":9873,"eler":9874,"ils":9875,"Ġfocuses":9876,"EO":9877,"unctional":9878,"ĠĠĠĠĠĠĠĠĠĠĠĠĠĠ":9879,"ĠØ³Ø¨ÙĦÙĪÙħ":9880,"ç»ĵ":9881,"Ġlecturers":9882,"during":9883,"Ġevaluated":9884,"arn":9885,"normal":9886,"Ġtakes":9887,"Ġ94":9888,"javascript":9889,"ĠEquation":9890,"into":9891,"Ġfront":9892,"109":9893,"ĠÙĩØ§Ø±ÙĬ":9894,"ðĿĳĥ":9895,"ĠØ¯Ø£":9896,"160":9897,"Science":9898,"ĠHashim":9899,"ĠïĤ":9900,"æ²¹":9901,"Ġthin":9902,"allel":9903,"Ġflood":9904,"found":9905,"ĠLIST":9906,"Ġviol":9907,"ĠFuture":9908,"ĠPreparation":9909,"Ġconfidence":9910,"ĠPenyelidikan":9911,"particip":9912,"stances":9913,"Ġscen":9914,"ĠHol":9915,"âĢĲ":9916,"ĠRecommend":9917,"ĠRESULTS":9918,"uruteraan":9919,"ĠØ§Ùĥ":9920,"è¯ķ":9921,"ugar":9922,"ÙĪØ§Ø±ÙĬ":9923,"ĠOl":9924,"Ġcert":9925,"Ġuniversiti":9926,"pression":9927,"boleh":9928,"17576":9929,"1000":9930,"äº§":9931,"ĠÙĦÙĦ":9932,"ĠKej":9933,"Ġvert":9934,"mereka":9935,"ague":9936,"Ø¯ÙĨ":9937,"ĠØ¨Ø§Ú½ÙĤ":9938,"ĠÙĥØ§ÙĨ":9939,"Ġkot":9940,"Ġrubber":9941,"Ġkomuniti":9942,"Ø±Ø©":9943,"å»º":9944,"ĠSupport":9945,"ĠØ§ÙĩÙĦÙĬ":9946,"atang":9947,"ĠIP":9948,"Ġ400":9949,"ying":9950,"ianya":9951,"Ġabsorption":9952,"imary":9953,"ĠDuring":9954,"emia":9955,"umbang":9956,"ĠØ¨ÙĦ":9957,"olving":9958,"ĠØ§ØªØ³":9959,"Ġmoment":9960,"Ġalb":9961,"ĠBook":9962,"usteru":9963,"1111":9964,"ampir":9965,"Ġcos":9966,"hand":9967,"Ġundang":9968,"289":9969,"Ġcounter":9970,"åİŁå¸ĸ":9971,"çĮ":9972,"ĠØªØ±ÙħØ§Ø³ÙĪÙĤ":9973,"Ġwave":9974,"EST":9975,"Type":9976,"Ġnoted":9977,"Pel":9978,"Ġabs":9979,"Pos":9980,"omatic":9981,"åİŁå¸ĸçĶ±":9982,"102":9983,"ĠÙĪÙĤ":9984,"Ġdlm":9985,"Ġfaced":9986,"ĠMR":9987,"antar":9988,"Ev":9989,"Ġdiversity":9990,"log":9991,"ĠÙĦØ§ÙĪØª":9992,"otechnology":9993,"ĠÙĦÙĦØ§":9994,"Ġviews":9995,"ependence":9996,"Introduction":9997,"mL":9998,"TT":9999,"ekut":10000,"Ġrise":10001,"Ġexplore":10002,"Ġmiss":10003,"Ġbuilt":10004,"åĪ¶":10005,"KL":10006,"etal":10007,"ĠHand":10008,"istant":10009,"èħ":10010,"Ġprediction":10011,"adesh":10012,"menggunakan":10013,"Ġrecovery":10014,"ĠSYSTEM":10015,"æ£":10016,"ĠØ¨Ø±Ø³Ø§Ùħ":10017,"Jurnal":10018,"ĠMei":10019,"ĠPEN":10020,"TITLE":10021,"æł¼":10022,"éĤĦ":10023,"lands":10024,"Ġwood":10025,"char":10026,"ðĿĳħðĿĳħ":10027,"emale":10028,"Ġlagu":10029,"ometry":10030,"kuasa":10031,"stream":10032,"250":10033,"ĠPK":10034,"Ġja":10035,"ATAN":10036,"COM":10037,"afa":10038,"ĠElectron":10039,"Ġgak":10040,"Ġkeh":10041,"ĠAdv":10042,"Ġsectors":10043,"èİ":10044,"sg":10045,"kas":10046,"ĠEle":10047,"ĠHj":10048,"ibilities":10049,"oriz":10050,"conn":10051,"Ġnet":10052,"ĠGrowth":10053,"ðĿĳ£":10054,"SENARA":10055,"construction":10056,"Ġplays":10057,"ĠMereka":10058,"å¿ħ":10059,"Muslim":10060,"Effect":10061,"ĠPolicies":10062,"oni":10063,"iced":10064,"orient":10065,"Ġprotocol":10066,"Ġnutri":10067,"Ġwin":10068,"ĠPembangunan":10069,"ĠCare":10070,"Ġzone":10071,"alaysia":10072,"ĠSelf":10073,"lamm":10074,"romot":10075,"ðĿĴ":10076,"Ġbapa":10077,"Ġoptimal":10078,"å¸¦":10079,"ERA":10080,"Education":10081,"Ġdih":10082,"dana":10083,"ahasa":10084,"ĠApproach":10085,"detail":10086,"Ø§ÙħØªÙĨ":10087,"çķĮ":10088,"Ġsinc":10089,"ĠÙ¡Ù©Ù©Ù":10090,"ĠÙĦØª":10091,"Ġconsequ":10092,"Engineering":10093,"anjung":10094,"Ġdihasilkan":10095,"Ġvary":10096,"Rep":10097,"Ge":10098,"Ġarah":10099,"azali":10100,"Conf":10101,"æĪ¿":10102,"ĠObjective":10103,"ULT":10104,"Ġpsychological":10105,"Ġtau":10106,"etapkan":10107,"Ġruang":10108,"ĠMaster":10109,"Ġperkataan":10110,"Ġsentiasa":10111,"ĠSoutheast":10112,"Ġmeeting":10113,"va":10114,"url":10115,"ÙĥÙħ":10116,"Ġsusp":10117,"ÚłÙĥÙĨ":10118,"Development":10119,"edaran":10120,"Ġsun":10121,"ÙħØ¨ÙĬÙĦ":10122,"Ġketiga":10123,"ĠSyed":10124,"ekalkan":10125,"prises":10126,"Ġberat":10127,"zer":10128,"ĠBab":10129,"oses":10130,"Ġadvice":10131,"ĠSan":10132,"ND":10133,"Ġhydrogen":10134,"Bu":10135,"onent":10136,"ulakan":10137,"ðĿĳİ":10138,"002":10139,"åŀ":10140,"Ġmanufact":10141,"ðĿĳĿ":10142,"recordpage":10143,"itality":10144,"ikit":10145,"Ġstore":10146,"Bar":10147,"ĠWORK":10148,"ĠCG":10149,"Ġdebt":10150,"alsafah":10151,"ART":10152,"107":10153,"ĠGo":10154,"media":10155,"ĠYah":10156,"display":10157,"Ġkomunikasi":10158,"æĸĻ":10159,"cepted":10160,"asaran":10161,"Ġoxide":10162,"Ġstakeholders":10163,"iley":10164,"Ġbox":10165,"Ġrich":10166,"æĹ©":10167,"ĠDECLARATION":10168,"Ġownership":10169,"ĠMenteri":10170,"Ġserious":10171,"Ġsuper":10172,"/-":10173,"ued":10174,"Ġmeter":10175,"Business":10176,"Ġshared":10177,"å¾Į":10178,"Ġstrongly":10179,"Ġbilangan":10180,"ĠÙ§":10181,"ho":10182,"ĠBoth":10183,"ĠZah":10184,"Ġmodal":10185,"ubuhan":10186,"Ġcutting":10187,"Ġye":10188,"Ġcompetition":10189,"Ġfuzzy":10190,"Ġcomposites":10191,"Ġtransl":10192,"Ġmiddle":10193,"KW":10194,"dik":10195,"Ġvital":10196,"ĠïĢ©":10197,"æ±Ĥ":10198,"eperiksaan":10199,"Ġdar":10200,"kaun":10201,"ðĿĳĽðĿĳĽ":10202,"Ġcame":10203,"Ġmanaged":10204,"Ġcivil":10205,"Ġalat":10206,"Ġaffecting":10207,"ajuan":10208,"Ġhop":10209,"house":10210,"ØªÙĪØ§ÙĨ":10211,"determin":10212,"Ġ1987":10213,"attery":10214,"After":10215,"108":10216,"negara":10217,"ault":10218,"Ġdilaksanakan":10219,"auan":10220,"ĠÙĥÚĨØ§ÙħØªÙĨ":10221,"ĠÚ¤Ø±Ùĥ":10222,"Ġseven":10223,"bagi":10224,"Ġpenyakit":10225,"ĠOg":10226,"Ġwaktu":10227,"Ġchallenge":10228,"wi":10229,"Ġeks":10230,"Ġkelas":10231,"Ġsesebuah":10232,"Ġdatabase":10233,"ĠLife":10234,"ALL":10235,"PF":10236,"Ġremain":10237,"Ġpeluang":10238,"rosion":10239,"Ġcharacteristic":10240,"Kel":10241,"Ġoffice":10242,"ĠÚ¤ÙĪØ³ÙĥÙĪØ¯":10243,"cial":10244,"Ø¨Ø©":10245,"æĭį":10246,"ÙĬÙģ":10247,"ĠSafety":10248,"ilot":10249,"yond":10250,"ĠCour":10251,"andaran":10252,"CHN":10253,"ÙĨÙĩ":10254,"ĠØ¨Ø§Ø±ÙĪ":10255,"lead":10256,"Ġfunds":10257,"ogenic":10258,"Ġrakan":10259,"Ġpict":10260,"ÙĩØ§Ø¯":10261,"Ġbelieved":10262,"aham":10263,"GO":10264,"Ġsqu":10265,"Ġnote":10266,"Ġvisc":10267,"epsi":10268,"ĠÚ¤Ø§Ø³ÙĪÙĥÙĨ":10269,"Ġshowing":10270,"Ġconv":10271,"nak":10272,"ĠÙĦÙĦØ§ÙĥÙĬ":10273,"Ġgram":10274,"ĠTanah":10275,"Ġmother":10276,"Ġbiological":10277,"Ġmacam":10278,"Ġexplan":10279,"Ġ250":10280,"ĠÙĥØªÙĬÙĥ":10281,"ĠTinggi":10282,"Ġsuhu":10283,"ĠØªÙħÚ¤Øª":10284,"riting":10285,"Ġbreast":10286,"amm":10287,"ðĿĲº":10288,"Method":10289,"Ġsuggests":10290,"issues":10291,"ĠAntara":10292,"ĠØ¯Ø³":10293,"Ø§Ø¹":10294,"ĠIts":10295,"ulang":10296,"ĠÚ¤Ø±Ø¨ÙĨØ¯":10297,"Ġfinance":10298,"ĠApplications":10299,"Ø§ÙĨÙĩ":10300,"Ġallowed":10301,"æ¸¸":10302,"Ġsamping":10303,"rif":10304,"Ġtree":10305,"Ġadministration":10306,"ĠLu":10307,"AKAAN":10308,"De":10309,"ico":10310,"ĠPV":10311,"FP":10312,"Ġhealthy":10313,"urer":10314,"éĻ¤":10315,"anggan":10316,"Ġsubstrate":10317,"ĠMany":10318,"gery":10319,"âĸ":10320,"Ġreferred":10321,"ĠØ³ÙĩÙĬÚłÚ¬":10322,"ORT":10323,"åĬŁ":10324,"ĠManakala":10325,"cles":10326,"Ġaccurate":10327,"cknowledg":10328,"Ġoffered":10329,"ĠUMP":10330,"orrow":10331,"ster":10332,"Ġnanof":10333,"å¹¶":10334,"ĠHD":10335,"TIR":10336,"iph":10337,"=&":10338,"oom":10339,"Non":10340,"ĠMajlis":10341,"ĠSC":10342,"Ġwrong":10343,"bs":10344,"van":10345,"Ġcontrolled":10346,"ett":10347,"ĠSelatan":10348,"äººçļĦ":10349,"lig":10350,"ĠSaud":10351,"KA":10352,"akarta":10353,"Ġconstrain":10354,"ĠHall":10355,"ĠGood":10356,"Ġhuj":10357,"Ġantioxidant":10358,"seud":10359,"ĠØ³Ø§ÙĦÙĩ":10360,"Ġax":10361,"ĠMer":10362,"How":10363,"è®°":10364,"Ġvaluable":10365,"emperatures":10366,"pub":10367,"aceut":10368,"ĠMOD":10369,"Ġampl":10370,"ĠDifferent":10371,"Sal":10372,"estr":10373,"WO":10374,"ĠØ§Ùħ":10375,"obic":10376,"oalan":10377,"Any":10378,"May":10379,"ĠEmer":10380,"ÙłÙłÙł":10381,"Ġregions":10382,"ĠAmin":10383,"Ġbrain":10384,"individual":10385,"factors":10386,"Account":10387,"ĠEven":10388,"Ġsum":10389,"Ġdianggap":10390,"Ġ101":10391,"ronbach":10392,"incangan":10393,"ĠASEAN":10394,"itch":10395,"Ġacknowled":10396,"Ġmetals":10397,"ĠINTER":10398,"pasti":10399,"Ġfinish":10400,"128":10401,"Ġutilized":10402,"Ġdistinct":10403,"ï¼Ľ":10404,"Ġ111":10405,"Ġkepentingan":10406,"Fe":10407,"Ġkhususnya":10408,"improv":10409,"Ġcompliance":10410,"Ġregular":10411,"MAN":10412,"è¯·éĹ®":10413,"Ġmit":10414,"ln":10415,"yo":10416,"Ġsar":10417,"operative":10418,"ĠPhysical":10419,"ignature":10420,"box":10421,"ÙĪØªÙĬ":10422,"ÙĪÚĨ":10423,"ĠWar":10424,"osophy":10425,"Ġsafe":10426,"ĠØ§ÙĦÙĦ":10427,"è¶ħ":10428,"ĠØ¬ÙĪÙħÙĦÙĩ":10429,"Ġdipilih":10430,"CONCLUSION":10431,"micro":10432,"å·¥ä½ľ":10433,"icing":10434,"Ġsoal":10435,"Ġinterface":10436,"???":10437,"result":10438,"ĠFrequency":10439,"Ø§ÙĦÙĤ":10440,"Ġabsorb":10441,"proses":10442,"Ġmap":10443,"ĠSAINS":10444,"Ġconfirmed":10445,"aini":10446,"Ġchlor":10447,"Ø§Ø²":10448,"isher":10449,"ROM":10450,"Ġconnection":10451,"ĠGuru":10452,"ðĿĲ¿":10453,"Ġdiambil":10454,"emerl":10455,"Seb":10456,"enuhi":10457,"Ġbekerja":10458,"ĠMem":10459,"hu":10460,"imia":10461,"Ġdecreased":10462,"Kes":10463,"ĠØ¥ÙīÙĦ":10464,"Ġbila":10465,"Ġcreating":10466,"Ġmenentukan":10467,"ĠMass":10468,"ĠMAR":10469,"Ġade":10470,"PB":10471,"unications":10472,"Ġsmaller":10473,"Ġris":10474,"ĠGerman":10475,"äºļ":10476,"ĠMobile":10477,"Ġphosph":10478,"ĠKamar":10479,"Ġconnected":10480,"ÙĬÚ¤ÙĪÙĨ":10481,"Ġerrors":10482,"Ġreceive":10483,"leep":10484,"Ġsurround":10485,"Ġsocio":10486,"ĠØ³Ø±ØªØ§":10487,"Ġsets":10488,"Ġnanoparticles":10489,"enna":10490,"Ġnih":10491,"Ġdeviation":10492,"Ġbantuan":10493,"1988":10494,"Ġgames":10495,"ĠResources":10496,"ĠØªÙĬÚłÚ¬":10497,"Ref":10498,"ĠÚ¤Ø±Ø¨ÙĨØ¯Ø±ÙĨ":10499,"ç¤º":10500,"Ġrelease":10501,"pected":10502,"Ġmest":10503,"observ":10504,"two":10505,"ĠInstr":10506,"åŃĹ":10507,"Cop":10508,"ĠØªØ±Ø¨Úł":10509,"Ġ1986":10510,"ÛıÙĬÙĨ":10511,"Ġquick":10512,"Ġwt":10513,"object":10514,"Ġwatch":10515,"itatif":10516,"Ġoffers":10517,"see":10518,"ELL":10519,"Ġtahu":10520,"Ġanalyses":10521,"Saya":10522,"Ġsemi":10523,"é¥":10524,"Ġpeningkatan":10525,"ĠØ§ÙĪØªØ§Ùħ":10526,"Ġarrang":10527,"Ġchanging":10528,"Ĺı":10529,"ĠØ§ÙĪÙģ":10530,"Ke":10531,"Si":10532,"Ġlaboratory":10533,"reshold":10534,"ikh":10535,"çĲĥ":10536,"Ġconver":10537,"ĠØ¨ÙĪØ§Ùĩ":10538,"Ġbelakang":10539,"Ġtt":10540,"ctor":10541,"ĠCulture":10542,"Ġdetermining":10543,"ampel":10544,"cultural":10545,"Ġexperienced":10546,"ĠKAJIAN":10547,"Port":10548,"Ġlaku":10549,"ĠShariah":10550,"ĠDefinition":10551,"ĠSalleh":10552,"Ġfire":10553,"ĠKl":10554,"Ġsuc":10555,"ĠAcademy":10556,"å¨":10557,"specific":10558,"éĺ¿":10559,"Ġrelations":10560,"ambridge":10561,"bitkan":10562,"Published":10563,"ority":10564,"Ġsebarang":10565,"aign":10566,"run":10567,"292":10568,"Last":10569,"Ġnight":10570,"ĠCompet":10571,"Gl":10572,"ĠØ§ÙĨÙĤ":10573,"Ġsession":10574,"omas":10575,"asm":10576,"Ġangg":10577,"state":10578,"Ø¬ÙĪÙĤ":10579,"Ġestimation":10580,"kenal":10581,"ĠFakulti":10582,"ela":10583,"MM":10584,"æµģ":10585,"æĺĵ":10586,"åı¯æĺ¯":10587,"REE":10588,"reedom":10589,"Ġsegala":10590,"Ġexposed":10591,"obil":10592,"Ġcategor":10593,"dl":10594,"ĠComputing":10595,"Ġtransmission":10596,"Ġbed":10597,"ĠThat":10598,"å£«":10599,"ulit":10600,"Ġtum":10601,"Mah":10602,"Pe":10603,"Ġethanol":10604,"ulaiman":10605,"question":10606,"ĠIst":10607,"BJ":10608,"anjut":10609,"ĠSym":10610,"Econom":10611,"Ġmenjalankan":10612,"Ġkeselamatan":10613,"mut":10614,"ĠØ¨ÙĩØ§Ú¬ÙĬÙĨ":10615,"sed":10616,"ova":10617,"These":10618,"ĠçļĦ":10619,"Ġdisclosure":10620,"114":10621,"Ġreligion":10622,"rig":10623,"these":10624,"Ġreliable":10625,"INGS":10626,"fford":10627,"Ġpure":10628,"chat":10629,"ÚłÙĬ":10630,"ĠØ³Ø±Ø§ÙħØ§":10631,"1989":10632,"They":10633,"Ġorganisation":10634,"araf":10635,"Ġdegradation":10636,"ĠMart":10637,"mented":10638,"UTH":10639,"here":10640,"Ġelemen":10641,"ĠØ§ØŃÙĦ":10642,"LEC":10643,"ICE":10644,"ospitality":10645,"bat":10646,"ÙĦÙĬÙĤ":10647,"Ġmengalami":10648,"Ġsetelah":10649,"Ġsesi":10650,"products":10651,"abulary":10652,"Neg":10653,"uu":10654,"Ä±n":10655,"ĠKhair":10656,"ALAM":10657,"osh":10658,"ĠSA":10659,"utral":10660,"Ġbuildings":10661,"ĠGraph":10662,"åĸľæ¬¢":10663,"Ġaer":10664,"Ġclasses":10665,"afar":10666,"compared":10667,"Poskod":10668,"yg":10669,"emi":10670,"home":10671,"Ġones":10672,"Ġhus":10673,"Ġselidik":10674,"Ø§ÙĦÙĬØ§":10675,"ĠSum":10676,"çĦ¶åĲİ":10677,"ocabulary":10678,"Ø§ÙĬØ³":10679,"ĠBukit":10680,"Ġbalik":10681,"ĠAnti":10682,"SU":10683,"Ġearth":10684,"iciency":10685,"æº":10686,"human":10687,"ĠFound":10688,"achiev":10689,"Ġkecamatan":10690,"free":10691,"angladesh":10692,"Ġhelped":10693,"some":10694,"ĠØ¨Ø±Ú¤":10695,"Ġinteresting":10696,"Ġaffects":10697,"åĻ":10698,"ĠTok":10699,"upayaan":10700,"èĽ":10701,"Ġprobability":10702,"Ġstarting":10703,"ukuran":10704,"115":10705,"ĠÙħØ¬":10706,"ĠBlack":10707,"Ġseparation":10708,"Ġkonteks":10709,"rm":10710,"æĢĿ":10711,"Ġformula":10712,"Ø¯Ø§ÙĨ":10713,"ÙĦÙĪØ±":10714,"review":10715,"ertai":10716,"ĠSoftware":10717,"cost":10718,"itkan":10719,"inn":10720,"queous":10721,"arak":10722,"Ġcooperation":10723,"Mon":10724,"Ġ109":10725,"ĠUt":10726,"ĠCA":10727,"ohon":10728,"SENARAI":10729,"ĠVan":10730,"');":10731,"ĠTT":10732,"Ġlines":10733,"ĠNorth":10734,"Ġbelum":10735,"respondents":10736,"Ġserve":10737,"ĠØ§ÙĦØµ":10738,"Ġberkesan":10739,"Ġinterviews":10740,"Ġunsur":10741,"ĠOxford":10742,"uasan":10743,"Ġpemain":10744,"ĠCommittee":10745,"akaria":10746,"FID":10747,"TIV":10748,"dit":10749,"Ġ-.":10750,"ĠBio":10751,"ĠØ¯ÙĥÙĨÙĦÙĬ":10752,"ĠCy":10753,"ĠPeny":10754,"CP":10755,"Ġfilms":10756,"ĠCSR":10757,"essing":10758,"lysis":10759,"Ġenable":10760,"ĠDESIGN":10761,"ujudkan":10762,"ĠBehavior":10763,"Ġvision":10764,"Ġfine":10765,"graph":10766,"Ġhour":10767,"ĠKingdom":10768,"Ġtrain":10769,"Ġmid":10770,"Ġdetected":10771,"oding":10772,"ĠResource":10773,"ĠTaiwan":10774,"stance":10775,"Ġbehind":10776,"Gh":10777,"Ġbecame":10778,"ĠYa":10779,"Ġakademik":10780,"Ġbagaimanapun":10781,"Ġseem":10782,"Create":10783,"Ġcircuit":10784,"rul":10785,"Ġrepresented":10786,"ĠOverview":10787,"GS":10788,"Ġalgorithms":10789,"plement":10790,"lab":10791,"Ġoffic":10792,"respons":10793,"abalu":10794,"Ġmun":10795,"erhana":10796,"Ġimpacts":10797,"Ġstory":10798,"Ġberasaskan":10799,"ä»ĸçļĦ":10800,"Ġinvolve":10801,"Ø§Ø¡ÙĬÙĤ":10802,"ÙĪÙĨÚĨ":10803,"é¤":10804,"Ġsequence":10805,"Ne":10806,"ĠLast":10807,"cium":10808,"respect":10809,"Ġstrategi":10810,"ÙĬÙĤ":10811,"å°į":10812,"arp":10813,"ĠÚ¤ÙĦØ§Ø¬Ø±":10814,"Li":10815,"Ø§ØŃ":10816,"Ġaccordance":10817,"rees":10818,"ÙĪÙħØ¨":10819,"ĠKhan":10820,"ipta":10821,"Ġprinciple":10822,"Ġtindakan":10823,"ĠmL":10824,"Ġovercome":10825,"EVEL":10826,"seperti":10827,"Ġpred":10828,"Ġloyalty":10829,"è£ħ":10830,"Ġcombined":10831,"Ġdatas":10832,"Ø§Ø¨ÙĬÙĦØ§":10833,"åŁº":10834,"Selain":10835,"Ġadsorb":10836,"Ġelektr":10837,"activities":10838,"Ġmmg":10839,"acterial":10840,"Ġintervention":10841,"leks":10842,"rium":10843,"ĠSize":10844,"ampaikan":10845,"Ġotherwise":10846,"sort":10847,"ĠONE":10848,"reet":10849,"ĠDisember":10850,"ĠIns":10851,"ĠLik":10852,"Ġbelajar":10853,"Ġrule":10854,"clusions":10855,"********":10856,"ĠKab":10857,"è®º":10858,"ĠPakistan":10859,"orneo":10860,"Ġworkplace":10861,"ĠDato":10862,"è¨Ģ":10863,"Ġcomprehensive":10864,"rick":10865,"Ret":10866,"Ġwent":10867,"Ġanxiety":10868,"Ġperat":10869,"ĠHydro":10870,"Ġbusinesses":10871,"km":10872,"ocomp":10873,"Ġcentre":10874,"ĠHo":10875,"Ġconsideration":10876,"people":10877,"ved":10878,"-%":10879,"UJ":10880,"Ġscreen":10881,"ĠDistribution":10882,"latest":10883,"ĠRole":10884,"Ġkembali":10885,"Ġbarat":10886,"Ġcov":10887,"ïīģ":10888,"Ġsekarang":10889,"wat":10890,"Ġeight":10891,"angkat":10892,"Ġkeluar":10893,"ĠDue":10894,"Ġconnect":10895,"Vari":10896,"oday":10897,"Ø§ÙĦØª":10898,"High":10899,"Ġmakan":10900,"ĠReliability":10901,"ungguh":10902,"Ġmeasuring":10903,"mercial":10904,"Ġoccurred":10905,"HR":10906,"Ġpharm":10907,"Ġproducing":10908,"ivalent":10909,"wid":10910,"Ø§ÙĤ":10911,"adangkan":10912,"Ġchanged":10913,"Ġjuta":10914,"ĠJob":10915,"ball":10916,"129":10917,"mult":10918,"æ¢":10919,"å®¢":10920,"Ø¬Úł":10921,"uits":10922,"ington":10923,"Ġsin":10924,"ĠJadual":10925,"æ¬¾":10926,"ERIAL":10927,"Ġmaster":10928,"Ġlic":10929,"Ġmeningkat":10930,"Ġ103":10931,"016":10932,"ĠHard":10933,"ĠPD":10934,"success":10935,"ĠTUN":10936,"ĠÚĨÙĬÙĨØ§":10937,"ĠBay":10938,"consum":10939,"rypt":10940,"Ġavailability":10941,"ogy":10942,"rs":10943,"ĠTop":10944,"ALAN":10945,"Ġcomplic":10946,"estab":10947,"holders":10948,"Ġflav":10949,"èĢĥ":10950,"Ġapproximately":10951,"mp":10952,"mempunyai":10953,"Ġdrive":10954,"FD":10955,"ĠACCOUNT":10956,"Ġrock":10957,"ĠSmall":10958,"Ġultr":10959,"ä¸ĩ":10960,"ĠLeadership":10961,"ĠDevelop":10962,"osan":10963,"ĠÙħÙĪÙĦØ§":10964,"aceutical":10965,"Ġfungsi":10966,"Ġvictim":10967,"Cite":10968,"aksa":10969,"oster":10970,"ierarch":10971,"Ġriver":10972,"Ġpasaran":10973,"Ġtermin":10974,"idents":10975,"ether":10976,"èĭ±":10977,"ĠØ§ÙĬØ±":10978,"apted":10979,"ĠRiver":10980,"oration":10981,"ÙĪØ¯ÙĪÙĤ":10982,"ĠBI":10983,"Ġupdate":10984,"onesian":10985,"uthent":10986,"Ġ_":10987,"second":10988,"olehkan":10989,"Ġperbandaran":10990,"ĠÚĨÙĬ":10991,"Ġdiabetes":10992,"Ø³Ø§ÙĨ":10993,"005":10994,"Ker":10995,"Ġencouragement":10996,"ulin":10997,"Ġzero":10998,"ĠRegression":10999,"ĠElectrical":11000,"GRO":11001,"Ġmemahami":11002,"Se":11003,"sens":11004,"Ġringk":11005,"abung":11006,"strak":11007,"ĠThrough":11008,"Ġ105":11009,"ĠØ§Ú¤Ø§Ø¨ÙĬÙĦØ§":11010,"YW":11011,"Ġmencari":11012,"Ġ110":11013,"ĠSatisfaction":11014,"tober":11015,"ĠÚ¤ÙĪÙĦÙĬ":11016,"empatan":11017,"æĬķ":11018,"akh":11019,"ÙĩÙĥÙĨ":11020,"ĠSecurity":11021,"Elect":11022,"131":11023,"ĠBul":11024,"Learning":11025,"003":11026,"Ġmenyediakan":11027,"Ġsolvent":11028,"Public":11029,"Ġhaz":11030,"Ġmenerusi":11031,"ĠØ§Ø®ÙĬØ±":11032,"ga":11033,"associ":11034,"ĠÙħÙĨØ¬":11035,"Ġminyak":11036,"Ġdescribe":11037,"Ġguidelines":11038,"Ġtetap":11039,"ĠÙĨÙĬ":11040,"Ġforec":11041,"AYA":11042,"æį¢":11043,"Ġindicators":11044,"ä¿®":11045,"amalkan":11046,"higher":11047,"PV":11048,"ĠOur":11049,"lif":11050,"right":11051,"ÙĦÙĬÙĩÙĨ":11052,"hasilan":11053,"ĠEmp":11054,"last":11055,"ulah":11056,"ĠCD":11057,"ĠDay":11058,"agon":11059,"Val":11060,"incipal":11061,"gh":11062,"Ġ978":11063,"ĠMaz":11064,"Environment":11065,"ĠLinks":11066,"Tel":11067,"Ġmanaging":11068,"Ġcourses":11069,"values":11070,"radi":11071,"ĠLocal":11072,"åķĨ":11073,"Ġinsurance":11074,"Ġaware":11075,"é£İ":11076,"WAR":11077,"pet":11078,"ĠIND":11079,"should":11080,"ĠDia":11081,"åĽ¾":11082,"ĠMo":11083,"å¤Ħ":11084,"onomy":11085,"studies":11086,"trad":11087,"Ġremains":11088,"ĠAH":11089,"ÙĪÙĨØ¯":11090,"Ġemployment":11091,"Ġadmin":11092,"iyyah":11093,"Ġfizikal":11094,"Ġsystematic":11095,"meas":11096,"é£Ł":11097,"sized":11098,"ĠSams":11099,"ipedia":11100,"ĠHERE":11101,"onents":11102,"ĠThree":11103,"impulan":11104,"fac":11105,"ĠCop":11106,"æĶ¯":11107,"Wan":11108,"Ġcourt":11109,"ï¿½ï¿½ï¿½ï¿½ï¿½ï¿½":11110,"')":11111,"Ġcitizens":11112,"good":11113,"ĠMur":11114,"Ġaward":11115,"113":11116,"ĠIV":11117,"hematic":11118,"Gu":11119,"ĠÎ¼":11120,"tan":11121,"ç«Ļ":11122,"ĠUjian":11123,"eller":11124,"lina":11125,"Useful":11126,"anguages":11127,"Ġmill":11128,"Ġwastewater":11129,"osses":11130,"ØŃÙĬ":11131,"Furthermore":11132,"Ġyouth":11133,"Ġstream":11134,"Ú¤ÚłÙĨ":11135,"Ġcapabilities":11136,"asier":11137,"åħ¶å®ŀ":11138,"Acknowledg":11139,"Ġencourage":11140,"Ġmalam":11141,"åĽĽ":11142,"Ġfields":11143,"Ġeveryone":11144,"äº«":11145,"Ġsupports":11146,"ĠSUM":11147,"Ġexercise":11148,"ĠBanking":11149,"dd":11150,"Ġmessage":11151,"Ġacknowledged":11152,"ceive":11153,"å®Ŀ":11154,"Hal":11155,"Ġintroduction":11156,"ïĢł":11157,"ĠTidak":11158,"Ġneighb":11159,"urik":11160,"pects":11161,"Ġfile":11162,"ĠKerajaan":11163,"ØªØª":11164,"istingu":11165,"plicit":11166,"ona":11167,"Ġdesa":11168,"004":11169,"egang":11170,"Ġ125":11171,"Ġenzyme":11172,"Har":11173,"Ġcenter":11174,"ĠÙħÙĪØ¯":11175,"Che":11176,"System":11177,"ĠÚ¤Ø±Ùħ":11178,"masyarakat":11179,"Ġslightly":11180,"weet":11181,"ekutuan":11182,"ansion":11183,"entation":11184,"aly":11185,"çļĦæĺ¯":11186,"aver":11187,"ĠØº":11188,"Cons":11189,"Ġkereta":11190,"Ø¯ÙĬÙĤÙĨ":11191,"ĠOs":11192,"Ġha":11193,"ĠGoogle":11194,"çīĪ":11195,"asaan":11196,"ĠØ³ÙħØ§Ø³":11197,"otes":11198,"Yes":11199,"åĹ":11200,"ukti":11201,"ivari":11202,"antikan":11203,"118":11204,"Ġcrack":11205,"ĠSWT":11206,"Ġformer":11207,"ĠØ§ÙĦÙĥ":11208,"kenalkan":11209,"ĠCommunity":11210,"Ġfundamental":11211,"Ġinfrastructure":11212,"ĠØ¯ØªÙĪ":11213,"ticles":11214,"135":11215,"Ġmenjelaskan":11216,"Ġkawalan":11217,"Ġcuba":11218,"Can":11219,"ĠØ¨Ø±ÙĬ":11220,"Ġhendak":11221,"Ġleader":11222,"mur":11223,"Ø¬Ùĩ":11224,"labor":11225,"Ġianya":11226,"Ġpriv":11227,"èĮ":11228,"Ġcontents":11229,"ĠÛıÙĬ":11230,"ĠScient":11231,"ĠÙĥÙħØ§":11232,"News":11233,"ĉčĠ":11234,"Ġprevalence":11235,"ux":11236,"Ġincorpor":11237,"Ġextra":11238,"çĹħ":11239,"onus":11240,"utup":11241,"Ġtensile":11242,"Ġste":11243,"ymers":11244,"Ġmechanisms":11245,"Ġbil":11246,"Ġanalyze":11247,"Ġenhanced":11248,"119":11249,"nn":11250,"abar":11251,"ski":11252,"function":11253,"Ġdistribut":11254,"Ġspeech":11255,"Ġinteractions":11256,"Ġfinancing":11257,"ELOR":11258,"é¡¶":11259,"ĠSarjana":11260,"Ġmemang":11261,"Thank":11262,"ĠSpect":11263,"Ġbeginning":11264,"agangan":11265,"FB":11266,"Ġfoot":11267,"treated":11268,"Ġconductivity":11269,"terhadap":11270,"Ġsuppl":11271,"Ø¬Ø¯":11272,"uni":11273,"ĠSuh":11274,"014":11275,"æĶ¹":11276,"ĠSU":11277,"ĠThesis":11278,"Ġexcess":11279,"ä¸Ģæł·":11280,"ĠEvidence":11281,"Ġrough":11282,"Ġretail":11283,"Ġwalk":11284,"jected":11285,"Ġmemory":11286,"Ġacids":11287,"Ġ118":11288,"ĠÙĩÙĬÚłÚ¬":11289,"ĉčĠÂł":11290,"Corresponding":11291,"irements":11292,"Ġethical":11293,"Ú¤ÙĪÙĨ":11294,"Ġdouble":11295,"ĠØ±Ø§ÙĬ":11296,"uktikan":11297,"Ġgrant":11298,"Ġberc":11299,"ĠØ¬Ø±":11300,"omer":11301,"Ġĉ":11302,"Ø¯ÙĬÙĨ":11303,"current":11304,"Ġmanner":11305,"lets":11306,"awati":11307,"Ġinterests":11308,"Serv":11309,"apchat":11310,"tw":11311,"Ġprobably":11312,"ĠImage":11313,"PEN":11314,"Ġconven":11315,"Ġcrude":11316,"Ġtrial":11317,"Ġmodule":11318,"ĠCa":11319,"Ġmuda":11320,"Ġkons":11321,"DL":11322,"ROME":11323,"Ġexperiments":11324,"Ġfract":11325,"iece":11326,"eluaran":11327,"Ġcerita":11328,"ĠMark":11329,"ĠHuss":11330,"file":11331,"LAM":11332,"yam":11333,"Ġimplications":11334,"========":11335,"ĠCREATE":11336,"Ġsend":11337,"Ġcement":11338,"recordRank":11339,"Ġdpt":11340,"asma":11341,"Ġmodeling":11342,"Ġrawatan":11343,"scape":11344,"ïĢŃ":11345,"Ġterima":11346,"ĠĠĠĠĠĠĠĠĠĠĠĠĠĠĠĠĠĠĠĠĠĠĠĠĠĠĠĠĠĠĠĠĠĠĠĠĠĠĠĠĠĠĠĠĠĠĠĠĠĠĠĠĠĠĠĠĠĠĠĠĠĠĠĠĠĠĠĠĠĠĠĠĠĠĠĠĠĠĠĠĠĠĠĠĠĠĠĠĠĠĠĠĠĠĠĠ":11347,"olehan":11348,"Ġhighlighted":11349,"Ġagak":11350,"agaimana":11351,"Ġsedang":11352,"vere":11353,"iday":11354,"Ø³ÙĬÙĨ":11355,"112":11356,"icrobial":11357,"Ġcat":11358,"emua":11359,"unjuk":11360,"116":11361,"ACKNOWLEDGEMENTS":11362,"PN":11363,"ĠChrist":11364,"Ġduit":11365,"Ġjen":11366,"ĠBachelor":11367,"Information":11368,"ognition":11369,"ampiran":11370,"Ġpon":11371,"ĠPAGE":11372,"bo":11373,"è®²":11374,"science":11375,"Ġâī¤":11376,"agen":11377,"cohol":11378,"opol":11379,"Ġdijadikan":11380,"prop":11381,"Ġterl":11382,"embang":11383,"Ġvacc":11384,"approach":11385,"ĠRequ":11386,"ĠÙĦØ§Ú¬ÙĪ":11387,"isian":11388,"ĠâĪļ":11389,"Ġconcerned":11390,"ĠØ§ÙĬÙĨØ¯ÙĬØ§":11391,"ĠAvailable":11392,"Ġalumin":11393,"éŁ³":11394,"Ġverb":11395,"Ġintent":11396,"ÙĪÚ¬ÙĬ":11397,"Ġdocuments":11398,"tel":11399,"ORS":11400,"å¼ł":11401,"Ġcompleting":11402,"asy":11403,"ĠChem":11404,"ĠSTR":11405,"Ġteks":11406,"againya":11407,"ðĿĲ¸":11408,"enewable":11409,"ĠKon":11410,"Ġupper":11411,"Ġafford":11412,"ontal":11413,"amic":11414,"target":11415,"Ġexperts":11416,"ĠManager":11417,"eties":11418,"Ġleaf":11419,"Ġrats":11420,"ÙĥØ§ÙĨ":11421,"ĠEC":11422,"Ġease":11423,"ç«ĭ":11424,"Ð°":11425,"ĠTimur":11426,"athy":11427,"'.":11428,"117":11429,"æĭī":11430,"scale":11431,"CiD":11432,"Ġdiperolehi":11433,"Ġspectrum":11434,"fit":11435,"ĠCovid":11436,"earches":11437,"Ġcollaboration":11438,"ĠHa":11439,"ultane":11440,"Work":11441,"adat":11442,"ayakan":11443,"Ġinfluences":11444,"ĠRate":11445,"ĠSatu":11446,"ĠSebagai":11447,"ĠÙħÙĤ":11448,"insic":11449,"ails":11450,"Ġlost":11451,"Ġsedikit":11452,"juga":11453,"Ġatm":11454,"æļ":11455,"TQ":11456,"Ġ115":11457,"æĻļ":11458,"isu":11459,"Ġsurat":11460,"Ġberkata":11461,"CLICK":11462,"asil":11463,"Ġtun":11464,"ĠØ¯ÙĬØ³Ø§":11465,"ĠPhase":11466,"Hi":11467,"ĠØ³ÙĬØ³":11468,"Ġcreation":11469,"ĠArea":11470,"Ġdh":11471,"sites":11472,"unyi":11473,"triev":11474,"Ġmembaca":11475,"Ġpencapaian":11476,"Ġdetermination":11477,"Ġgaya":11478,"Ġhabit":11479,"Na":11480,"ustaka":11481,"ĠAdvanced":11482,"idge":11483,"Ġisolated":11484,"ĠJapanese":11485,"going":11486,"Ġrecently":11487,"Ġdespite":11488,"Ġign":11489,"olej":11490,"Ġpoverty":11491,"SHER":11492,"ĠPercentage":11493,"ĠØ¨ÙĬØ§Ø³":11494,"usun":11495,"Ġbrief":11496,"Ġ117":11497,"ĠUV":11498,"researchgate":11499,"ÙĪÙĥÙĪ":11500,"é»ĳ":11501,"âĢ²":11502,"Ø³ÙĬÙħ":11503,"Ġscreening":11504,"Ġmoderate":11505,"ØªÙĪØ±":11506,"Ġberter":11507,"Ġ119":11508,"Ġsektor":11509,"acaan":11510,"Ġsymptoms":11511,"Ø³Ùĥ":11512,"ĠPhD":11513,"ĠRO":11514,"energy":11515,"Å«":11516,"ĠSaid":11517,"Ġsmooth":11518,"ombor":11519,"inson":11520,"ÙĦØ§ÙĨ":11521,"ĠAccoun":11522,"Ġheter":11523,"she":11524,"insular":11525,"thome":11526,"Ġtelev":11527,"properties":11528,"Ġmeasurements":11529,"Ġcolle":11530,"Ġalone":11531,"maj":11532,"ĠSurface":11533,"æĸ¯":11534,"Ġkor":11535,"idae":11536,"ĠÙħÚłÚ¬ÙĪÙĨØ§ÙĥÙĨ":11537,"ĠæĪĳ":11538,"Ġstabil":11539,"DOI":11540,"Ġmemilih":11541,"ðĿĲ¹":11542,"åĦ¿":11543,"SHERPA":11544,"Ġexcellent":11545,"Ġrespective":11546,"ĠBt":11547,"è®¡":11548,"Snapchat":11549,"æķ´":11550,"Ġtingkah":11551,"INAL":11552,"ĠInst":11553,"MyCite":11554,"ersion":11555,"ROMEO":11556,"ORCiD":11557,"IRep":11558,"OGR":11559,"SW":11560,"ĠÙĪØ§ÙĦØ§ÙĪ":11561,"ĠAccounthome":11562,"ĠACCOUNTLogin":11563,"Ø¨Øª":11564,"uasa":11565,"Ø§ÙĪØªÙĨ":11566,"ĠMD":11567,"ĠInfluence":11568,"dib":11569,"ĠDescriptive":11570,"PAR":11571,"ĠØ§Ø³Øª":11572,"location":11573,"ĠSyariah":11574,"ðĿĲ·":11575,"Ãī":11576,"ship":11577,"Ġtalian":11578,"Ġbeyond":11579,"è¿Ĳ":11580,"ensation":11581,"Ġcreat":11582,"Ġcontroller":11583,"Ġmoisture":11584,"rome":11585,"Meng":11586,"ÙĦÙĬØ©":11587,"Ġoperational":11588,"faktor":11589,"consist":11590,"Ġmengan":11591,"ä¹ħ":11592,"Ġbay":11593,"kat":11594,"Ġhampir":11595,"Ġvill":11596,"positive":11597,"Ġconference":11598,"Ġdispers":11599,"ĠPCR":11600,"Ġaimed":11601,"ousing":11602,"Ġsul":11603,"å¼º":11604,"Ġmarg":11605,"ĠÙĪØ£":11606,"Ġlimitations":11607,"äºĶ":11608,"450":11609,"å¸ĮæľĽ":11610,"Abd":11611,"yse":11612,"unga":11613,"Ġobjektif":11614,"Ġdiperlukan":11615,"ĠØ³ÙĪÚł":11616,"Ġchance":11617,"Ġleave":11618,"Ġpekerjaan":11619,"ĠHak":11620,"Ø§ÙĦÙĬÚł":11621,"communication":11622,"åĮº":11623,"Ġbeam":11624,"çģ«":11625,"ĠÚ¤ÙħØ§":11626,"å¤Ł":11627,"kamah":11628,"zen":11629,"âĢ¦.":11630,"ĠAfrica":11631,"libatan":11632,"Ġago":11633,"Ġgrate":11634,"Ġ1984":11635,"ano":11636,"venue":11637,"ĠÙĩØ§Ú½":11638,"esting":11639,"ĠAnother":11640,"hidmat":11641,"Meanwhile":11642,"ĠJanuari":11643,"ç®¡":11644,"Ġtrying":11645,"unaan":11646,"ardi":11647,"Ġproven":11648,"èģĶ":11649,"ĠÙĦØ§Ú¬ÙĬ":11650,"Lee":11651,"igration":11652,"Ġreform":11653,"ĠKL":11654,"åĪļ":11655,"å·´":11656,"ĠÙĥØ§Ø¨":11657,"ĠChange":11658,"FIG":11659,"Ġspeak":11660,"Ġmengkaji":11661,"continu":11662,"effective":11663,"ailed":11664,"Ġtal":11665,"ÙĦÙģ":11666,"Ġplaces":11667,"Ġsquare":11668,"engar":11669,"avity":11670,"indak":11671,"ÙĬÙĥÙĪØª":11672,"Ġbottom":11673,"Ġassay":11674,"Ø²ÙĬÙĥ":11675,"size":11676,"Ġexport":11677,"Ġnitrogen":11678,"Ġweld":11679,"Ġsensitivity":11680,"Ġkuat":11681,"rupt":11682,"omic":11683,"dari":11684,"help":11685,"ĠÙ¨":11686,"itoring":11687,"Ġbersifat":11688,"Ġwarga":11689,"nership":11690,"ĠØ¬ÙĬÚ¤ÙĪÙĨ":11691,"ematik":11692,"Ġcapable":11693,"ĠÚ¬Ø±":11694,"jazah":11695,"Ġlargest":11696,"ĠContent":11697,"åįĬ":11698,"chmark":11699,"agers":11700,"AE":11701,"Ġexc":11702,"ç¢":11703,"Ġmuka":11704,"ĠÙī":11705,"MIS":11706,"Ġtgk":11707,"ked":11708,"Ġvector":11709,"Ġdirectors":11710,"ĠFore":11711,"enomen":11712,"Ġpredicted":11713,"Ġkamu":11714,"tersebut":11715,"ĠHistory":11716,"ĠÙ¡Ù©Ù¨":11717,"Ġcentury":11718,"ĠRef":11719,"OW":11720,"Ġmemenuhi":11721,"ĠCommission":11722,"ĠJerman":11723,"Ġwang":11724,"æ³¨":11725,"ĠUMNO":11726,"ĠCode":11727,"udi":11728,"ÙĬØ¯ÙĪÚ¤":11729,"Ġutara":11730,"ampak":11731,"Ø³ÙĬØ³":11732,"ĠDarul":11733,"Ġglucose":11734,"Ġtekanan":11735,"ayers":11736,"Ġcellulose":11737,"á¹":11738,"ĠNasional":11739,"Ġregul":11740,"riction":11741,"isease":11742,"æĢķ":11743,"Ġdaya":11744,"ercayaan":11745,"ĠÙħØ´":11746,"Ġconsult":11747,"Ġinfluencing":11748,"Ġowner":11749,"fri":11750,"inline":11751,"bid":11752,"Ġvirtual":11753,"arity":11754,"orong":11755,"Ġpengaruh":11756,"ĠDATA":11757,"aupun":11758,"Ġphenomenon":11759,"ĠSecara":11760,"Ġsav":11761,"ĠSingh":11762,"etik":11763,"Zh":11764,"Ġtoler":11765,"Ġshear":11766,"SHIP":11767,"ĠABD":11768,"focus":11769,"asional":11770,"Ġsummary":11771,"ĠPerlis":11772,"Er":11773,"ĠØ§ÙĪØ±":11774,"ĠTiO":11775,"ĠKad":11776,"ĠÚ¤ÙĪÚ¤":11777,"Ġnode":11778,"éĢł":11779,"MARY":11780,"Ġdahulu":11781,"etics":11782,"email":11783,"ĠER":11784,"itations":11785,"ÙĬØ±ÙĨ":11786,"Ġdies":11787,"Fr":11788,"KAN":11789,"ĠÙħÙĨØ¯":11790,"Time":11791,"core":11792,"ĠStrategy":11793,"ãĢĤâĢĿ":11794,"çª":11795,"itled":11796,"ĠAccounts":11797,"Ġmand":11798,"Ġhol":11799,"Ġequations":11800,"English":11801,"Ġiron":11802,"ĠPredict":11803,"Ġreality":11804,"Ġwaqf":11805,"BE":11806,"anna":11807,"Ġperhatian":11808,"Ġtourists":11809,"kl":11810,"ĠLin":11811,"Ġcoating":11812,"Ġshopping":11813,"Sy":11814,"126":11815,"ĠSCI":11816,"Av":11817,"Ġsew":11818,"pand":11819,"itt":11820,"124":11821,"ĠTs":11822,"Ġboundary":11823,"Ġlives":11824,"å¥½åĥı":11825,"Ġselling":11826,"Ø³ÙĥÙĨ":11827,"what":11828,"umbangan":11829,"Ø¯ÙĬØ«":11830,"Ġcompletion":11831,"Ġid":11832,"ĠÙħÙħØ¨ÙĨ":11833,"Ġcooling":11834,"imicrobial":11835,"ĠFindings":11836,"awarkan":11837,"Ġideal":11838,"Ġpesakit":11839,"Ġkertas":11840,"................................................................................................":11841,"Ġkursus":11842,"åĳ½":11843,"tir":11844,"Ġtentera":11845,"Ġconsidering":11846,"cribed":11847,"cik":11848,"Ġtradisional":11849,"Ġagricultural":11850,"ĠØ³ØªØ§":11851,"ĠHotel":11852,"Ġjur":11853,"ĠOgos":11854,"OO":11855,"ĠÐ":11856,"amakan":11857,"Ġec":11858,"1986":11859,"ĠBaru":11860,"é¦ĸ":11861,"800":11862,"berita":11863,"ĠSpace":11864,"Ġlatest":11865,"atically":11866,"Ġpemikiran":11867,"Ġreturns":11868,"ĠQual":11869,"irms":11870,"Ġsurvival":11871,"igious":11872,"Ġdescriptive":11873,"Ġregulations":11874,"food":11875,"including":11876,"dris":11877,"Ġlingu":11878,"Ġfraud":11879,"Ġnumerous":11880,"itable":11881,"Eds":11882,"urunan":11883,"concept":11884,"urikulum":11885,"ĠDom":11886,"ĠØŃÙĬ":11887,"Ġadults":11888,"ðĿĳĨðĿĳĨ":11889,"growth":11890,"Ġharta":11891,"ISBN":11892,"esaikan":11893,"ĠCross":11894,"Ġvisit":11895,"âĢ¦âĢ¦âĢ¦âĢ¦âĢ¦âĢ¦âĢ¦âĢ¦âĢ¦âĢ¦âĢ¦âĢ¦âĢ¦âĢ¦âĢ¦âĢ¦âĢ¦âĢ¦âĢ¦âĢ¦":11896,"Ġterkenal":11897,"mu":11898,"andung":11899,"Ġ130":11900,"çķĻ":11901,"ĠJulai":11902,"Ø±Ø§Ùħ":11903,"Cross":11904,"industry":11905,"Ġmineral":11906,"å¼Ģå§ĭ":11907,"oved":11908,"Ġdesired":11909,"OLS":11910,"Ġframe":11911,"ĠGDP":11912,"Ø°ÙĬ":11913,":-?":11914,"arc":11915,"imer":11916,"academic":11917,"Online":11918,"åĮ»":11919,"Ġpersonality":11920,"Part":11921,"Ġbalas":11922,"Ġconcerns":11923,"others":11924,"è¿ĻéĩĮ":11925,"ecause":11926,"ĠPalm":11927,"atangan":11928,"ĠAnnual":11929,"Ġ140":11930,"Ø¨ÙĦ":11931,"åıĸ":11932,"hard":11933,"Ġradiation":11934,"ubric":11935,"ĠCustomer":11936,"orders":11937,"Ġtung":11938,"ĠMOHD":11939,"ÙĬÙĨÙĨ":11940,"ç¬ĳ":11941,"Ġdye":11942,"agnetic":11943,"ĠWalau":11944,"stantial":11945,"ITI":11946,"Ġwife":11947,"onial":11948,"Ġdepending":11949,"Ġadequate":11950,"ĠRash":11951,"Ġscientific":11952,"istration":11953,"Ġdepartment":11954,"æĢİä¹Ī":11955,"Ġlaser":11956,"Thanks":11957,"Nz":11958,"ĠBur":11959,"ĠÙĴ":11960,"Ġ**":11961,"ĠBahagian":11962,"Ġequity":11963,"Ġentrepreneurial":11964,"Ġinterested":11965,"Ġbangsa":11966,"ONS":11967,"environmental":11968,"affect":11969,"Ġentrepreneurs":11970,"æł¹":11971,"ä¸ľè¥¿":11972,"ĠOktober":11973,"cious":11974,"ĠCampus":11975,"ĠÙĦÙĪØ§Ø±":11976,"force":11977,"eberapa":11978,"Ġvan":11979,"person":11980,"commod":11981,"Ġpenulisan":11982,"ĠLo":11983,"ivated":11984,"network":11985,"Ġforces":11986,"ä½łä»¬":11987,"ÙĬÙĨØªØ§":11988,"Ġ600":11989,"look":11990,"Mz":11991,"Ġtrig":11992,"Ġhelping":11993,"Ġearnings":11994,"Janu":11995,"Ġflat":11996,"ĠPhysics":11997,"uanya":11998,"çĬ":11999,"kn":12000,"Ġlaws":12001,"Amer":12002,"ÙĪÙĦÙĪ":12003,"Ġju":12004,"ĠGold":12005,"Ġmelaksanakan":12006,"Ġtherapy":12007,"ĠSeni":12008,"acts":12009,"ebr":12010,"organization":12011,"otics":12012,"ĠBerhad":12013,"Ġtrack":12014,"understanding":12015,"National":12016,"ĠÚ¤ÙĪÙĦØ§ÙĪ":12017,"Ġ113":12018,"bang":12019,"World":12020,"Ġakibat":12021,"Ġcarb":12022,"eman":12023,"146":12024,"Ġpo":12025,"ç¬¬ä¸Ģ":12026,"Ġfrequently":12027,"Ġentrepreneurship":12028,"esuaian":12029,"ĠReal":12030,"Ġappoint":12031,"ĠImprov":12032,"Ø§ÙĦÙĪØ¡ÙĬ":12033,"aven":12034,"Ġshap":12035,"ä¸ĢäºĽ":12036,"Ġpresentation":12037,"å¥½çļĦ":12038,"Ġworldwide":12039,"Master":12040,"would":12041,"them":12042,"ä¸Ģå®ļ":12043,"Ã³":12044,"Oz":12045,"kt":12046,"æ¶Ī":12047,"acob":12048,"Ġtransformation":12049,"Ġbeliefs":12050,"ĠĠĠĠĊ":12051,"hubung":12052,"etengah":12053,"ĠCur":12054,"LITERATURE":12055,"akili":12056,"ĠSG":12057,"å¤±":12058,"Ġ1983":12059,"Ġspend":12060,"ĠQur":12061,"ĠØ¯Ú¤Ø±":12062,"Ġkm":12063,"concentration":12064,"ASA":12065,"ÙĦØ³Ø§ÙĦÙħ":12066,"oys":12067,"Ġaqu":12068,"Ġtinggal":12069,"ĠAccess":12070,"clusive":12071,"ISTR":12072,"Ġkt":12073,"ĠØªÙĪ":12074,"Ú¬Ø§":12075,"plf":12076,"æģ¯":12077,"carbon":12078,"Ġtold":12079,"Ġfert":12080,"ĠSistem":12081,"ĠNabi":12082,"ÙĹ":12083,"articular":12084,"Ġbiodies":12085,"grade":12086,"pop":12087,"Ġparas":12088,"ĠÚ¤Ùħ":12089,"ĠSampling":12090,"Ġeasier":12091,"Mohamad":12092,"ĠÙĤØ¯":12093,"é¾":12094,"Ġtesis":12095,"*,":12096,"sot":12097,"Article":12098,"ders":12099,"Ġhyd":12100,"ĠTrad":12101,"osphere":12102,"Ġmatch":12103,"ĠPutra":12104,"Ġhuge":12105,"Ġbermaksud":12106,"ĠBehaviour":12107,"Ø§ØªÙĬÙĨ":12108,"stand":12109,"ito":12110,"ACHELOR":12111,"rik":12112,"ÙİÙİ":12113,"Ġpra":12114,"Maj":12115,"ĠError":12116,"La":12117,"Ġsolving":12118,"anth":12119,"ĠMaterial":12120,"ĠØ³ÙĬÚł":12121,"pass":12122,"language":12123,"utera":12124,"ĠWestern":12125,"Ġbiasanya":12126,"Ġadvanced":12127,"Ġ102":12128,"ØªÙĩ":12129,"121":12130,"liament":12131,"ĠBasic":12132,"ðĿĳģðĿĳģ":12133,"ĠTaman":12134,"Ġbuying":12135,"ĠDari":12136,"itif":12137,"Cent":12138,"ĠCond":12139,"Ġconversion":12140,"hot":12141,"Ġsukar":12142,"Ġneural":12143,"èĢĮä¸Ķ":12144,"æĩĤ":12145,"åı·":12146,"ISI":12147,"Ø§Ø¯ÙĨ":12148,"ĠTi":12149,"Ġmetabol":12150,"Ġlabour":12151,"ĠOffic":12152,"KK":12153,"Ġball":12154,"Ġmos":12155,"azil":12156,"ĠØ¹Ùħ":12157,"é©¬æĿ¥":12158,"Ġtheories":12159,"Ġdrugs":12160,"ĠKinabalu":12161,"arant":12162,"Ø»":12163,"atul":12164,"ĠMoney":12165,"ĠKomunikasi":12166,"surface":12167,"ĠStructural":12168,"ĠQuant":12169,"OME":12170,"ursing":12171,"loc":12172,"ĠKE":12173,"kesanan":12174,"ĠSeg":12175,"Ġconfig":12176,"Ġbul":12177,"Ġcel":12178,"Ġnodes":12179,"Ġremove":12180,"kk":12181,"ĠNg":12182,"olds":12183,"PERPUS":12184,"phone":12185,"/?":12186,"Ġpelaksanaan":12187,"ĠFamily":12188,"ĠKuantan":12189,"Ġextended":12190,"Ġabad":12191,"ĠOffice":12192,"annels":12193,"Ġfulfil":12194,"ĠJa":12195,"ivariate":12196,"increase":12197,"ĠMahm":12198,"oll":12199,"Ġarchitecture":12200,"ÙĦÙĬÙĥ":12201,"ĠTemperature":12202,"ĠCapital":12203,"itas":12204,"ĠTUNKU":12205,"Ġcalculation":12206,"ĠAmerica":12207,"Ġwish":12208,"ĠWomen":12209,"predict":12210,"Ġlangkah":12211,"ĠKomp":12212,"Ġbiodiesel":12213,"ĠMuz":12214,"Ø±ÙĬÙĤ":12215,"ðĿĲ¶ðĿĲ¶":12216,"ç±»":12217,"Ġtemperatures":12218,"122":12219,"rot":12220,"ensis":12221,"ĠIMP":12222,"Ġrunning":12223,"then":12224,"Ġdibina":12225,"ĠPath":12226,"tration":12227,"Ġdapatan":12228,"etak":12229,"ĠÚ¤ÙĨØ¯ÙĪØ¯ÙĪÙĤ":12230,"ĠIL":12231,"ĠÙħÙĦØ§ÙĦÙĪØ¡ÙĬ":12232,"Ġrespondent":12233,"Health":12234,"Ġperspectives":12235,"Conference":12236,"hetic":12237,"ĠSaudi":12238,"Ġmuzik":12239,"ĠØ¨ÙĪÙĦÙĨ":12240,"ĠTak":12241,"Ġfo":12242,"AME":12243,"Ġdeg":12244,"ĠBag":12245,"Ġpendapatan":12246,"Cu":12247,"ĠZulk":12248,"Ġinvent":12249,"ENTS":12250,"ĠBiom":12251,"Ġhealthcare":12252,"ĠKedua":12253,"ä¸įåĪ°":12254,"akwah":12255,"Ġreached":12256,"itioners":12257,"---":12258,"abs":12259,"illus":12260,"ĠRadi":12261,"Ġaliran":12262,"AHAN":12263,"roc":12264,"ĠSER":12265,"ifies":12266,"ĠKey":12267,"Ġsections":12268,"Ġpenilaian":12269,"tera":12270,"CIAL":12271,"Ġacknowledge":12272,"849":12273,"Ġbaharu":12274,"ytes":12275,"Ġash":12276,"ĠConsumer":12277,"MINAH":12278,"aras":12279,"TAKAAN":12280,"Ġdiagnosis":12281,"MAT":12282,"periment":12283,"Ġbagaimana":12284,"menunjukkan":12285,"Ġdun":12286,"ĠSulaiman":12287,"Ġcorresponding":12288,"Ġmusim":12289,"HAR":12290,"account":12291,"Ġaccum":12292,"abentuk":12293,"Performance":12294,"case":12295,"ĠJika":12296,"æŀĹ":12297,"Although":12298,"UG":12299,"ĠEnd":12300,"âĢĶâĢĶ":12301,"irc":12302,"Ġ107":12303,"ĠBN":12304,"!!!!":12305,"Ġacts":12306,"Ġinsp":12307,"Ġfacilitate":12308,"developed":12309,"Ġtell":12310,"akaran":12311,"eeds":12312,"Ġbergantung":12313,"å¦Ī":12314,"Ġwithdraw":12315,"derly":12316,"ectional":12317,"Ġapplying":12318,"Ġphases":12319,"Ġsupporting":12320,"ØªØ§Ø¨":12321,"ĠAff":12322,"udara":12323,"æ¹":12324,"Ġtube":12325,"Ġfacing":12326,"Ġtp":12327,"Ġsudut":12328,"oted":12329,"Ġml":12330,"á¸¥":12331,"Ġmengurangkan":12332,"kira":12333,"Ġasset":12334,"ovasi":12335,"dev":12336,"ĠWal":12337,"Ġoption":12338,"Ġgovern":12339,"åŁİ":12340,"é¸":12341,"Ġmenurut":12342,"Berdasarkan":12343,"Ġemission":12344,"1080":12345,"Ġsevere":12346,"Ġagencies":12347,"Â²":12348,"key":12349,"Ø³ÙĪ":12350,"ongly":12351,"Ġappar":12352,"ĠFurther":12353,"atuh":12354,"iplinary":12355,"ĠArticle":12356,"Ġconstructs":12357,"Ġringkas":12358,"dim":12359,"ĠMathematics":12360,"ĠPerpustakaan":12361,"Ġintelligence":12362,"ĠBre":12363,"ĠHel":12364,"Ġsometimes":12365,"Ġsekiranya":12366,"æĴ":12367,"ïĢ«":12368,"Ġcyt":12369,"ĠØ¡":12370,"ifference":12371,"èĳĹ":12372,"edded":12373,"Ġpembinaan":12374,"ĠViet":12375,"Ġinnovative":12376,"TP":12377,"Ġantarabangsa":12378,"ĠTool":12379,"Ġcommittee":12380,"Ġnormally":12381,"ĠÚ¬Øª":12382,"ĠØªÙĬÚ¬":12383,"çİĭ":12384,"Analysis":12385,"ĠML":12386,"ĠGovernance":12387,"Ġselain":12388,"Ġ123":12389,"144":12390,"Ġbatu":12391,"tah":12392,"Ġ1970":12393,"ä¸Ģä¸ĭ":12394,"ĠCentral":12395,"Shah":12396,"Ġjauh":12397,"åĲī":12398,"ibu":12399,"commerce":12400,"Ġli":12401,"ĠZainal":12402,"Ġmakna":12403,"Ø±ÙĬØ§":12404,"ĠSosial":12405,"INDINGS":12406,"Ġmaksud":12407,"Ġdiet":12408,"ĠBerdasarkan":12409,"1987":12410,"Ġpublication":12411,"ĠBatu":12412,"ĠZakaria":12413,"170":12414,"ĠPLAN":12415,"ĠNext":12416,"ä¹Ĳ":12417,"oking":12418,"ĠRuss":12419,"Ġclient":12420,"Ġauthority":12421,"å®³":12422,"ocon":12423,"Ġstand":12424,"ĠManufacturing":12425,"secara":12426,"Ġwhose":12427,"ĠBad":12428,"ĠÚ¤ÙĨØ¯ÙĬ":12429,"Ġfamil":12430,"ĠSmart":12431,"servation":12432,"sdt":12433,"Ġsains":12434,"real":12435,"ĠTax":12436,"rowave":12437,"Ġataupun":12438,"ä¹¦":12439,"139":12440,"è®®":12441,"ĠSPSS":12442,"éĤ£ä¸ª":12443,"ä¹Łä¸į":12444,"ĠÙħÙĦØ§ÙĬÙĪ":12445,"awapan":12446,"Ġ128":12447,"Ġsuperv":12448,"ĠØªØ§ÙĨÙĩ":12449,"ogeneous":12450,"___":12451,"dimensional":12452,"Knowledge":12453,"ambarkan":12454,"Ġsaiz":12455,"Ġtengah":12456,"Ġditerima":12457,"ÙĦØ§Ùĥ":12458,"Ġpub":12459,"Ġindirectly":12460,"NING":12461,"embahan":12462,"145":12463,"ĠSUMMARY":12464,"berk":12465,"both":12466,"ĠJaya":12467,"Ġwhereby":12468,"hamdul":12469,"cerning":12470,"Ġalign":12471,"Ġlinked":12472,"ĠJakarta":12473,"lines":12474,"Ġbrought":12475,"Ġexamples":12476,"akap":12477,"Ġgir":12478,"ĠØ¯Ø³ÙĬ":12479,"1985":12480,"BB":12481,"pun":12482,"inated":12483,"Ġdemographic":12484,"bahawa":12485,"Ø±Ø¯":12486,"ĠAy":12487,"towards":12488,"Ġaktif":12489,"ĠÙĥØ§":12490,"ĠEntrepreneurship":12491,"elihood":12492,"Ġextr":12493,"Ġtransition":12494,"Tan":12495,"Ġbattery":12496,"Event":12497,"åħĥ":12498,"antau":12499,"JECT":12500,"ĠDef":12501,"Where":12502,"ĠScale":12503,"ĠOverall":12504,"Ġplayer":12505,"igue":12506,"ĠÙħÚĨ":12507,"poss":12508,"Ġnur":12509,"athir":12510,"Ali":12511,"Ġplans":12512,"minat":12513,"Ġrecommendations":12514,"Ġanimal":12515,"Fakulti":12516,"illa":12517,"htar":12518,"imbangan":12519,"Ġrek":12520,"èĩªå·±çļĦ":12521,"EVELOP":12522,"each":12523,"ĠGas":12524,"itz":12525,"ĠÙĥØ§Ú¤":12526,"arding":12527,"folio":12528,"ega":12529,"Ġsn":12530,"ĠTuan":12531,"Ġdiadakan":12532,"ĠZnO":12533,"Ġmasjid":12534,"ĠKementerian":12535,"Ġmanual":12536,"tahun":12537,"Just":12538,"cing":12539,"apura":12540,"ĠUser":12541,"å£°":12542,"ĠKen":12543,"ĠØ¨Ø§ÙĦ":12544,"Ġformat":12545,"ĠSam":12546,"ĠStress":12547,"ju":12548,"Ġpos":12549,"ĠÚ¬ÙĬ":12550,"Ġregional":12551,"Ø±Ø³":12552,"Results":12553,"ðĿĳĢ":12554,"ĠEp":12555,"udian":12556,"Ġconducting":12557,"Ġtepat":12558,"cn":12559,"Ġmethanol":12560,"Ġgambar":12561,"application":12562,"body":12563,"syn":12564,"ubuhkan":12565,"ĠØ³Ø¬Ø§Ø±Ùĩ":12566,"Ø§ÙĨÙĬØªØ§":12567,"ĠTal":12568,"Ġmagnetic":12569,"uling":12570,"Ġmengetahui":12571,"Kuala":12572,"Ø±ÙĬÙĥÙĨ":12573,"ĠArchitecture":12574,"Ġmotion":12575,"Ġkhas":12576,"Ġbecoming":12577,"ĠMuhamad":12578,"ĠÙ¢ÙłÙ¢":12579,"ĠAny":12580,"Ġlag":12581,"uclear":12582,"Ġmembolehkan":12583,"Ġkhusus":12584,"ĠMC":12585,"Ġjustice":12586,"pus":12587,"Ġdose":12588,"aliknya":12589,"ĠHead":12590,"iers":12591,"Ġundert":12592,"first":12593,"Ġkebangsaan":12594,"ĠStar":12595,"ĠPeople":12596,"Findex":12597,"ĠFederal":12598,"ĠPhot":12599,"è«":12600,"ĠMeas":12601,"baga":12602,"intang":12603,"Keb":12604,"Ġtransportation":12605,"ĠUnderstanding":12606,"atih":12607,"ĠJan":12608,"Ġargued":12609,"åŀĭ":12610,"rain":12611,"Ġpenuh":12612,"Ġrecycl":12613,"ourney":12614,"Ġtechnological":12615,"åį¡":12616,"essions":12617,"Ġmedic":12618,"è¼":12619,"Ġ106":12620,"JQ":12621,"ĠBesar":12622,"ĠØ³ÙĪ":12623,"ĠHypothesis":12624,"Ø§Ø±Úł":12625,"characteristics":12626,"ĠBiology":12627,"stein":12628,"especially":12629,"NUR":12630,"Ø´ÙĨ":12631,"Ġradio":12632,"antic":12633,"Ġpemboleh":12634,"ustomers":12635,"ØŃØ§ØµÙĬÙĦ":12636,"Ġdifficulties":12637,"Ġstatistically":12638,"Ġwait":12639,"ĠSoil":12640,"ĠBangladesh":12641,"Ġperib":12642,"sing":12643,"éŃ":12644,"Ġminat":12645,"ĠPractices":12646,"Ġincub":12647,"Ġtapak":12648,"iaw":12649,"ĠCorporation":12650,"Ġacceptable":12651,"due":12652,"Ġrainfall":12653,"Fnews":12654,"yahoo":12655,"Ġaid":12656,"ĠÙĪØ§ÙĨÙĬØªØ§":12657,"å¿µ":12658,"Nurul":12659,"Ġvitro":12660,"ALA":12661,"Ø±Ø§ÙĨ":12662,"construct":12663,"Ġ104":12664,"itr":12665,"Ġcombustion":12666,"itamin":12667,"026":12668,"Ġpentadbiran":12669,"Ġsebagainya":12670,"Articles":12671,"FIGURE":12672,"ĠTheoretical":12673,"Ġngan":12674,"ipped":12675,"ĠØ¨Ø±Øª":12676,"aylor":12677,"ĠBU":12678,"July":12679,"Ġparticipate":12680,"Ġcoordin":12681,"Ġissu":12682,"angkumi":12683,"ĠThermal":12684,"ibraries":12685,"ikro":12686,"Ġenzym":12687,"efficacy":12688,"Sa":12689,"ĠCharacteristics":12690,"Ġrating":12691,"232":12692,"éº¼":12693,"aluan":12694,"Noor":12695,"åŃ©åŃĲ":12696,"guru":12697,"Besides":12698,"Ġsugar":12699,"ĠStrategic":12700,"ĠAverage":12701,"Ġproteins":12702,"Ġgenetic":12703,"astera":12704,"ĠWong":12705,"redit":12706,"ĠTransform":12707,"ĠME":12708,"Ġnaik":12709,"ĠØ§ÙĨØ¯":12710,"ĠWITH":12711,"izam":12712,"gin":12713,"Ġmodelling":12714,"ĠPEM":12715,"Ġoptical":12716,"Ġjump":12717,"ĠØ§ÙĬÙĥ":12718,"Ġdepict":12719,"ĠRasul":12720,"ĠKul":12721,"Ġrestaur":12722,"ÙĬØ±Ø§ÙĨ":12723,"January":12724,"Ġfailed":12725,"ĠØ¯Ø§Ú¤Øª":12726,"Ġsoon":12727,"Ġcreative":12728,"ĠDaerah":12729,"Ġikan":12730,"zan":12731,"services":12732,"ĠSimulation":12733,"Ġsomeone":12734,"Ni":12735,"Ġdepan":12736,"obility":12737,"Ġtor":12738,"ĠCambridge":12739,"Ġtitle":12740,"VD":12741,"Ġmaybe":12742,"Ġactivated":12743,"pektif":12744,"Ġround":12745,"åį´":12746,"Ġgam":12747,"ĠLat":12748,"ĠØ§ÙĦØ·":12749,"Ø¹Ùħ":12750,"Ġcrystall":12751,"relations":12752,"çı¾":12753,"ĠÙĢ":12754,"ĠBorneo":12755,"wiki":12756,"Ġbola":12757,"jo":12758,"æĿ¥çļĦ":12759,"é¦Ļ":12760,"ĠCT":12761,"Ġsummar":12762,"operasi":12763,"Ġmusic":12764,"ä¾Ľ":12765,"Ġmoving":12766,"ĠInform":12767,"respectively":12768,"ostic":12769,"Ġfinally":12770,"Ġcoverage":12771,"TIF":12772,"amping":12773,"vin":12774,"Ġanyone":12775,"Ġshift":12776,"Ġestimate":12777,"134":12778,"Ġcrop":12779,"ØªØ±Ø§":12780,"Ġnegatif":12781,"erkesanan":12782,"LY":12783,"ĠJusteru":12784,"Ġwireless":12785,"years":12786,"è¾¾":12787,"Ġready":12788,"ateral":12789,"Ġkategori":12790,"school":12791,"okus":12792,"alse":12793,"æĪĳæĺ¯":12794,"åįĥ":12795,"iro":12796,"abetic":12797,"Documents":12798,"ado":12799,"Ġsyarat":12800,"ikuti":12801,"Ġethics":12802,"Ġtab":12803,"Ġ00":12804,"roke":12805,"Ġvolat":12806,"136":12807,"ÙĪØ±Øª":12808,"Ġinstitutional":12809,"ç¦ı":12810,"Ġdistingu":12811,"Ġlecturer":12812,"ĠHid":12813,"è°ģ":12814,"bul":12815,"æ¦":12816,"Ġmonthly":12817,"Ġwet":12818,"Nov":12819,"Ġvul":12820,"Ġstatements":12821,"Ġfraction":12822,"Ġauthorities":12823,"inasi":12824,"Ġradical":12825,"Ġpermukaan":12826,"ĠTECHN":12827,"Ø¨ÙĥÙĨ":12828,"sin":12829,"satisfaction":12830,"category":12831,"ilib":12832,"phase":12833,"PG":12834,"Ġexact":12835,"Ġlif":12836,"Ġpossibility":12837,"Student":12838,"Ġions":12839,"ĠQuestions":12840,"ïĪłïĭ":12841,"Ġcurriculum":12842,"ĠPS":12843,"ĠPerson":12844,"Ġsiri":12845,"ĠSuch":12846,"ÙĦÙĥÙĨ":12847,"ĠPack":12848,"Ġexpectations":12849,"Dem":12850,"Ġtangan":12851,"191":12852,"ĠWiley":12853,"ĠPE":12854,"Mj":12855,"Ġabund":12856,"Ġ114":12857,"ahw":12858,"stitu":12859,"wikipedia":12860,"å¾Ģ":12861,"ĠOp":12862,"Ġmemperoleh":12863,"Qur":12864,"æİĴ":12865,"Ġpages":12866,"åįĹ":12867,"Ġcomments":12868,"Ġsave":12869,"Ġfocusing":12870,"Ġspesies":12871,"CB":12872,"ĠAdministrative":12873,"Thus":12874,"ĠRout":12875,"1108":12876,"Pem":12877,"Ġwidth":12878,"ahaya":12879,"Ġbilik":12880,"Ġclosed":12881,"Ġdescription":12882,"Ġbebas":12883,"Ġwarna":12884,"Ġblue":12885,"aftar":12886,"Ġdestination":12887,"bin":12888,"olong":12889,"Now":12890,"ĠØ¨Ø±ÙĪ":12891,"Nj":12892,"ĠØ¬Ø±ÙħØ§ÙĨ":12893,"rest":12894,"Ġemerging":12895,"Ġminggu":12896,"Ġdikatakan":12897,"Ġcloud":12898,"ĠBangi":12899,"LAH":12900,"ĠSmith":12901,"She":12902,"ADA":12903,"Ġacquisition":12904,"ĠÙĪÙħ":12905,"unei":12906,"HS":12907,"Ø³Ùħ":12908,"Ġpeserta":12909,"peri":12910,"Ma":12911,"merupakan":12912,"ĠPAS":12913,"strength":12914,"ehyd":12915,"esional":12916,"ĠCS":12917,"ĠText":12918,"teri":12919,"nama":12920,"ollar":12921,"Ġsports":12922,"IMAS":12923,"ç¿":12924,"upaten":12925,"Ġstored":12926,"Ġcharacterization":12927,"ĠAG":12928,"adequ":12929,"Allah":12930,"atanya":12931,"çº¢":12932,"æ©":12933,"ĠAman":12934,"ðĿĳĻ":12935,"ĠÙħÙĬÙĨ":12936,"otive":12937,"Special":12938,"igma":12939,"Ġcontributes":12940,"ĠFROM":12941,"Ġult":12942,"ocatal":12943,"ĠÙħÚłÙĨ":12944,"letin":12945,"cence":12946,"Ġpeperiksaan":12947,"Ø¯Ø©":12948,"ifferences":12949,"Ġprogrammes":12950,"ðĿľĩ":12951,"riage":12952,"Ġfaster":12953,"Ġadult":12954,"ĠWalaupun":12955,"ULIT":12956,"Ġ116":12957,"Ù©Ù":12958,"req":12959,"ĠNow":12960,"atics":12961,"apangan":12962,"ĠWu":12963,"\"\"":12964,"ĠFA":12965,"ĠØ¨ÙĪØ±":12966,"PAN":12967,"Ġbooks":12968,"eting":12969,"Ġpendapat":12970,"ĠProcessing":12971,"Ġexpensive":12972,"ansel":12973,"unuh":12974,"ĠØ±ÙĪÙħÙĩ":12975,"Ġmatters":12976,"ĠÙĥÙĦÙĪØ§Ø±":12977,"ries":12978,"imation":12979,"ĠScientific":12980,"Ġhukum":12981,"Ġalpha":12982,"ĠØ³ÙħÚ¤":12983,"Ġclaimed":12984,"Ġindicator":12985,"Design":12986,"Ġsulf":12987,"Ġgrateful":12988,"Ø¨Ùĩ":12989,"Ġ--":12990,"Wang":12991,"ĠKumar":12992,"ĠÙĩØ°Ø§":12993,"ĠKampus":12994,"Ġmorphology":12995,"Ø±ÙĤ":12996,"UKAN":12997,"etermine":12998,"Ġpromotion":12999,"Ġfamilies":13000,"ĠRad":13001,"ective":13002,"Ġstarch":13003,"å¤ļå°ĳ":13004,"arma":13005,"Ġdissert":13006,"ĠØ¹ÙĦÙĬÙĩ":13007,"ĠWind":13008,"ĠAfrican":13009,"ĠNevertheless":13010,"lected":13011,"ahag":13012,"çīĮ":13013,"Copyright":13014,"ĠCer":13015,"Pert":13016,"ĠHasan":13017,"ĠSn":13018,"ĠØ§Ø¥ÙĦ":13019,"employment":13020,"Ġdiesel":13021,"crimin":13022,"Ġaras":13023,"Ġvalidation":13024,"three":13025,"ĠAlgorithm":13026,"LA":13027,"ĠSed":13028,"option":13029,"Ġachieving":13030,"åĪĩ":13031,"ĠOnly":13032,"ä½İ":13033,"Ġretriev":13034,"ajaya":13035,"ĠEdition":13036,"æ¼Ķ":13037,"ĠTreatment":13038,"Ġspatial":13039,"umpul":13040,"ĠØ³ÙħÙĪØ§":13041,"Ġdemands":13042,"æĢ»":13043,"OB":13044,"ĠPT":13045,"onik":13046,"enger":13047,"Add":13048,"potential":13049,"risk":13050,"htm":13051,"romatography":13052,"ĠCronbach":13053,"Ġkejayaan":13054,"ahu":13055,"text":13056,"sample":13057,"ĠYun":13058,"hen":13059,"Second":13060,"è¿ĻäºĽ":13061,"åºľ":13062,"å¡":13063,"ç²¾":13064,"Ġwatak":13065,"ĠIndonesian":13066,"Ġpenyelidik":13067,"ylene":13068,"ĠRespondents":13069,"Ġpolice":13070,"engue":13071,"ĠPustaka":13072,"ĠØ³ÙĬØ³ØªÙħ":13073,"ĠClassification":13074,"worth":13075,"Ġelev":13076,"aer":13077,"ukakan":13078,"230":13079,"ĠParticip":13080,"cure":13081,"Ø¹ÙĬ":13082,"ĠØ³ØªÙĬØ§Ú¤":13083,"impan":13084,"RS":13085,"ĠÙħÙĨØ¯Ø§Ú¤Øª":13086,"æħ¢":13087,"Ġpelajaran":13088,"akuan":13089,"Ġtugas":13090,"oran":13091,"ĠÚ¤ÙĨØ¯ÙĬØ¯ÙĬÙĤÙĨ":13092,"step":13093,"Ġcoast":13094,"Ġdikaji":13095,"220":13096,"Ġfulfillment":13097,"urers":13098,"Ġkol":13099,"date":13100,"xiv":13101,"Associ":13102,"ongsi":13103,"åĬ¡":13104,"ĠKeputusan":13105,"Ú½ÙĤ":13106,"Ġ127":13107,"citedby":13108,"ĠMadya":13109,"ĠAge":13110,"æľª":13111,"nesses":13112,":\">":13113,"Ġexec":13114,"Ġintake":13115,"isted":13116,"orous":13117,"Ġdetailed":13118,"iesel":13119,"NATIONAL":13120,"Ġrepresentation":13121,"Ġranging":13122,"ĠName":13123,"throp":13124,"Ġtill":13125,"Ġsedia":13126,"Signature":13127,"orb":13128,"peny":13129,"complete":13130,"Ġkapal":13131,"Ġtried":13132,"Ø§ÙĦÙĦ":13133,"ĠYoung":13134,"Ġnarr":13135,"etapi":13136,"ĠHE":13137,"Ġagency":13138,"Ġthreshold":13139,"ĠÙĬÙĨ":13140,"Ġimplementing":13141,"Ġoxid":13142,"ĠWilli":13143,"Industr":13144,"Ġkerjasama":13145,"å·®":13146,"ĠClinical":13147,"olak":13148,"Ġjug":13149,"Ġ108":13150,"Ġpump":13151,"åį³":13152,"cek":13153,"çĻ¼":13154,"Ġliteracy":13155,"Some":13156,"ĠRajah":13157,"Ġrecognized":13158,"ĠEarth":13159,"ĠØ³ÙħÙĪÙĦØ§":13160,"Ġheritage":13161,"Ġpi":13162,"Ġmedicine":13163,"éĸĭ":13164,"Ġinteract":13165,"Ġpreferred":13166,"ĠANOVA":13167,"Ġplak":13168,"ĠUrban":13169,"ĠÚ¤Ø±Ø§Úł":13170,"Ġpapers":13171,"Ġsituations":13172,"Ġtok":13173,"ĠSoci":13174,"adiah":13175,"adh":13176,"Ġdriving":13177,"ĠPrime":13178,"elled":13179,"Over":13180,"ĠCarbon":13181,"Post":13182,"Ġgenes":13183,"ZX":13184,"ĠAwang":13185,"ĠØ±Ø§Ø¬":13186,"akaian":13187,"wang":13188,"Ġsetup":13189,"ĠRakyat":13190,"many":13191,"ĠTahun":13192,"bahasa":13193,"Ġakaun":13194,"Ġindicating":13195,"imm":13196,"ĠVariables":13197,"onia":13198,"Ġsatisfied":13199,"ethylene":13200,"ander":13201,"Ġonto":13202,"Ø±ÙĬØ©":13203,"argaan":13204,"RA":13205,"Ġaqueous":13206,"ĠRoh":13207,"Ġviscosity":13208,"saya":13209,"ĠMultiple":13210,"ç§ĳ":13211,"å¸ĥ":13212,"Ġpossess":13213,"Ø§ØªÙĬ":13214,"Ġcoefficients":13215,"jan":13216,"Ġny":13217,"true":13218,"WE":13219,"Ġ180":13220,"Ġmembina":13221,"Since":13222,"rint":13223,"Ġfrag":13224,"Ġdriver":13225,"linking":13226,"åı¦":13227,"è®¸":13228,"Ġhadith":13229,"ĠØ¨Ø±ÙĦØ§":13230,"ç¡®":13231,"ĠÚ¤ÙħØ§ÙĬÙĨ":13232,"orter":13233,"Ġpertumbuhan":13234,"chi":13235,"otox":13236,"ĠKam":13237,"138":13238,"Ġolder":13239,"ymmet":13240,"blog":13241,"Ġpollut":13242,"NI":13243,"could":13244,"ĠØ³Ø¬ÙĤ":13245,"Ġpermainan":13246,"perm":13247,"Ġple":13248,"Ġheating":13249,"ĠMuk":13250,"ICT":13251,"ĠYusoff":13252,"countries":13253,"Ġfatty":13254,"Ġcoming":13255,"Ø®Ø±":13256,"law":13257,"ducing":13258,"Ġsleep":13259,"posium":13260,"ĠSeminar":13261,"Portal":13262,"FF":13263,"cs":13264,"Ġmilk":13265,"ilibrium":13266,"erts":13267,"Ø¬ÙĨ":13268,"Ser":13269,"ancang":13270,"Ġremaja":13271,"ĠAsli":13272,"æĿ¡":13273,"reported":13274,"ä¹ĭåīį":13275,"rying":13276,"ĠØ³ÙĨØ¯ÙĬØ±ÙĬ":13277,"etry":13278,"ä¸ĸçķĮ":13279,"ĠGender":13280,"Ġpagi":13281,"ML":13282,"andingkan":13283,"paper":13284,"ĠKan":13285,"ĠTWO":13286,"è½¬":13287,"ĠSUR":13288,"Ġhypotheses":13289,"019":13290,"ĠLemb":13291,"ĠFac":13292,"Ġintegrity":13293,"ĠField":13294,"Ham":13295,"Ġtourist":13296,"ĠØ±ÙĪ":13297,"ĠØ¨Ø±Ø¯":13298,"Ġspent":13299,"ĠMechan":13300,"family":13301,"Ġcited":13302,"ayang":13303,"tapi":13304,"alisis":13305,"ÙħÙĬØ©":13306,"ĠPrice":13307,"Ġtimur":13308,"elfare":13309,"155":13310,"Ġcausing":13311,"RT":13312,"Ġsensitive":13313,"ĠPerb":13314,"ĠIdris":13315,"ĠEurope":13316,"ç¦»":13317,"indd":13318,"å¾·":13319,"Ġegg":13320,"ĠØ§Ø£":13321,"Ġcovered":13322,"Ġdrama":13323,"sein":13324,"aporkan":13325,"Ġkemudahan":13326,"Ġmolecules":13327,"community":13328,"Ġberbentuk":13329,"æ¯į":13330,"Ġidentifying":13331,"ibi":13332,"133":13333,"erted":13334,"oli":13335,"ukm":13336,"Ġremaining":13337,"äº²":13338,"Ġrujukan":13339,"Ġenam":13340,"organic":13341,"ĠTrade":13342,"åħ±":13343,"Ġmemulakan":13344,"ĠPati":13345,"Ġaplikasi":13346,"Ġstyles":13347,"variables":13348,"Ġkekuatan":13349,"feed":13350,"ette":13351,"ĠSS":13352,"Abdullah":13353,"ogical":13354,"ĠVir":13355,"Ġpenulis":13356,"ĠCourt":13357,"Ġ1675":13358,"ĠOptimization":13359,"ĠHalim":13360,"udge":13361,"ceh":13362,"Market":13363,"ĠDecision":13364,"Ġdissertation":13365,"emed":13366,"uarter":13367,"udayaan":13368,"ä¸Ģèµ·":13369,"abungan":13370,"Indonesia":13371,"ebihi":13372,"ĠEFF":13373,"è¿ŀ":13374,"various":13375,"Ġtertinggi":13376,"anji":13377,"dh":13378,"ĠPoly":13379,"aight":13380,"faat":13381,"ĠØ¶":13382,"éĻ¢":13383,"bitan":13384,"ĠØ¢":13385,"æŁ¥":13386,"Ġdiscovered":13387,"Techn":13388,"ÙĪÙĨØªÙĪ":13389,"ĠSignificant":13390,"Ġinjury":13391,"ĠØ§Ø¥ÙĦØ³Ø§ÙĦÙħ":13392,"USD":13393,"BACHELOR":13394,"Ġjawatan":13395,"Ġcultures":13396,"Ġumur":13397,"ĠConceptual":13398,"Ġlayers":13399,"UE":13400,"IMA":13401,"Ġhyper":13402,"Ġquantity":13403,"rew":13404,"ĠZakat":13405,"aying":13406,"Ġpelanggan":13407,"efficiency":13408,"Ġcukup":13409,"Ġumat":13410,"ØªÙĬÙĥÙĨ":13411,"Ġremoved":13412,"Ġnanti":13413,"Ġcapt":13414,"Zn":13415,"Ġunless":13416,"Bank":13417,"Ġ121":13418,"itosan":13419,"ĠØŃÙħ":13420,"ĠFoundation":13421,"ĠSimilarly":13422,"Ġlosses":13423,"Ġalter":13424,"Ġproperly":13425,"ESIS":13426,"ĠØ§ÙĦÙĤØ±":13427,"gae":13428,"Ġassessed":13429,"ÙĪØ±Ø¯":13430,"ompok":13431,"Ġwarisan":13432,"plate":13433,"1088":13434,"Ġprovision":13435,"MAR":13436,"Ġstem":13437,"ĠAZ":13438,"ogenous":13439,"WC":13440,"ĠSul":13441,"isyen":13442,"ĠÙĥÙĦØ§":13443,"ĠØ¬Ø§ÙĦÙĨ":13444,"xii":13445,"reme":13446,"oC":13447,"eISSN":13448,"Ġanalyse":13449,"Ġbeneficial":13450,"induced":13451,"ĠGre":13452,"æŃ¥":13453,"ç¥¨":13454,"åºķ":13455,"Sarjana":13456,"Ġelimin":13457,"gerakan":13458,"Ġdeterminants":13459,"132":13460,"æİ¨":13461,"Ġ1982":13462,"Asia":13463,"Most":13464,"Ġsubs":13465,"actory":13466,"ĠĠĠĠĠĠĠĠĠĠĠĠĠĠĠĠĠĠ":13467,"Ġutilization":13468,"æį®":13469,"erion":13470,"Ġacet":13471,"åĮĹ":13472,"icated":13473,"ifestyle":13474,"Ø§Ø·":13475,"Other":13476,"Ġbot":13477,"Ġweather":13478,"ĠRespons":13479,"Ġhon":13480,"åģĩ":13481,"Web":13482,"aken":13483,"ĠØ§ÙĪÙĨÙĬ":13484,"dagangan":13485,"ĠDunia":13486,"enti":13487,"ÙĪÛı":13488,"Up":13489,"ĠÚ¤ÙĦ":13490,"ĠÙħÙĪØ³ÙĬÙħ":13491,"ĠEc":13492,"Ġpemimpin":13493,"Ġbiod":13494,"ĠSaya":13495,"-.":13496,"Yang":13497,"sil":13498,"Ros":13499,"Ġreput":13500,"Ġemosi":13501,"ĠImplementation":13502,"Ġreka":13503,"problem":13504,"ÙĪÙĦÙĪÚ¬ÙĬ":13505,"LIC":13506,"viously":13507,"Inf":13508,"................................................................................":13509,"hern":13510,"Citing":13511,"Ġanimals":13512,"elligent":13513,"oval":13514,"ç¶ĵ":13515,"ENE":13516,"Ġtypical":13517,"Ġextrem":13518,"ĠØ§Ø³ÙĦØ§Ùħ":13519,"ĠFree":13520,"Ġmahupun":13521,"ĠProfile":13522,"åĢ¼":13523,"Ġfun":13524,"ĠÚ¤Ø§ÙĦÙĬÚł":13525,"organizational":13526,"Ġcontinued":13527,"AV":13528,"è»":13529,"ĠSustainability":13530,"ĠPacific":13531,"ĠProcedia":13532,"Ġeff":13533,"URL":13534,"Ġpokok":13535,"ĠSand":13536,"ĠCong":13537,"ä¸ĢçĽ´":13538,"ĠContemporary":13539,"uation":13540,"engku":13541,"HY":13542,"Ġdecided":13543,"174":13544,"ĠCountr":13545,"ishing":13546,"Ġsuka":13547,"Ġabsence":13548,"Ġevolution":13549,"åľ°æĸ¹":13550,"ache":13551,"ãĢĢãĢĢ":13552,"Ġmesti":13553,"ĠBACK":13554,"jak":13555,"Ġdarah":13556,"Ġsubjected":13557,"å±ĭ":13558,"Ġsecre":13559,"ĠWorking":13560,"Ġjobs":13561,"Ġsignals":13562,"Sekolah":13563,"Ket":13564,"Ġmacro":13565,"Ġspecimen":13566,"you":13567,"Ġcampaign":13568,"ĠMun":13569,"Ġturnover":13570,"Ġsea":13571,"ĠWaste":13572,"åıªæľī":13573,"ĠNews":13574,"ĠChart":13575,"awang":13576,"inst":13577,"åĪĨäº«":13578,"placed":13579,"Ġexpansion":13580,"ĠĠĠĠĠĠĠĠĠĠĠĠĠĠĠĠĠĠĠĠĠĠĠĠĠĠĠĠĠĠĠĠĠĠĠĠĠĠĠĠĠĠĠĠĠĠĠĠĠĠĠĠĠĠĠĠ":13581,"Ġnanofluid":13582,"700":13583,"ĠÚ¤Ø±Øª":13584,"Email":13585,"Ġnumerical":13586,"Ġ:-":13587,"ĠCI":13588,"ĠView":13589,"ĠTrust":13590,"Ġsizes":13591,"Ġreactions":13592,"ĠOcc":13593,"çĨ":13594,"Ġgrade":13595,"ĠSTAT":13596,"Ġparallel":13597,"Ġdoub":13598,"po":13599,"å©ļ":13600,"ald":13601,"auth":13602,"Ġdur":13603,"ÛıØ±Ø³ÙĬ":13604,"âİ":13605,"ternative":13606,"ĠProphet":13607,"source":13608,"represent":13609,"Ġproportion":13610,"Ø´Ø±":13611,"ĠAK":13612,"uels":13613,"å±ķ":13614,"ĠPP":13615,"Ġorganisational":13616,"iqh":13617,"anselor":13618,"Ġpropag":13619,"è±¡":13620,"ĠÚ¤ÙĪÚ¤ÙĪÙĦ":13621,"ðĿĲ¼":13622,"Ġinterpretation":13623,"lee":13624,"Ġcheap":13625,"147":13626,"Ġ122":13627,"ĠSK":13628,"ĠJamal":13629,"Ġlign":13630,"nih":13631,"Ġbacterial":13632,"Ġdisediakan":13633,">>":13634,"satu":13635,"ĠVisual":13636,"Ġfill":13637,"Ġhandling":13638,"ĠFuzzy":13639,"ĠSAW":13640,"Ġkil":13641,"Ġregulation":13642,"methods":13643,"Ġgamb":13644,"ĠChallenges":13645,"ç»Ł":13646,"oped":13647,"åĨ³":13648,"Ġfig":13649,"Ġcabaran":13650,"inations":13651,"ĠRamli":13652,"Ġprinsip":13653,"Ġrobot":13654,"Ġparti":13655,"istrict":13656,"ĠPopulation":13657,"ĠÙĥØ±ÙĬ":13658,"ĠSpringer":13659,"ejah":13660,"ĠKetua":13661,"ĠStrength":13662,"amy":13663,"emuan":13664,"Ġkaki":13665,"diff":13666,"Ġpengg":13667,"icken":13668,"Ġtrends":13669,"~~~~":13670,"æİī":13671,"Ù¡Ù©Ù":13672,"Kar":13673,"Ġresidents":13674,"Ġvocabulary":13675,"ĠCOD":13676,"APPENDICES":13677,"ĠØ§ÙĦØ¨ÙĪÙħ":13678,"Melayu":13679,"ĠUKM":13680,"ael":13681,"Ġpopulasi":13682,"ammed":13683,"suggest":13684,"tim":13685,"inggalkan":13686,"ĠSUB":13687,"condition":13688,"Ø§ÙħÙĨ":13689,"Ġuncertainty":13690,"ĠKec":13691,"ranes":13692,"ĠØ¥ÙĬØ±Ø§ÙĨ":13693,"alikan":13694,"Ø¹ÙĦ":13695,"ĠPublications":13696,"Ġmere":13697,"Ġenvironments":13698,"Ġlol":13699,"ĠØªÙĬÚłÚ¬ÙĬ":13700,"Another":13701,"SK":13702,"ĠRoad":13703,"Ġbt":13704,"å¼Ł":13705,"ĠTerhadap":13706,"Ġextend":13707,"Ġoverview":13708,"Ġ124":13709,"çº¿":13710,"ÙħØ©":13711,"Ġinhibition":13712,"ĠĠĠĠĠĠĠĠĠĠĠĠĠĠĠĠĠ":13713,"åħį":13714,"ØªØ§Ùĩ":13715,"Ġseparate":13716,"syen":13717,"bud":13718,"ä»¤":13719,"Ġmemas":13720,"å½¢":13721,"ajari":13722,"Ġkrit":13723,"Mac":13724,"andi":13725,"Ġhoney":13726,"uasaan":13727,"ðĿĳłðĿĳł":13728,"åĻ¨":13729,"ĠTurkey":13730,"kerana":13731,"ĠØ³ÙĪÚłØ§ÙĬ":13732,"Ġvehicles":13733,"GROUND":13734,"alled":13735,"ĠIM":13736,"Ġinjection":13737,"æ»¡":13738,"hibition":13739,"conducted":13740,"Ġsincere":13741,"å¯¼":13742,"Ġsimply":13743,"Ġfreedom":13744,"CitingArticles":13745,"ØªÙĪØ³":13746,"Ġrevenue":13747,"Ġrobust":13748,"Ġintended":13749,"Ġhadapan":13750,"Ġrasmi":13751,"ĠïĢ½":13752,"esor":13753,"Ġpenet":13754,"Ġtrip":13755,"ĠForest":13756,"ĠPhilipp":13757,"chase":13758,"ĠSyah":13759,"137":13760,"agar":13761,"ĠPerdana":13762,"Ġluas":13763,"emui":13764,"çĻ¾":13765,"uali":13766,"ä»ĭ":13767,"Ġsubstantial":13768,"ðĿĽ¼":13769,"Ġmoden":13770,"patients":13771,"Ġrpm":13772,"Ġprepar":13773,"-(":13774,"ANI":13775,"Ġactivation":13776,"ĠÙĩØ°Ùĩ":13777,"EMBER":13778,"emu":13779,"Ġantenna":13780,"ĠStock":13781,"hamdulillah":13782,"ĠPerceived":13783,"rr":13784,"Ġexpend":13785,"Ġdescribes":13786,"Ġinstruments":13787,"anggil":13788,"ĠHafiz":13789,"Config":13790,"experience":13791,"æĿ¿":13792,"ĠMETHODS":13793,"Ġubah":13794,"Ġaged":13795,"Ġturun":13796,"ĠUSING":13797,";&#":13798,"çļĦæĹ¶åĢĻ":13799,"mediately":13800,"ĠÚ¤ÙĨØª":13801,"ĠRah":13802,"Ġdecades":13803,"ĠRaya":13804,"edahan":13805,"MOH":13806,"iaitu":13807,"ÙĪÚ¤Ø§ØªÙĬÙĨ":13808,"åħ¶ä»ĸ":13809,"Ġbought":13810,"ĠInternal":13811,"Ġcomplexity":13812,"ĠØ¯ÙĬØ±ÙĬ":13813,"ĠMAS":13814,"Ġsong":13815,"Oleh":13816,"stock":13817,"Ġskor":13818,"202":13819,"ĠYes":13820,"åį°":13821,"made":13822,"Ġ^":13823,"ahwinan":13824,"Ġpanduan":13825,"ceptance":13826,"Ġef":13827,"Ġorganisations":13828,"esterday":13829,"gent":13830,"Ġ129":13831,"Ġpurata":13832,"Conclusion":13833,"take":13834,"ios":13835,"ilation":13836,"ĠÙĥØ¬":13837,"Ġdikeluarkan":13838,"Ġreplacement":13839,"ĠCritical":13840,"ĠResponse":13841,"itting":13842,"Ġexpertise":13843,"æ¥¼ä¸»":13844,"Ġgal":13845,"gar":13846,"Ġwavel":13847,"ĠØªÙĤ":13848,"dependent":13849,"Ġsuff":13850,"Ø§Ø§":13851,"astro":13852,"ĠBehavioral":13853,"ifikasi":13854,"ujuh":13855,"material":13856,"ropah":13857,"without":13858,"åĩĨ":13859,"âĪĳ":13860,"factor":13861,"æķĪ":13862,"Ġberasal":13863,"opl":13864,"elit":13865,"Ġwants":13866,"ĠEngine":13867,"curement":13868,"Ġ112":13869,"ĠHIV":13870,"è®¾":13871,"ented":13872,"mac":13873,"international":13874,"univers":13875,"ĠAgama":13876,"Publisher":13877,"Ġperforming":13878,"ĠMag":13879,"åħ´":13880,"Ġmang":13881,"Sumber":13882,"user":13883,"Ġcepat":13884,"Ġma":13885,"Ġinitiatives":13886,"omes":13887,"è§Ĩ":13888,"ÙĩØ§Ø¯Ú¤":13889,"krit":13890,"Ġhistorical":13891,"Ġclients":13892,"Ġmatlamat":13893,"Ġcamera":13894,"asiswa":13895,"ĠÙĥÚĨÙĬÙĦ":13896,"Ġetnik":13897,"Ġgraduates":13898,"Arab":13899,"åĬŀ":13900,"urrently":13901,"Ġ2289":13902,"ĠPeninsular":13903,"ÙĪØ±ÙĥÙĨ":13904,"Rob":13905,"Ġdark":13906,"ĠAng":13907,"Ġinstruction":13908,"Ġplease":13909,"Ġkept":13910,"unung":13911,"sequent":13912,"ĠTechnical":13913,"iva":13914,"Ġï¿½ï¿½ï¿½ï¿½":13915,"Ġrisiko":13916,"ĠHu":13917,"æľīäºº":13918,"ĠFaiz":13919,"Ġditerbitkan":13920,"Ø§Ø³ÙĬÙĩ":13921,"baru":13922,"åĨĻ":13923,"emukakan":13924,"ĠAmir":13925,"esaian":13926,"Ø³Ø³":13927,"ĠCreative":13928,"solute":13929,"ÙĲÙĳ":13930,"tions":13931,"ĠMolecular":13932,"ĠGermany":13933,"ÙĪØµ":13934,"ĠThai":13935,"pan":13936,"atios":13937,"advantages":13938,"Finally":13939,"share":13940,"Ġenhancing":13941,"bahan":13942,"ĠPublisher":13943,"Ġreviews":13944,"Ġfather":13945,"tilah":13946,"roleum":13947,"Ġrig":13948,"kah":13949,"153":13950,"Ġconstraints":13951,"uasai":13952,"ĠÙĥØ§Ø¨ÙĪÚ¤Ø§ØªÙĬÙĨ":13953,"Ġbonus":13954,"ĠDon":13955,"Ġinduced":13956,"åĿ¡":13957,"¡Ùł":13958,"ĠProgramme":13959,"orge":13960,"ĠÙ¡Ù©Ù§":13961,"Kem":13962,"ĠSL":13963,"ØªØ§ÙĥÙĨ":13964,"UI":13965,"Ġfear":13966,"ĠKumpulan":13967,"157":13968,"Ġchallenging":13969,"Ġistilah":13970,"ĠChildren":13971,"EPR":13972,"Ġassumed":13973,"urning":13974,"ĠKerja":13975,"ensus":13976,"ZXJQ":13977,"enrichSource":13978,"Review":13979,"YWdl":13980,"ä¸įçŁ¥éģĵ":13981,"enrichId":13982,"ZXJQYWdl":13983,"ZXJQYWdlOz":13984,"rgreq":13985,"æĶ¿åºľ":13986,"eless":13987,"Ġcomputing":13988,"haru":13989,"Ġspecimens":13990,"ĠNasir":13991,"cosystem":13992,"Ġlocations":13993,"Ġrepeated":13994,"Ġmeta":13995,"Ġconsequences":13996,"ĠAntarabangsa":13997,"VM":13998,"Ġkedai":13999,"Pendidikan":14000,"ĠRo":14001,"ĠFINDINGS":14002,"156":14003,"Process":14004,"ĠØ£Ùħ":14005,"raq":14006,"Ġrecords":14007,"Ġdried":14008,"Ġsuperior":14009,"Ġexceed":14010,"è´§":14011,"ĠVariable":14012,"ĠÙĥØ§ÙĦÙĬ":14013,"ĠGal":14014,"rared":14015,"hlet":14016,"ĠKejuruteraan":14017,"è¯Ń":14018,"éĮ":14019,"exclude":14020,"Ġproved":14021,"etuju":14022,"aktif":14023,"Ġlimitation":14024,"Ġburn":14025,"ĠEL":14026,"Ġfelt":14027,"Ġderiv":14028,"Ġemas":14029,"ewa":14030,"ĠLoad":14031,"title":14032,"ayai":14033,"ĠNorm":14034,"Ġbenar":14035,"Chen":14036,"ĠMans":14037,"222":14038,"Ġtransaction":14039,"Ġdominant":14040,"ĠDegree":14041,"Ø±Ø§Ø³ÙĬ":14042,"company":14043,"ĠPolymer":14044,"ĠEnh":14045,"SIM":14046,"Lim":14047,"Ġsustain":14048,"istiwa":14049,"VIS":14050,"published":14051,"tinggi":14052,"FK":14053,"Ġdental":14054,"Ġanggota":14055,"ĠRh":14056,"eds":14057,"ERIALS":14058,"mus":14059,"Ġmerangkumi":14060,"Ġspl":14061,"ðĿĳ¦":14062,"amber":14063,"âī":14064,"Ġeverything":14065,"tBU":14066,"Â·Â·Â·Â·Â·Â·Â·Â·":14067,"ĠTERHAD":14068,"amkan":14069,"esity":14070,"ĠÙħØŃÙħØ¯":14071,"Ġditetapkan":14072,"çľĭçľĭ":14073,"intahan":14074,"indahan":14075,"Ġhereby":14076,"entera":14077,"situ":14078,"è¬":14079,"income":14080,"Ġslope":14081,"143":14082,"ĠQuestionnaire":14083,"ĠPengenalan":14084,"æĸ¼":14085,"Next":14086,"DNA":14087,"Âº":14088,"Ġfre":14089,"ĠJord":14090,"Ġcircum":14091,"Ġconstructed":14092,"Ġub":14093,"ĠTen":14094,"Bas":14095,"ðĿĲµðĿĲµ":14096,"Ġmeth":14097,"Ġpedag":14098,"road":14099,"AAN":14100,"ipping":14101,"ĠHouse":14102,"Ġhoriz":14103,"Ġsepenuh":14104,"Ġpregn":14105,"engok":14106,"ĠAgriculture":14107,"ĠØ§ÙħÙĦØ¹":14108,"loy":14109,"ĠSolid":14110,"groups":14111,"ÙĦØ¨Ø§Ú¬Ø§ÙĬ":14112,"General":14113,"è´µ":14114,"fil":14115,"olin":14116,"Ġï£":14117,"stac":14118,"Ġincident":14119,"Ġdistrict":14120,"considered":14121,"Ġsettings":14122,"Ġedge":14123,"Ġexam":14124,"Sl":14125,"Ġnombor":14126,"Ġguys":14127,"ĠÙĦØ§Ú¤ÚłÙĨ":14128,"Ġ1981":14129,"IDS":14130,"ðĿĲºðĿĲº":14131,"Ġpensyarah":14132,"Ġexists":14133,"ahar":14134,"protected":14135,"é¤Ĳ":14136,"165":14137,"å²ģ":14138,"open":14139,"Ġsold":14140,"åĬ©":14141,"Ġlaman":14142,"iology":14143,"Kata":14144,"Ġalcohol":14145,"Ġkulit":14146,"ĠØ§ÙĪÙĥ":14147,"Exclude":14148,"Ġmuncul":14149,"ä»½":14150,"Ġsubjek":14151,"agal":14152,"igenous":14153,"orr":14154,"Ġelectricity":14155,"149":14156,"ohyd":14157,"èĸ":14158,"FullRec":14159,"Att":14160,"Ġobservations":14161,"Ġanything":14162,"603":14163,"Ġ126":14164,"Mo":14165,"Cal":14166,"impact":14167,"ĠPRODUC":14168,"Ġmati":14169,"Ġguarant":14170,"ðĿĲ´ðĿĲ´":14171,"Ġwealth":14172,"ĠÙħÙħØ¨ÙĪØ§Øª":14173,"çĭĹ":14174,"æĤ¨":14175,"240":14176,"ilic":14177,"implementation":14178,"éĿŀå¸¸":14179,"ĠØ³ÙĬØ±ÙĬ":14180,"ĠÙĥÙĬÙĨÙĬ":14181,"Ġmengel":14182,"åĳ¨":14183,"Ġvertical":14184,"total":14185,"ĠYu":14186,"ï¼ļâĢľ":14187,"Ġsurrounding":14188,"ĠEngland":14189,"Ġscenario":14190,"Ġhij":14191,"AST":14192,"1981":14193,"itmen":14194,"rad":14195,"Ġprepare":14196,"biology":14197,"ARD":14198,"è¯ģ":14199,"ĠÚ¬ÙĦ":14200,"ØºØ©":14201,"Ġadat":14202,"å¼ķ":14203,"GI":14204,"haps":14205,"Ġcorrosion":14206,"might":14207,"Ø¯ÙĪØ§":14208,"Ġshares":14209,"ĠMaklumat":14210,"ĠJal":14211,"çķ¶":14212,"arrow":14213,"uries":14214,"Ġdisebut":14215,"ĠAsh":14216,"acters":14217,"umpuan":14218,"ĠØªØ±Ùĥ":14219,"excludeEvent":14220,"ĠFebruari":14221,"Ġintellectual":14222,"IfFrom":14223,"ExcludeIfFrom":14224,"excludeEventConfig":14225,"ayati":14226,"Ġgran":14227,"oks":14228,"Ġillustrated":14229,"ïĬ»":14230,"Ø¬ÙĬÙĨ":14231,"ĠKabupaten":14232,"authorId":14233,"ĠMasyarakat":14234,"Ġspectra":14235,"ĠRaj":14236,"Ġdiverse":14237,"Ġearn":14238,"antina":14239,"ĠStrategies":14240,"Ġassembly":14241,"Ġfamili":14242,"systems":14243,"Ġeye":14244,"Ġagenda":14245,"Ġmenyer":14246,"Ġenhancement":14247,"ĠMis":14248,"168":14249,"Ù¢ÙłÙłÙ":14250,"menc":14251,"authid":14252,"fund":14253,"159":14254,"ius":14255,"ĠCC":14256,"Ġglob":14257,"ĠDetermination":14258,"ĠØ¹ÙĦÙĬ":14259,"Ġfavour":14260,"enty":14261,"Ġgenerasi":14262,"ĠDALAM":14263,"Ø§Ø±ÙĨ":14264,"Ġbehavioral":14265,"Ġadopt":14266,"rele":14267,"Ġblog":14268,"Ġkomponen":14269,"MISSION":14270,"Ġisi":14271,"Ġdont":14272,"alnya":14273,"ĠUm":14274,"Ġequivalent":14275,"åĵªéĩĮ":14276,"Ġfight":14277,"ahl":14278,"Diploma":14279,"éħį":14280,"benef":14281,"materials":14282,"ĠModern":14283,"YA":14284,"particular":14285,"within":14286,"IMP":14287,"Ġregistered":14288,"Ġpunya":14289,"Ġcoli":14290,"ä¸įéĶĻ":14291,"Ġoptions":14292,"igm":14293,"Ġdiffusion":14294,"Ø³ÙĦ":14295,"ĠSYMB":14296,"ĠAnak":14297,"afsir":14298,"ĠMov":14299,"month":14300,"ĠAutom":14301,"try":14302,"Ġsuggestions":14303,"RNA":14304,"Ġtranslation":14305,"ĠTypes":14306,"cross":14307,"978":14308,"ulih":14309,"Ġresidual":14310,"fill":14311,"ĠDim":14312,"ĠRashid":14313,"ekt":14314,"ĠAdditionally":14315,"ĠVietnam":14316,"POS":14317,"Ġgained":14318,"142":14319,"Ġfoods":14320,"å¾ħ":14321,"akitangan":14322,"çº¦":14323,"æ¨£":14324,"006":14325,"Ġperme":14326,"Ġrapidly":14327,"éĤ£éĩĮ":14328,"Ġorganized":14329,"ferred":14330,"ĠMachine":14331,"UTHOR":14332,"ĠTitle":14333,"ĠÙĥÙĪØªØ§":14334,"enz":14335,"oka":14336,"cut":14337,"intaan":14338,"Sun":14339,"''":14340,"ioned":14341,"ĠÙł":14342,"èŃ¦":14343,"Ġmorning":14344,"subject":14345,"ealand":14346,"negative":14347,"METHOD":14348,"ĠÙ¢ÙłÙłÙ¡":14349,"007":14350,"forcement":14351,"èĢĮå·²":14352,"1980":14353,"ĠïĢŃ":14354,"ĠØ¯Ø±Ø§":14355,"uai":14356,"Ġfriendly":14357,"1984":14358,"EVELOPMENT":14359,"Af":14360,"017":14361,"masalah":14362,"IRAN":14363,"Ġmortality":14364,"ÙĩØ§Ú¬ÙĬÙĨ":14365,"Currency":14366,"Ġgrad":14367,"uarterly":14368,"anty":14369,"Ġmelebihi":14370,"è´¨":14371,"investig":14372,"Ġpengeluaran":14373,"Ġflexibility":14374,"ĠTransport":14375,"Ġkomputer":14376,"ĠFaktor":14377,"Ġ000":14378,"ĠÙĥÙĩ":14379,".%":14380,"ĠRich":14381,"ĠPersonal":14382,"Ø±Ùħ":14383,"ĠWil":14384,"analisis":14385,"Ġdifficulty":14386,"Ġopinions":14387,"ĠØ¬ÙĨÙĬØ³":14388,"âĢ¦..":14389,"digunakan":14390,"ĠAbidin":14391,"Ġkitab":14392,"ðĿĳĳðĿĳĳ":14393,"break":14394,"phalt":14395,"section":14396,"203":14397,"Ġpal":14398,"ipal":14399,"resources":14400,"ademia":14401,"Ġflexible":14402,"éĢģ":14403,"Human":14404,"Ġbarang":14405,"ĠBrunei":14406,"IH":14407,"Ġcompletely":14408,"Ġkayu":14409,"ĠHR":14410,"ĠÙħØ§Øª":14411,"è¡£":14412,"èĦĳ":14413,"ĠOBJ":14414,"airman":14415,"Ġbodies":14416,"conditions":14417,"igi":14418,"ç»Ń":14419,"å¦Ĥä½ķ":14420,"Ġpromoting":14421,"ĠPresident":14422,"inet":14423,"izan":14424,"Ġban":14425,"è§Ĥ":14426,"ĠSingapura":14427,"aisal":14428,"Ġsenior":14429,"ĠDescription":14430,"Ġpej":14431,"Ø¨ÚłØ³Ø§":14432,"Ġcharacterized":14433,"Ġfloor":14434,"Ġsodium":14435,"Ġdataset":14436,"Ġauthent":14437,"Ġdefine":14438,"Ġsheet":14439,"AKAN":14440,"Ġexplanation":14441,"afik":14442,"ĠChan":14443,"åħĭ":14444,"å¹²":14445,"Ġplaying":14446,"åĳµ":14447,"ä¸ĵ":14448,"Ġsexual":14449,"Ġaggregate":14450,"Ġadoles":14451,"Ġliver":14452,"Ġpicture":14453,"Ka":14454,"Ġkeupayaan":14455,"ðĿĳĵðĿĳĵ":14456,"å¤ľ":14457,"Ġmixing":14458,"STUD":14459,"Ġadapted":14460,"lay":14461,"ĠØ§Øª":14462,"Ġsymbol":14463,"influence":14464,"Ġteg":14465,"Ġdecomp":14466,"Ġappears":14467,"Ġterutama":14468,"Ġobjects":14469,"Malay":14470,"utrajaya":14471,"ĠBak":14472,"cd":14473,"Ġlooks":14474,"adr":14475,"elajari":14476,"éħĴ":14477,"reatif":14478,"ĠØ°ÙĦÙĥ":14479,"ĠADM":14480,"Ġdoct":14481,"Ġlabor":14482,"Ġlokasi":14483,"gs":14484,"Ú¤Ø§":14485,"ĠEropah":14486,"012":14487,"Ġjourney":14488,"refeid":14489,"refstat":14490,"ðĿľķ":14491,"ĠIsa":14492,"shown":14493,"ÂłÂłÂłÂł":14494,"ĠAhmed":14495,"ishes":14496,"ibly":14497,"ĠØ§ÙĦÙĬØª":14498,"DIS":14499,"contribut":14500,"Ġoperasi":14501,"GT":14502,"Ġberterusan":14503,"Ġsimpl":14504,"agues":14505,"Ġresearches":14506,"seling":14507,"ĠØ¬Ùħ":14508,"Ġkemudiannya":14509,"Ġpersons":14510,"TIONS":14511,"insi":14512,"ĠIz":14513,"ĠEs":14514,"ĠØªØ±ÙĩØ§Ø¯Ú¤":14515,"ĠAustralian":14516,"ornia":14517,"ĠØ¯ÙĬÙĨ":14518,"showed":14519,"ĠPublication":14520,"Ġjugak":14521,"ĠÚ¤Ø§Ø±Ø§":14522,"ounced":14523,"ä¸ªäºº":14524,"ĠÚ¤ÙĪØ³Øª":14525,"Ġexplains":14526,"ĠABDUL":14527,"Ġcomparative":14528,"152":14529,"ĠGer":14530,"lat":14531,"Ġdos":14532,"è¶£":14533,"Ġtransactions":14534,"Ġca":14535,"Ġmanip":14536,"ÙĪÚ¬Ø±Ùĩ":14537,"Ġbumi":14538,"Far":14539,"Ġkepercayaan":14540,"ĠØ±Ø§Ùħ":14541,"å®ľ":14542,"æĪĳä¹Ł":14543,"æĪĺ":14544,"Ġchannels":14545,"Ġhip":14546,"Ġcomplain":14547,"æľīä¸Ģ":14548,"Ġclosely":14549,"ĠENG":14550,"ĠPersekutuan":14551,"Ġasing":14552,"entuan":14553,"148":14554,"Ġhadis":14555,"ambang":14556,"Ġfruits":14557,"tiraf":14558,"Ġmemainkan":14559,"adium":14560,"Ġunable":14561,"ĠMusa":14562,"ĠÙħÙĨØªØ±ÙĬ":14563,"TD":14564,"roscope":14565,"ÙĬØ·":14566,"adbir":14567,"Ġbias":14568,"Ġminor":14569,"dy":14570,"Ġformulation":14571,"Ġprevention":14572,"asian":14573,"fat":14574,"pembelajaran":14575,"è¯Ĩ":14576,"Ġpersepsi":14577,"ĠBetween":14578,"actic":14579,"Ġmenjawab":14580,"ĠMos":14581,"iminal":14582,"oga":14583,"Es":14584,"Ġakhirnya":14585,"350":14586,"sikologi":14587,"keh":14588,"ĠHeat":14589,"010":14590,"Ġresist":14591,"ĠØ¨ÙĪÙĦØ§":14592,"UV":14593,"OND":14594,"akaful":14595,"è·ĳ":14596,"iak":14597,"ĠÙĥØ§Ø¯":14598,"Ġdikenal":14599,"Ġcontrolling":14600,"Selangor":14601,"unk":14602,"Ġ.....":14603,"ĠØ¯Ùħ":14604,"ÙĦØª":14605,"ÙĪØ³ÙĨ":14606,"Ġeat":14607,"Ġdidn":14608,"behaviour":14609,"extract":14610,"Ġsungai":14611,"Ġempower":14612,"Ġrecept":14613,"ungal":14614,"ANC":14615,"Ġsensors":14616,"Ġsamb":14617,"Ġketingg":14618,"åĲ¦":14619,"nm":14620,"ĠÙ¡Ù¥":14621,"ØŃØ§ØµÙĬÙĦÙĥÙĨ":14622,"cludes":14623,"ĠDam":14624,"Ġwaiting":14625,"ÙĦÙĪØ±ÙĪÙĩÙĨ":14626,"enggara":14627,"Ġtropical":14628,"nas":14629,"Ġcopper":14630,"ographical":14631,"area":14632,"Ġalbum":14633,"ahanan":14634,"ĠSimp":14635,"global":14636,"Ġengage":14637,"usses":14638,"ĠØ±Ø§Ø³":14639,"Ġcontributions":14640,
[...]
